1fc1
1fc4
0040
1fa1
1f82
1fa3
0065
00a6
1fa8
1fc9
00eb
00ec
1fcd
0091
1fd4
004b
0050
0051
0056
1fc1
1fc6
0049
004a
1fcb
004d
0051
00d2
0053
00b7
0098
0042
0068
0049
004e
1fcf
0051
1fd2
0055
0056
1fc0
1fc1
1fa2
1fc4
1fc6
1fa7
008a
004b
006f
00b0
1fd5
0041
0082
00c3
00a4
0047
00a8
00c9
1fca
1fab
004e
1faf
1fd0
1f91
1f92
1fd4
1fd5
1fd6
1fa0
1fa1
1fc7
1fcb
1fcc
1f94
0000
