1fc0
1fa4
1fc9
006b
004c
0050
1fb4
1f95
1f96
0060
0045
1fcc
004d
1fd0
1fd1
0053
0058
0048
0048
0049
006e
004f
1fd1
0074
0055
1fc7
1fd2
1fd7
1fd8
0041
1fc7
1fc8
1fd6
1fd7
0046
1fd0
1fd1
1fb4
1fc5
1fc6
1fa7
1fa8
1fca
1fab
1f8c
1fcd
1fd0
1fb1
0054
0000
