0049
1fcb
004d
004e
1fcf
1f90
1fb1
1fd3
0057
0058
0040
0041
1fa3
1fc4
0045
1fc7
1fc8
1fcc
0052
0053
0057
0058
0043
1fcb
1fcd
1fd2
1fd3
1fd6
1fd7
1fd8
1fa1
1fc2
1fc6
1fc7
1fad
1fce
004f
0055
0056
0057
0058
0048
1fd4
1fd1
1fc0
0066
1fc8
1f89
1fd0
0054
1fc0
1fc1
1fc2
1fc3
1fc4
006b
00ac
008d
004e
0050
0000
