0044
1fc6
0049
1fc3
0047
004c
004f
1fd1
1fd2
0055
1fd7
1fc0
1fa1
1fc7
1f88
1f89
0051
0052
0053
0075
0076
0040
1fc3
0089
1f92
1fd3
1fd7
0040
0061
0065
1fcb
1fac
1fad
1fcf
1fd0
1f71
1fb2
1fb3
1fd4
1fd5
1fb6
0052
1fd4
1fd5
1fd6
0064
1fcc
1fae
1fcf
1fd0
004d
004e
0051
0054
0055
1fb7
1fb8
0000
