1fc1
1fa2
1fc3
1fc5
1fc6
006a
004f
00b0
00f1
00f2
0053
1fd4
1fd8
1fc2
1fc3
1fc4
1fa7
1fa8
1fa9
1fca
1fab
1fac
1fcd
1fae
1fcf
1fd0
1fd2
0045
0066
0067
0068
0049
1fce
1fd1
1fc3
1fc4
004d
004e
1fcb
0055
1fa5
1fc6
1fc7
1fc8
1fca
1fcb
0052
0054
0055
0040
1fc2
1fc6
006a
00ab
00ac
004f
0050
1fd3
1fd4
1fb5
1fd6
1fd7
1fc5
1fc6
0048
0069
1fca
004c
008d
006e
1fcf
0072
0053
1fd6
0000
