0041
008d
008e
1fcf
1fd0
0042
0043
1fc5
0048
1fcb
1fcc
1fcd
1fcf
1fb0
1f91
1fb2
1fd3
1fb6
1fd7
1fd8
0047
0088
0069
004c
004d
006f
0050
1fc1
1f82
1fc6
1f87
1fa8
1fcb
1f6c
1f6d
1fce
1f91
1f72
1fd3
0058
1fa0
1fa1
1fc2
0045
004a
006d
006e
1fd0
1fb1
0053
1fd6
1fd7
1fc0
1fa5
1fc6
1fc7
1fc8
1faa
1fcb
004f
0050
0051
0052
0074
00d5
00f6
0077
0067
0088
0049
004c
1fce
1fd3
1fd5
1fc4
1fab
1fac
1f90
1fb1
1f95
1f96
0000
