0045
1fc8
006a
00ab
006c
1fcd
1fb2
1fb3
1fd7
0061
1fc3
1fc4
0046
1fa8
1fcb
1fad
1faf
1fd0
0040
0041
0043
1fc0
006a
006f
0090
1fd3
0054
0095
0096
0077
0050
0071
0096
0057
1fd4
1fc1
1fc2
1fa6
1fc7
004a
1fac
006f
1fd1
1fc1
1fc2
1fc3
1fa4
1fa5
1fc6
0049
1fca
004c
008d
00ae
1fcf
0052
0053
0055
0056
0057
0000
