1fc2
0044
1fc6
0049
0051
1fc3
1fc4
0047
004c
1fd1
1fd2
0055
1fd7
1fc0
1fa1
1fc7
1f88
1f69
0051
0052
0053
0055
0076
0040
1fc3
0089
1fcb
1f92
1fd3
1fb7
0061
0045
1fcb
1f8c
1f8d
1fcf
1fb0
1f71
1f92
1fb3
1fd5
1fb6
1fd7
0052
1fd4
1fd5
1fd6
0043
0044
1fc9
1fac
1fcd
1fae
1fcf
1fd0
004d
004e
0051
0054
0055
1fb7
1fb8
0000
