008d
006e
0042
0043
1fc5
0047
0048
1fcd
1fcf
1fb0
1f91
1fb2
1fb3
1fd5
1fb6
1fd7
1fd8
0047
0088
0049
004c
004d
006f
0050
0051
1fc1
1f82
1fc3
1fc6
1f87
1fa8
1fcb
1f6c
1f6d
1fce
1f91
1f72
1fd3
0058
1fc0
1fa1
1fc2
0045
004a
006d
006e
1fb1
0053
1fd6
1fd7
1fc0
1fc1
1fc2
1fc5
1fa6
1fc7
1fc8
1fca
1fcb
006f
0050
0051
0074
00f5
00f6
0077
0041
0044
0067
0088
0049
004c
1fae
1fd1
1fd3
1fd5
1fc4
1fab
1fac
1f90
1fb1
1fd4
1f95
1f96
0000
