1fc1
1fc2
1fc3
1fc5
1fc6
1fc9
004a
006f
00b0
00f1
00f2
0053
1fd8
1fc3
1fc4
1fc5
1fa7
1fa8
1fa9
1fca
1fcb
1fac
1fad
1fae
1fd0
1fd2
0045
0066
0087
0068
0049
1fce
1fc4
1fc8
004d
004e
1fd1
1fcb
1fc2
1fc5
1fa6
1fa7
1fc8
1fca
0054
0055
0040
1fc6
004a
00ab
00ac
006f
0050
1fd2
1fd3
1fd4
1fb5
1fd6
1fd7
1fc5
1fc6
0048
0069
1fca
004c
006d
004e
1fcf
0072
0053
1fd6
0000
