031
fe3
fe1
022
01f
01f
fe1
fe1
032
043
01f
fe1
032
020
fe1
fe2
01f
fe1
033
fe0
052
023
040
fe2
fe3
01f
fe1
032
01f
fe1
023
fe1
042
fe0
021
fe2
fe3
000
022
fe0
fe1
01f
01f
fe1
fd0
fd1
021
040
022
fe0
fe2
023
042
fe3
fe0
051
023
01f
fe0
fe1
fe2
01f
fe0
01f
060
fe0
041
023
fe2
053
000
01f
050
01f
01f
041
030
fe1
01f
fe1
01f
fe0
01f
030
01f
031
01f
050
01f
fe1
01f
01f
01f
000
043
01f
040
031
fe3
061
fe3
043
01f
fd0
fe2
fe3
032
fe0
01f
01f
020
01f
01f
021
fe0
fe2
fd3
fe1
fe2
fe3
040
fe1
052
01f
01f
000
01f
01f
fe1
022
fe3
01f
fe2
01f
01f
020
fe1
033
030
043
01f
020
022
01f
01f
040
fe3
021
fe3
fe0
051
022
fe2
fe3
022
020
000
01f
01f
fe0
fe0
01f
01f
01f
021
fe1
01f
01f
01f
01f
031
021
01f
030
01f
fe0
01f
01f
000
01f
fe0
033
01f
fe0
fe1
01f
fe1
021
021
fe3
01f
fe0
fd2
053
01f
01f
033
fe0
01f
01f
fd0
fd1
fe2
fe0
031
042
fe3
01f
050
fd2
01f
000
01f
fe0
fe1
fd2
043
01f
021
fe2
01f
031
fd2
fe3
01f
01f
fe2
fe0
041
fe2
fe3
052
fd3
01f
fe2
043
021
fe2
033
01f
01f
050
fe1
020
01f
fe0
fe2
01f
000
01f
fe0
01f
060
01f
fe0
041
01f
01f
021
01f
01f
051
fe1
fe0
01f
01f
fe0
071
fd0
fe1
01f
01f
01f
000
fe0
fe3
022
01f
01f
033
fe1
fe2
033
01f
020
fe1
fe2
01f
01f
fe3
01f
061
fe2
fe0
fe1
022
fe0
021
fe2
023
fd2
fe3
020
020
033
01f
01f
000
053
032
01f
01f
fe0
022
01f
020
021
032
01f
01f
032
fe3
01f
01f
020
fe0
021
022
fe1
fe3
01f
01f
fe3
01f
01f
000
01f
01f
01f
020
020
fe1
020
01f
fe0
01f
01f
01f
01f
01f
020
fe1
01f
060
01f
01f
031
021
01f
000
