1f80
063
064
1f85
0c7
0a8
0cb
0cc
1f8e
070
1fb2
1f73
1fb6
1f97
1fb8
1f43
1f44
086
0a7
1f49
0ec
0ed
071
0b2
067
1f89
0ab
06c
1fad
1f6e
0b0
1fb2
1fb3
075
1f80
1f61
1f82
1f85
06a
0ab
08c
06d
0af
070
063
084
088
089
1faa
06d
08e
1faf
093
1fb4
1fb5
1f96
078
060
0c1
0c2
0c3
0a4
1f6a
1f4b
1f4c
1f6d
1fae
1f90
1f71
1f92
074
000
