0045
1fc8
006a
00ab
006c
1fb2
1fb3
1fd7
0061
1fc3
1fc4
0046
1fa8
1fcb
1fad
1faf
1fd0
0061
0043
006a
1fcd
006f
0090
0051
0054
0095
0096
0077
0070
0071
0096
0057
1fd8
1fd4
1fc1
1fc2
1fa6
1fa7
004a
1fcc
006f
1fd1
1fc0
1fc1
1fc2
1fc3
1fa4
1fc5
1fc6
0049
1faa
004c
008d
008e
1fcf
0052
0053
0055
0056
0057
0000
