1fc7
1fc2
1fc3
1fc9
004b
004c
1fae
0050
00b1
0052
1fd4
0056
0057
1fa1
1fc5
1fa6
1fc7
1fc8
1fca
1fcb
1fac
1fcd
1fcf
0042
0063
0088
008d
1fd5
1fd6
1fd7
1fa0
1fc5
004c
1fce
0050
0051
1fd3
0056
0061
0042
1fca
1fcf
1fd1
1fd6
1fc1
1fc2
1fa3
1fc4
1fa7
1fc8
1fcc
006e
1fd4
1fa1
0044
1fc6
0048
006c
004d
0091
0075
00b6
0000
