0049
1fcb
006d
004e
1fcf
1f90
1fb1
1fd2
1fd3
0057
0058
0041
1fa3
1fa4
0065
1fa8
1fcc
004e
0052
0053
0057
0058
0043
1fc9
1fcd
1fcf
1fd1
1fd2
1fd3
1fd7
1fb8
1fc1
1fc2
1fc6
1fc7
1fcc
1fad
1fce
004f
0050
0055
0056
0058
0048
1fd4
1fd6
1fd1
0066
0047
1fc8
1fa9
1fd0
0054
1fc0
1fc1
1fc2
1fc4
004a
006b
00ac
008d
004e
0050
1fd6
0000
