1fc5
1fc6
0048
1fca
1fcb
1fd0
1fd1
1fa0
1fa1
1fc2
1fc6
1fc7
0049
006b
0070
0071
0055
0042
0063
1fc5
1fc6
0048
1fca
1fcb
1fcc
1fcd
1fce
1fd1
1fd2
1fd3
0046
0047
1fc9
004a
004b
008c
004d
0070
00b1
0092
0076
0057
1fc1
0065
1fc7
006a
004b
00af
0070
00b4
0075
1fd8
1fc4
004b
1fd4
1fc4
0048
1fb0
1fd1
1fc0
1fcd
1fd1
0058
0000
