01f
ff0
ff1
ff3
01f
020
fd1
ff2
013
01f
ff0
021
012
fe3
ff0
011
ff3
01f
01f
020
ff2
013
01f
01f
01f
fe0
fe1
ff3
010
ff3
010
021
fe2
ff0
fc1
012
ff3
030
ff1
01f
ff0
ff2
000
01f
ff0
031
022
ff3
01f
fc1
032
01f
010
011
012
013
010
021
013
01f
01f
ff0
ff2
063
01f
010
01f
011
ff3
ff0
012
fe3
ff0
071
fe2
013
fe0
fd1
022
fe3
fe0
011
012
013
01f
ff1
013
000
01f
fe1
012
033
01f
fe0
012
fe3
01f
020
fd1
012
fe3
020
fe1
ff3
01f
01f
ff0
021
ff2
ff3
01f
011
012
013
01f
010
ff1
023
020
fe1
012
fe3
020
011
fc2
043
010
042
fd3
fe0
021
012
013
01f
010
011
000
01f
020
fe1
ff3
01f
fe0
fc3
01f
050
ff1
033
060
023
01f
01f
010
ff1
01f
ff0
01f
ff0
ff1
fe3
020
040
fd1
033
030
ff1
fd3
ff0
fc1
ff3
01f
031
ff3
000
01f
052
fd3
01f
ff1
fe3
01f
011
ff2
043
011
012
043
01f
01f
fe0
071
ff2
01f
011
012
ff3
01f
010
ff1
012
ff1
ff2
023
ff0
fe1
023
ff0
fd1
042
023
ff0
ff1
022
fd3
01f
021
000
01f
fd0
051
fe3
01f
030
ff1
01f
fe0
fe1
ff2
fd0
01f
01f
fe0
ff1
ff2
013
01f
ff0
01f
030
031
012
ff3
020
ff1
013
031
ff2
013
010
ff2
ff3
021
ff2
01f
ff0
012
023
000
01f
ff0
ff1
042
01f
040
061
ff2
01f
010
fe2
ff1
01f
01f
030
011
fe2
01f
ff1
01f
fe0
fe1
022
030
051
ff2
ff0
ff1
032
ff3
010
011
ff2
010
011
012
01f
010
ff1
000
01f
fe0
ff1
fe2
ff3
01f
030
fe1
01f
ff0
041
ff2
fe3
ff0
041
ff2
fe3
01f
01f
031
ff3
01f
ff1
01f
020
fe1
022
010
021
ff0
ff3
ff0
011
ff3
ff0
fd1
fe2
ff3
01f
011
013
000
01f
ff1
012
ff3
01f
01f
01f
010
fe1
012
ff3
fe1
012
01f
01f
030
011
fd2
ff3
01f
010
011
012
013
01f
01f
ff0
ff1
ff2
ff0
ff2
ff3
fe0
ff1
ff3
011
ff3
01f
010
011
013
000
01f
ff0
012
fe3
01f
010
ff2
fe3
01f
012
053
ff1
063
01f
01f
050
031
ff2
01f
011
012
ff3
01f
ff0
fe1
ff2
fd3
ff1
fe2
033
fd0
fd1
fd2
ff0
032
013
ff0
031
032
fc3
01f
020
ff1
fe2
043
000
01f
fe0
011
023
01f
011
013
01f
ff0
011
fe3
ff0
fe3
01f
01f
010
021
fd3
01f
ff3
01f
fe0
ff1
053
ff0
013
010
fe1
033
ff0
ff1
010
01f
ff0
011
ff3
000
01f
010
043
01f
010
fe1
01f
ff0
033
01f
01f
020
fe1
fe3
01f
011
01f
010
ff1
013
010
fe1
ff3
020
ff1
ff3
fe1
033
020
021
013
01f
01f
000
01f
ff1
012
073
01f
030
031
ff3
01f
ff2
ff3
ff0
01f
01f
010
011
fc2
fe3
01f
ff0
ff1
013
01f
ff0
ff1
032
033
020
021
ff2
fe3
ff0
ff1
022
023
011
ff2
033
010
ff2
043
01f
ff0
011
ff3
000
01f
fe0
ff1
022
023
01f
ff0
ff2
01f
fe0
011
fd2
ff3
ff0
011
fe2
01f
01f
020
fc1
fd2
fe3
01f
010
01f
ff0
052
033
fe0
ff1
030
ff1
032
ff3
ff0
ff1
033
030
fe1
01f
fe0
fe2
ff3
000
01f
fe2
ff3
01f
ff2
033
01f
ff0
032
053
032
053
01f
01f
010
012
063
01f
ff3
01f
ff0
ff2
fc3
ff0
ff2
053
ff0
fd2
fe2
013
010
fc2
01f
ff0
022
013
000
01f
ff1
fd3
01f
011
01f
fc1
ff3
fe1
ff3
01f
01f
ff1
fe3
01f
ff3
01f
033
ff1
013
ff1
ff3
ff1
013
fe1
fd3
01f
031
ff3
000
01f
fe0
ff2
033
01f
fe0
ff2
fe3
01f
020
ff2
ff3
020
ff2
01f
01f
040
013
01f
013
01f
fe0
012
013
ff2
fe3
020
012
053
fe2
ff3
010
033
01f
ff2
ff3
000
01f
020
01f
fe0
012
01f
fd0
011
fe2
fe0
ff2
01f
01f
ff0
031
022
01f
012
01f
030
ff1
ff2
fe0
ff1
fe2
030
fe2
fe0
ff1
022
020
011
032
01f
ff0
011
012
000
01f
ff1
023
01f
ff1
063
01f
fe1
ff3
ff1
fd3
01f
01f
021
013
01f
011
ff3
01f
ff1
fe1
033
011
ff1
013
031
033
01f
ff1
000
01f
ff0
041
fe2
ff3
01f
fd0
021
fe2
01f
040
ff1
fe2
fe3
020
ff1
fe2
fe3
01f
01f
030
011
022
013
01f
012
01f
fe0
011
ff2
ff3
fd2
020
011
ff3
fd0
031
fc2
ff0
051
012
ff3
01f
010
ff1
012
013
000
01f
ff0
031
012
ff3
01f
ff1
01f
ff0
fe1
012
012
01f
01f
010
fc1
ff2
01f
010
01f
021
ff0
ff1
ff3
fe0
031
ff2
ff0
ff1
012
fe3
fe0
ff1
01f
020
012
000
01f
011
ff2
010
012
ff3
012
ff0
fc1
01f
ff0
ff1
ff3
01f
021
012
01f
ff0
012
01f
fe1
012
ff3
01f
022
ff3
010
011
013
ff0
011
ff2
010
031
fe3
010
031
ff3
ff0
fe1
012
ff3
000
01f
011
ff2
023
012
fe3
ff1
020
fc1
012
013
01f
fd0
fe1
fe2
013
01f
ff1
013
01f
fe0
021
012
fe3
01f
020
fd1
012
023
01f
ff0
ff1
022
fe3
ff0
ff2
ff3
011
ff2
013
020
021
ff3
010
051
ff3
ff0
ff1
022
ff3
000
01f
fe1
fe2
013
ff1
012
ff1
012
ff0
fe1
ff3
01f
030
ff1
022
fe3
01f
ff0
ff1
012
013
01f
020
011
042
023
01f
fe0
fe1
ff3
01f
ff0
ff1
052
ff3
011
ff2
013
013
ff0
fd1
012
023
010
fe1
fe2
023
010
ff1
032
ff3
000
01f
010
013
011
fd0
ff1
fd0
021
fc3
01f
ff0
fe1
01f
fd0
013
01f
011
ff3
01f
ff0
041
fe3
01f
fe1
013
ff0
011
013
fe0
fe1
013
043
030
fe1
033
020
ff3
000
01f
ff0
031
ff2
ff0
fe1
012
ff2
010
011
ff2
ff3
01f
ff0
011
ff2
043
01f
011
ff2
ff3
01f
fe1
052
ff3
01f
010
031
ff2
fe3
01f
ff0
fd1
042
ff3
ff1
ff2
ff3
011
ff1
ff0
fe1
ff2
013
032
013
000
01f
ff3
010
ff1
012
ff3
030
ff1
012
ff3
030
fd3
01f
050
fe1
01f
030
fe1
012
ff3
01f
031
01f
fe1
012
ff3
01f
ff0
ff1
fe3
ff1
022
023
020
ff1
ff3
ff0
ff1
ff2
fd3
021
ff2
ff0
ff3
000
01f
020
011
010
021
ff2
011
ff2
010
ff1
012
01f
010
fe2
01f
fe2
01f
ff0
022
01f
030
031
ff2
01f
ff0
ff1
fe2
011
ff2
ff2
ff0
010
011
012
010
000
01f
010
021
012
ff1
ff2
030
ff1
032
040
022
01f
030
021
052
01f
020
ff1
022
01f
ff0
ff1
013
01f
030
011
01f
fe0
fe1
ff2
ff3
ff0
ff1
013
010
022
ff1
ff2
ff3
011
ff2
ff3
fe0
021
ff2
000
01f
020
ff1
ff2
ff3
ff0
ff1
ff1
ff3
fe1
012
023
01f
ff1
fd2
fd3
01f
010
01f
011
ff3
01f
010
ff1
012
013
01f
fe0
ff1
032
ff3
011
ff2
010
ff3
fd1
032
ff0
ff1
012
ff1
ff3
000
01f
030
021
fe2
013
011
ff3
ff0
012
fe3
fe1
ff2
fd3
01f
ff1
fe2
ff3
01f
010
021
012
fe3
01f
ff0
011
022
01f
040
021
ff3
01f
ff0
051
072
fe3
013
011
fe3
031
012
fe3
ff0
fe2
013
022
023
000
01f
ff0
021
ff3
ff0
011
013
ff1
023
ff0
023
01f
033
01f
ff0
013
01f
ff0
011
013
01f
ff0
021
ff3
01f
fd3
ff3
013
fe0
fe3
023
ff0
ff3
000
01f
010
fe3
01f
ff0
021
ff3
ff1
033
01f
fe1
fc3
01f
ff0
031
ff3
01f
011
023
01f
023
01f
ff0
041
033
fe3
021
fe3
ff0
051
023
010
021
ff3
ff1
033
000
01f
ff2
ff3
010
011
ff2
012
ff0
022
fe3
01f
fd3
01f
ff3
01f
073
01f
020
011
ff3
01f
ff0
ff1
ff2
043
010
011
ff2
ff3
01f
ff1
023
012
013
ff2
033
000
01f
ff0
fe1
ff2
ff3
ff0
ff1
022
023
ff0
031
012
033
01f
ff0
fc1
042
033
01f
ff0
ff1
012
013
01f
fe0
fe1
022
023
01f
fe0
021
fd2
01f
ff1
fe2
023
010
ff1
fe3
fe1
022
013
fe0
011
ff2
012
ff3
fe0
ff1
ff2
023
000
01f
ff0
012
033
fe2
013
ff2
fe3
072
01f
ff2
013
01f
ff2
fe3
01f
fc2
fe3
01f
072
033
01f
010
fd2
ff3
fe2
ff3
fe2
ff3
ff0
012
fe3
ff0
ff2
023
ff2
023
000
01f
01f
021
033
033
01f
fe1
063
01f
011
023
01f
041
ff3
01f
011
ff3
01f
ff1
ff3
021
023
011
ff3
ff1
ff3
011
ff3
000
01f
010
012
fe0
ff0
022
010
fe3
01f
012
ff3
01f
ff0
022
01f
fe0
023
01f
010
fe3
01f
ff0
012
012
013
022
013
ff0
022
013
010
012
023
ff2
ff3
000
01f
011
fe2
fe1
ff2
010
ff0
011
01f
010
011
01f
020
011
ff2
01f
020
ff1
032
01f
fe0
011
ff2
01f
ff0
ff1
022
010
ff1
012
020
011
010
ff1
fe2
020
ff1
fd2
ff0
012
000
01f
ff1
013
023
01f
fe1
ff3
01f
ff1
ff3
01f
01f
01f
ff1
01f
ff1
023
01f
011
013
ff3
ff3
013
fe1
013
000
01f
020
ff1
032
013
ff0
011
012
023
ff1
012
ff3
ff0
ff1
fd2
01f
010
fe1
ff2
01f
010
ff1
032
01f
fe0
031
023
01f
010
022
013
01f
021
012
ff3
022
023
010
ff1
022
ff3
030
ff1
042
ff3
020
011
012
ff3
011
fe2
013
000
01f
010
fe1
ff2
ff0
ff1
013
010
021
022
013
01f
fc1
fe2
fe3
01f
010
ff1
ff2
013
01f
010
011
fe3
01f
010
011
012
013
01f
ff0
ff1
012
010
ff1
ff2
010
ff1
ff2
013
ff0
012
023
fe0
011
013
012
ff3
000
fe0
fd1
ff3
fd1
ff3
01f
01f
ff0
01f
010
fe1
013
020
051
012
01f
011
fe1
012
013
020
ff1
ff2
01f
ff0
031
ff3
fe0
fe1
ff3
021
013
01f
01f
01f
fe0
011
000
012
013
022
fe3
01f
010
ff3
01f
010
ff1
ff2
013
ff0
041
ff2
ff3
01f
010
011
ff3
fe0
fe1
012
ff3
ff0
011
012
fe3
01f
050
021
023
020
fd1
012
023
fd0
021
ff2
fe3
030
ff1
012
fe3
01f
ff1
020
ff1
fe3
000
ff1
013
fe1
022
01f
01f
010
ff1
022
01f
031
fe2
fe3
033
01f
ff0
fe1
ff2
023
010
011
032
ff3
ff2
013
01f
fe0
fe1
fe2
023
ff1
012
fe3
040
021
012
010
01f
010
010
ff1
012
000
011
fd3
020
fd3
01f
01f
011
01f
fe3
010
fe1
053
01f
011
013
ff0
011
fd3
ff0
ff1
ff3
01f
ff0
021
043
021
fe3
030
023
031
ff3
01f
01f
ff0
021
000
011
022
ff3
010
fe1
032
ff3
01f
01f
ff1
012
01f
ff0
ff1
ff2
013
ff0
fe1
013
01f
010
ff1
ff1
032
fd1
ff3
01f
010
031
fe2
ff3
010
031
ff0
fe1
ff2
043
010
fd1
ff2
013
01f
01f
010
fd1
fe2
013
000
021
021
fe3
01f
01f
010
012
01f
ff1
033
ff1
013
01f
012
ff3
020
012
013
030
021
ff3
01f
fe0
fe1
fd3
010
ff1
010
ff1
012
033
020
ff1
012
01f
012
040
ff1
ff3
000
ff0
fe1
032
010
021
022
01f
01f
ff0
01f
010
ff2
ff0
ff2
01f
ff0
012
ff2
020
031
022
01f
ff0
fd1
ff2
010
ff2
011
ff2
011
012
01f
01f
01f
000
010
010
ff1
ff2
ff3
01f
01f
ff1
01f
ff2
ff3
fe0
01f
ff1
ff3
ff1
012
023
010
fe1
01f
010
011
fe3
030
021
012
ff3
ff0
021
012
020
fe1
01f
01f
030
022
000
010
ff1
ff0
ff1
012
01f
01f
012
01f
ff0
021
ff2
023
ff0
012
fe3
01f
ff0
ff1
022
013
ff0
011
ff2
fe0
ff2
ff3
01f
010
fe1
022
023
010
012
013
ff0
021
fe2
fe3
ff0
022
023
01f
01f
ff0
ff1
012
013
000
fe1
ff2
ff3
ff0
ff1
012
ff3
01f
01f
ff0
012
01f
ff0
ff1
031
022
013
01f
01f
ff0
022
013
ff0
fe1
fe2
fe3
01f
010
031
022
fe3
010
ff1
013
ff1
fe2
043
fe0
fe1
ff3
01f
01f
fe0
fe1
ff2
ff3
000
ff0
011
023
fe0
033
01f
01f
ff0
013
01f
020
ff1
ff1
01f
ff0
01f
043
01f
ff0
011
fe3
ff0
011
013
ff1
013
010
033
01f
01f
ff0
ff1
033
000
010
fe1
033
010
053
01f
011
013
011
013
01f
fd1
ff3
041
fd3
01f
021
013
ff1
020
ff1
ff3
01f
fe0
051
023
ff0
fe1
033
fe1
fb3
033
01f
013
011
000
ff0
ff1
022
033
010
011
012
053
01f
01f
ff0
012
01f
012
fd3
ff2
013
01f
012
013
011
ff2
013
020
011
022
013
01f
fd0
fd1
ff3
011
012
ff2
fe3
032
fe3
01f
01f
022
fd3
000
fe0
011
022
023
fd0
011
023
01f
ff2
fe0
011
013
01f
030
011
ff2
ff3
020
fe1
012
ff3
01f
011
fe1
012
023
ff1
032
01f
ff0
031
fd2
ff0
021
ff2
023
fd1
022
051
013
01f
ff0
fe0
021
022
023
000
032
ff3
022
01f
01f
ff3
01f
010
012
013
010
fa2
01f
ff0
012
ff3
fd2
ff3
ff0
fd2
01f
072
072
023
fb2
023
062
fe3
01f
01f
ff0
042
ff3
000
ff1
ff1
ff3
01f
01f
011
013
01f
ff1
ff3
021
01f
011
031
013
01f
01f
ff3
ff1
013
011
023
011
023
01f
01f
011
043
000
fe2
fd0
fe2
01f
01f
ff0
01f
030
ff2
013
010
012
033
01f
ff0
012
013
ff0
ff2
ff3
ff0
013
01f
010
022
013
010
fe2
fe3
01f
ff0
ff2
ff3
01f
01f
fe0
000
010
011
ff0
ff1
01f
01f
ff1
01f
fe0
011
022
030
ff1
01f
010
ff1
ff2
ff0
032
020
fe1
ff2
01f
011
ff2
fd0
011
ff1
012
ff0
ff1
01f
ff0
010
ff1
ff2
000
fe1
ff3
fe1
033
01f
01f
ff1
01f
021
021
01f
01f
013
043
01f
011
fc3
ff1
ff3
01f
ff3
01f
01f
fe1
ff3
000
ff0
011
fe2
fd0
031
fd2
01f
01f
ff0
ff1
013
01f
ff0
011
fe2
030
011
052
01f
022
fe0
011
ff2
023
fe0
021
ff2
01f
030
fd1
042
fe3
010
ff1
fd2
ff3
010
013
fe0
ff1
ff2
01f
01f
ff0
fe1
000
010
021
012
ff3
ff0
031
012
01f
01f
010
01f
ff3
ff0
ff1
ff2
01f
011
012
013
010
ff1
ff2
ff3
fe0
011
ff2
01f
010
011
012
033
010
011
012
fd1
fe2
fe3
ff0
031
012
013
01f
01f
011
013
000
01f
012
011
ff3
ff0
012
ff3
041
010
012
013
021
012
ff3
fe1
013
fe0
fe1
012
ff3
01f
040
01f
01f
011
ff2
ff3
020
031
013
01f
01f
fe1
013
01f
ff0
ff2
013
000
01f
fd0
fe1
020
031
fd3
021
012
fc3
041
ff2
fe3
ff0
012
021
012
ff3
fe1
ff2
023
010
fc1
012
01f
ff0
022
ff3
01f
01f
fe0
041
fe3
010
041
fe2
013
01f
01f
010
fe1
013
01f
ff1
ff2
013
000
01f
010
042
ff3
010
fe1
023
010
ff1
012
023
020
023
010
021
ff3
ff0
fe1
022
033
010
041
ff2
ff3
010
fe1
042
fe3
01f
fe0
ff1
ff2
013
01f
01f
040
fe1
ff2
013
010
031
fd2
013
01f
01f
ff0
021
ff2
012
021
ff2
000
01f
fe0
ff3
010
023
ff3
020
043
020
021
ff1
023
ff0
021
fd3
021
fe3
01f
fe0
021
01f
01f
040
fc1
013
030
fe1
043
01f
01f
fe0
021
fe3
01f
ff0
041
fe3
000
01f
ff0
011
012
013
fd1
013
fc1
032
ff3
ff0
fe1
013
ff0
ff1
012
013
ff1
032
fe3
ff3
011
022
013
01f
ff0
ff1
ff2
fd3
01f
01f
ff0
fc1
012
033
fd1
ff2
023
01f
01f
011
ff2
fe3
012
011
ff2
ff3
000
01f
040
ff1
012
011
ff3
031
ff3
fe0
013
ff0
ff1
033
ff0
011
ff3
ff0
011
043
010
fe1
ff3
01f
020
ff1
012
ff3
01f
01f
020
031
ff2
013
fd0
ff1
ff2
033
01f
01f
010
013
01f
012
023
000
01f
ff2
012
ff0
032
01f
010
011
ff2
fd0
fe1
012
ff1
012
ff1
ff2
01f
030
061
ff2
01f
01f
010
011
022
ff1
ff2
01f
01f
012
01f
01f
000
01f
020
ff1
032
013
ff1
ff3
fe1
ff2
fd0
fe2
013
fe0
011
fe2
013
ff0
fe1
ff2
01f
020
011
012
01f
010
fd1
ff2
013
01f
01f
010
021
022
fe3
fd0
011
fe2
ff3
01f
01f
020
ff1
01f
013
000
01f
011
ff2
ff3
ff0
ff1
022
013
fe0
ff1
022
ff0
012
ff0
021
ff2
fe1
022
031
ff2
013
ff1
012
013
01f
ff1
ff2
ff3
01f
01f
fe0
ff1
fd2
fd3
ff0
011
01f
01f
021
013
01f
010
021
023
000
01f
011
012
ff3
fe0
fd0
ff1
012
fe3
ff0
011
033
ff1
043
021
032
fe3
fe1
ff2
023
011
022
01f
040
051
ff2
fd3
01f
01f
fc0
fd1
fe2
023
fe0
021
022
023
01f
01f
ff1
ff2
ff3
010
fe1
fe2
023
000
01f
ff1
023
023
ff0
033
ff1
ff3
ff3
ff0
ff1
013
020
ff0
011
013
01f
ff0
031
ff3
01f
01f
fe1
053
020
ff1
fe3
01f
01f
010
013
01f
011
000
01f
011
fe3
010
021
013
010
011
023
021
ff3
010
fe1
041
013
010
fd1
ff0
011
043
01f
010
011
ff3
01f
01f
020
fd1
fd3
010
011
fd3
01f
01f
fe1
013
01f
fe1
000
01f
01f
022
013
022
053
ff2
ff3
010
011
ff2
ff3
ff0
ff1
012
053
ff0
ff1
ff3
ff0
012
01f
030
031
ff2
ff3
01f
01f
022
023
ff0
ff1
ff2
fe3
01f
01f
011
012
ff3
011
ff3
000
01f
ff0
fd1
032
033
021
012
fe0
021
032
023
ff0
ff1
ff2
fe3
ff1
fe2
ff3
ff0
012
013
030
ff3
fe0
021
ff2
033
01f
ff0
ff1
ff2
ff3
01f
01f
fd1
042
013
050
fe2
fd3
01f
01f
010
011
012
01f
ff2
ff3
000
01f
fd2
fe3
ff0
022
012
fe3
ff0
fd2
013
fe2
033
fe2
fc3
010
012
ff3
042
01f
ff0
ff2
023
01f
01f
ff0
fc2
033
010
fe2
013
01f
01f
042
fe3
01f
ff0
012
ff3
000
01f
031
033
fe1
011
021
ff3
021
ff3
fe3
021
ff3
011
023
01f
041
fe3
01f
01f
fc1
033
fe1
fe3
01f
01f
011
011
031
000
01f
ff0
012
ff3
ff0
013
fe0
ff2
023
012
013
010
ff2
fe0
012
023
020
ff2
013
ff0
ff2
fe3
01f
ff0
01f
01f
020
023
040
043
01f
01f
ff2
ff2
ff0
ff2
ff3
000
01f
010
032
010
ff1
fe2
020
fe1
010
ff1
fe0
022
030
ff1
ff0
011
042
fe0
022
01f
010
ff1
ff2
01f
01f
020
fe1
fd2
010
011
012
01f
01f
011
012
012
011
022
000
01f
01f
01f
ff1
013
013
ff3
011
ff3
fe1
fe3
01f
ff1
063
01f
01f
013
041
fe3
01f
01f
01f
01f
ff1
ff3
000
01f
ff0
012
023
ff3
fe0
021
fe2
020
ff1
032
013
011
ff2
013
021
022
ff3
ff0
011
fe2
013
ff0
ff1
fe2
01f
ff0
031
052
033
01f
01f
011
fc2
fe3
020
011
022
ff3
01f
01f
ff0
ff2
013
ff0
ff1
012
023
000
01f
020
fd1
ff3
ff0
021
013
031
012
013
ff3
011
010
011
ff3
010
012
01f
ff1
013
01f
01f
fe0
fe2
fe3
ff0
ff1
ff2
01f
01f
010
011
012
01f
020
011
000
01f
011
012
013
ff2
013
01f
ff0
051
fe1
013
ff1
011
041
ff3
013
020
012
013
01f
fe0
021
013
ff0
ff3
fe0
ff1
ff2
ff3
020
011
ff2
ff3
010
ff1
ff0
041
ff3
ff1
ff0
013
000
01f
fe0
021
ff3
010
ff3
01f
021
fe2
ff3
020
fe1
053
ff1
012
fe3
ff0
ff2
043
010
031
ff2
fe3
01f
fe1
012
fc3
01f
ff0
fd3
013
ff0
011
fe2
033
010
012
ff3
ff0
fe1
012
030
031
ff2
031
012
ff3
ff3
000
01f
030
031
022
ff2
013
01f
030
021
ff2
023
fe0
021
ff2
ff3
011
ff0
011
013
030
fe1
013
010
011
ff3
021
012
01f
040
011
020
ff1
012
fe3
020
ff1
012
013
010
fe1
ff2
fe3
010
012
fd3
ff0
fd1
ff2
033
ff0
ff1
ff2
043
011
000
01f
040
ff1
013
011
01f
051
033
fe0
fe3
fe0
021
ff3
fe0
fe1
013
030
ff1
043
010
fc0
051
ff3
01f
020
051
050
fe1
013
ff1
ff3
020
011
013
011
ff3
ff0
043
010
021
ff3
000
01f
fd1
022
023
010
fe1
ff2
01f
013
061
fe3
ff1
012
ff3
ff0
041
fe3
ff0
fe1
ff2
043
013
fb1
fe3
01f
010
fe1
023
ff0
011
012
043
051
012
013
010
ff1
fd2
023
fe2
013
011
ff2
ff3
ff1
032
fd3
010
012
000
01f
ff0
011
033
010
012
013
01f
fe0
012
043
fe0
ff1
ff2
013
010
012
ff0
ff1
ff2
ff1
013
ff1
012
013
020
fe1
012
023
01f
ff0
022
043
ff0
ff1
ff2
013
020
021
ff2
ff3
020
fe1
012
020
ff1
013
fd0
fe3
fd0
041
ff0
012
013
000
01f
ff1
010
011
012
01f
fe0
fe1
010
fe1
ff2
011
fe1
ff2
ff0
ff1
ff2
ff2
041
ff2
01f
011
020
ff2
fe1
022
040
051
fe2
030
031
ff2
ff0
fe1
fe0
fe1
042
01f
000
01f
fd0
ff2
013
010
ff1
ff2
013
01f
fe0
011
ff2
023
020
011
012
ff3
010
fe1
011
022
021
012
ff3
011
010
fc1
023
01f
ff0
011
ff2
023
041
ff3
020
021
042
020
011
010
011
012
013
ff2
fe0
ff1
fd2
ff3
ff2
013
000
01f
ff0
021
ff2
ff3
ff0
011
012
013
01f
031
ff2
013
020
011
01f
020
011
fe2
ff3
ff0
fe1
011
013
fe0
021
012
013
01f
ff0
021
013
010
ff1
ff3
010
ff1
fe2
ff3
ff0
ff1
012
013
ff2
010
fe1
022
013
01f
ff0
011
013
000
01f
fc0
ff1
012
043
ff0
ff1
ff2
01f
010
fe2
063
030
021
022
fe3
010
030
031
012
fe3
fe0
011
ff2
033
ff0
ff1
013
011
012
01f
fd1
fe2
063
012
053
020
ff1
fd2
ff3
ff1
fe2
023
fe1
ff2
023
031
012
ff3
fe3
ff1
ff2
023
000
01f
010
fe1
013
01f
ff0
fe3
010
011
fd3
011
013
011
fe3
ff0
ff1
010
ff1
013
01f
fe0
ff1
ff3
011
fe3
ff0
033
013
ff0
011
013
fe0
fd3
013
01f
000
01f
010
013
01f
ff0
021
fe3
ff1
ff1
010
011
fe3
031
ff3
ff1
011
01f
ff0
fe1
ff1
010
fe1
fe3
010
fe1
ff3
ff0
061
013
010
ff1
013
013
000
01f
ff0
ff2
013
010
011
012
01f
ff0
ff1
fe2
ff3
ff0
ff1
ff2
ff3
010
011
012
ff0
ff1
fe2
ff0
012
ff3
ff3
020
021
012
ff3
01f
010
011
011
fe2
ff3
ff0
ff1
012
013
020
021
012
fd3
020
021
ff2
fd3
ff0
ff1
ff2
023
ff0
ff1
012
063
ff3
000
01f
020
fe1
ff0
011
01f
fe0
ff1
ff2
ff3
020
fd2
011
010
fd1
fe0
012
010
ff2
011
01f
fd0
ff2
fe2
fe0
fd1
042
033
ff0
021
ff2
ff3
ff0
fe0
ff2
ff3
022
ff0
ff2
000
01f
010
fa2
013
fe0
022
01f
ff0
fe2
ff3
010
052
013
ff3
ff2
013
ff0
012
023
013
ff2
fe3
01f
ff0
ff2
013
012
053
ff0
012
013
ff0
012
053
ff0
043
ff0
022
ff3
fd3
01f
000
01f
011
01f
01f
071
ff3
fe1
ff3
021
01f
ff1
023
01f
061
01f
051
fd1
ff1
043
01f
013
011
ff3
ff1
fc3
021
ff3
000
01f
010
ff2
023
ff0
ff2
01f
ff0
012
013
030
ff0
ff3
010
012
013
012
013
010
fe0
01f
fe0
ff2
fe3
030
ff2
ff3
010
013
010
fe3
ff2
fd3
ff0
022
013
ff0
ff2
033
ff0
ff2
000
01f
ff1
032
fe1
ff2
01f
010
022
ff0
031
032
ff1
012
010
021
022
010
fe1
fd2
ff0
012
fe1
022
01f
fe0
fe1
012
fd0
011
020
011
ff2
fe0
ff1
fd2
fe0
020
fe2
020
ff1
ff0
ff1
012
000
01f
011
ff3
ff1
013
01f
fe1
fd3
021
fe3
013
011
fe3
fe3
011
033
01f
fd1
ff3
ff1
fe3
ff1
033
ff1
023
ff1
fe3
01f
ff1
000
01f
011
fe2
ff0
ff2
013
01f
020
fe1
042
033
020
011
012
ff3
ff0
011
012
013
030
032
020
fe1
022
ff3
ff2
fd0
021
032
033
01f
ff0
fe1
033
020
ff1
fd2
ff3
020
ff1
ff3
010
ff2
ff1
fd2
013
030
fe1
052
ff3
ff0
031
ff2
ff0
013
000
01f
ff0
ff3
021
012
013
01f
030
ff2
020
ff1
012
ff3
010
fe1
fe2
ff3
ff1
013
01f
01f
01f
020
ff3
ff1
010
ff1
ff2
ff3
ff0
012
023
010
ff1
010
011
023
031
010
011
012
000
011
01f
fd1
ff3
fe1
012
ff3
030
011
012
013
031
01f
010
fe1
013
ff0
fd1
012
013
021
01f
01f
010
ff1
ff2
023
010
ff1
012
013
01f
ff1
ff2
013
01f
ff2
ff3
031
ff3
01f
000
040
011
01f
010
fd1
023
fe1
012
010
013
fd0
011
ff2
ff3
01f
010
fe1
013
ff0
fb1
022
ff3
040
011
012
01f
01f
ff0
ff1
ff2
013
ff0
fd1
012
023
01f
01f
01f
ff0
033
030
021
ff2
01f
000
fe0
fe2
023
01f
fe1
ff3
fd1
022
ff3
fd0
031
012
010
022
01f
ff0
041
ff2
ff3
021
042
fd3
fe0
fd1
fe2
033
01f
01f
010
061
fc2
ff0
031
032
fe3
01f
010
021
fe2
013
ff1
ff3
ff0
fd1
fe2
023
01f
000
ff0
021
013
01f
fd0
011
fd3
fe0
011
fe3
fd0
fe1
023
ff0
fe1
023
01f
fe0
021
fe3
ff0
011
fd3
ff0
031
023
01f
01f
ff0
031
ff3
fe1
ff3
01f
010
031
fe3
01f
020
013
011
033
01f
000
010
ff2
fe3
01f
021
ff2
011
ff1
fe3
ff0
ff1
023
01f
fe3
fe1
032
010
ff2
fe3
01f
01f
ff1
fe2
ff3
011
022
01f
01f
01f
fe0
051
013
011
fe2
01f
000
fe0
ff3
01f
040
ff1
fd3
040
fe1
fe3
fd1
030
ff1
01f
ff1
033
fe1
013
ff0
012
ff3
01f
01f
ff0
ff1
012
053
ff0
fe1
013
01f
011
023
01f
fe0
ff2
ff0
ff1
ff3
01f
000
fe1
012
01f
020
011
020
031
ff2
010
fd2
011
ff2
01f
010
ff0
fe1
fe2
ff0
ff1
012
01f
01f
ff2
010
ff1
fd2
01f
020
021
012
01f
020
011
ff2
ff0
01f
000
010
ff1
ff2
ff3
01f
040
011
022
ff3
030
022
ff1
010
011
032
01f
010
ff1
ff2
ff1
010
ff1
ff2
01f
01f
ff0
ff1
ff2
013
ff0
ff2
ff3
01f
011
ff2
01f
041
ff2
ff3
010
01f
000
022
023
01f
010
fe1
ff2
fe1
ff2
ff3
011
012
013
fe2
fe3
01f
021
023
ff0
011
012
013
fe1
032
023
01f
01f
031
fe2
013
011
ff3
01f
021
ff2
013
01f
020
ff1
fe2
fe3
010
fe1
022
023
01f
000
ff3
01f
010
fe2
fc3
020
011
fe3
051
052
fc3
010
021
01f
01f
ff0
021
062
010
011
ff3
01f
01f
ff1
ff2
023
041
052
fe3
01f
fd1
fd2
033
01f
040
011
fe2
033
010
021
ff2
ff3
01f
000
01f
01f
011
033
fe0
011
023
020
fd3
ff0
013
01f
020
010
ff3
fe0
011
01f
01f
020
ff3
020
fd3
01f
011
013
01f
ff0
021
fd3
ff0
011
ff3
01f
000
021
033
01f
fe1
01f
031
021
fb3
01f
fe1
013
fe0
033
ff0
041
033
01f
01f
010
fc1
fd3
ff0
023
01f
020
fc1
01f
ff1
ff3
ff0
041
013
01f
000
ff0
ff1
012
01f
010
022
fe3
010
011
012
ff3
ff2
ff3
ff2
01f
012
fe3
ff0
ff1
023
ff1
022
013
01f
01f
ff2
fc3
ff0
ff1
fe2
013
01f
010
011
012
ff3
013
010
011
fe2
012
01f
000
010
031
fe2
ff3
01f
ff0
022
023
fd0
ff1
012
023
040
fe2
ff0
fc1
032
013
01f
030
011
ff2
ff3
010
011
fe2
023
fe0
031
fe2
01f
01f
040
ff1
fe2
fd3
030
ff1
fd2
013
01f
011
ff3
01f
ff0
fd1
fd2
ff3
fe0
021
ff2
01f
000
062
ff3
01f
042
013
ff0
022
013
010
ff2
ff3
fb2
01f
010
032
ff3
020
ff3
ff0
052
fe3
01f
01f
010
fe2
020
ff2
013
01f
ff0
022
023
01f
012
053
ff0
032
ff3
01f
000
fe3
01f
033
011
033
ff1
043
01f
011
ff3
013
021
ff3
01f
01f
021
fe3
fd1
ff3
01f
011
ff3
01f
fe3
011
01f
000
013
01f
010
ff3
ff0
012
fe3
020
012
023
ff0
022
013
01f
020
ff2
013
010
ff2
ff3
ff0
012
01f
01f
030
ff2
023
030
01f
010
fe2
01f
020
012
01f
000
ff2
01f
011
ff2
ff2
010
011
032
020
ff1
01f
ff0
011
032
fd0
ff1
052
ff2
01f
01f
042
fe0
011
042
01f
012
01f
fe0
021
010
fd2
01f
000
011
fe3
01f
fe1
013
fe1
023
041
01f
01f
021
011
fe3
01f
01f
01f
021
031
ff3
01f
023
013
ff1
ff3
01f
000
022
ff3
01f
ff2
013
010
021
042
010
032
013
01f
ff0
011
fe0
021
fe2
ff1
042
01f
01f
011
012
013
021
ff3
01f
ff0
011
fe2
013
01f
030
ff1
012
020
fe1
032
01f
000
021
012
023
01f
01f
ff1
ff0
fe1
013
010
fd1
fd2
ff3
01f
010
011
ff1
012
ff3
010
031
022
023
01f
01f
010
ff2
ff0
fd1
ff3
01f
010
011
01f
010
fd1
ff2
011
012
023
01f
000
