1bc0
1d47
0348
030b
074d
08ae
0470
03d2
0a33
02d5
003f
02c2
04a7
02ea
040c
1c4e
1912
1a53
1b97
1c38
1d4d
1d4e
1c90
1ce1
1c67
0389
1d4a
1bcb
16ac
050e
19ef
19b0
16b1
0533
18f4
1b75
1bd6
02d7
05d8
05e2
1d23
1d04
0747
1ca9
058c
1ce3
040f
1b71
1d57
1cc0
064c
08f1
0432
1bf3
07d6
04d7
1c58
0000
