1d20
0603
0624
1bc6
1a8b
07ad
036e
1cb1
0a52
0d33
0534
04b5
1af7
003f
0320
0486
05e7
180d
148e
1ab1
19b2
1c93
1b57
1bc0
1c41
1d25
1b26
1d47
1cc9
038b
1b0d
192e
034f
06f0
0a51
07d2
03d6
0737
0318
02c1
0822
05a3
06e4
03e5
0646
0507
1acb
1b8c
1c4f
18f0
1b51
1c94
1ab5
06c1
1823
1bc4
0586
1988
1c29
1c8a
038b
1bcd
1c0f
0391
02d2
1d18
1ae1
17c2
1c43
0885
0f86
0967
03a8
05ab
044c
1b6f
1ab0
1851
1c92
1cf3
1cb5
1796
1ad7
19e0
1aa5
1d29
18aa
066c
1aef
0871
0495
0856
19b8
0000
