1c21
0703
0704
18c6
18a7
1b08
1cea
160b
100c
1a2d
04ae
1cf0
1751
19d2
04f3
0415
0316
003f
1c01
03c3
0604
1905
1d46
06c8
0349
1cca
06ac
094d
04ae
0350
0c91
0b12
1cf7
1be0
0442
0363
1c66
17e7
1a08
030a
02eb
050c
062d
02ce
02ef
0590
0611
06d2
0593
0361
0405
04a6
02c7
1b88
1c49
066b
1c8c
154d
194e
098f
06f0
1c11
1832
1673
0454
1cf5
1bd6
1957
1918
1d02
1c43
1cc4
1be6
1a27
1d49
1aaa
1bab
1d0f
1c70
0433
1c58
1d22
0304
03a6
0a67
0b08
02e9
044b
040c
06b0
0831
0332
03b6
1cb8
1ae5
1886
1c27
03c8
03a9
198a
152b
04ed
06ce
1b4f
1430
1d51
0812
06f3
1714
1815
1cd6
0000
