0347
06c8
1c69
1cab
048c
1a8e
1a90
1cb3
1a15
1cd6
1978
003f
1c45
0427
19aa
1ceb
176d
1a8e
188f
1750
19d1
1cd2
1b54
1d15
0337
18a0
0382
0503
0424
1885
19eb
17ac
164d
1cce
036f
1cd1
1c32
02f4
0340
03e1
1bc4
02c5
1ba8
1b49
1aea
178b
1bef
0312
02d4
03b6
02e0
04e3
0304
0be5
1d27
05a8
0c2a
1c8c
066f
0317
0780
0501
04c5
1a26
1967
14eb
190c
1cce
1b2f
17f0
1c93
1c95
0396
0397
0700
0442
1ae3
1d24
0725
1d47
1648
056a
04cb
17cc
1a0d
1a4e
088f
03b0
17d1
1a72
1ab3
05d4
17f6
1ad7
1c78
0000
