19e3
1984
1c66
1807
19e8
19ea
192b
04ad
1b8f
04f2
02f5
1ce0
1c24
1c85
190a
1a6b
1b0c
1bcd
1c4f
0333
0474
0615
04d6
0537
0818
1d2a
1d4b
1d04
19e6
044a
1d0b
1bec
04ae
18ef
1c10
1991
1b52
1c53
1bd4
1d57
1a58
02e4
04c7
0488
0589
02eb
078c
060d
1bd0
1c91
1c72
1a13
1c94
1a56
1d17
1b18
1be8
1be9
1aab
1b8c
19ed
19ee
1d0f
1b30
1bd1
17f2
18b3
1b34
1bd6
1977
1ab8
0380
0308
042c
1bee
1b8f
1bd2
1b93
1974
1935
1956
19f7
1b98
1ca4
1be6
1967
1b28
1b09
1cab
1aac
1c2d
1a2e
1d30
1c71
1b54
1ad5
1a16
0358
0000
