0b1
ee3
e61
e73
01f
121
0d3
f10
2b1
cd3
1d1
f13
190
0c1
de3
ef0
143
e60
301
ed3
e50
ec1
e53
f50
0c1
e83
d60
0c1
d60
e31
0d3
e10
e91
f10
0f1
3c3
e10
211
463
000
f42
162
1f1
0c2
313
e90
132
ef3
0c0
f40
172
db3
161
152
193
0b0
0c1
152
203
0d3
280
0c2
e43
1d0
110
263
e00
102
0d3
ec1
e23
db0
ef1
e72
c63
eb0
ee1
ef2
d53
000
0d1
f33
1e0
281
282
2e0
112
f53
f53
100
f23
241
1c2
f33
160
111
e13
ee1
cf2
f00
e81
f22
2f1
231
0c2
eb2
1b0
db1
ea3
1c0
eb1
cf3
ed0
3f1
e13
140
191
ea2
f23
000
e70
e11
b43
0d0
162
01f
131
f42
ee3
f41
d63
01f
f32
e30
0b1
e72
0b0
0e1
162
133
181
122
3f3
f43
f41
eb3
c70
122
dc0
221
162
180
f22
e53
140
f41
f32
d73
000
d30
f21
e23
db1
0c2
0b3
0b0
eb1
112
160
cd1
292
143
100
f31
2b0
d71
e63
1e0
e82
1e0
f31
f32
0c3
210
0c3
f10
eb3
0c1
f13
271
222
113
2d0
142
173
e50
2d1
c82
e53
d10
161
e82
e13
000
ec0
f31
ee2
173
01f
0d3
ee2
1c3
f50
e83
f11
0c2
f13
ee0
0f2
ec0
f11
152
1d0
f51
e73
1d0
e83
01f
0c0
e63
c90
e61
cb0
0d2
ef3
1b1
e23
110
e63
000
f00
281
0e3
ee0
3a1
100
e70
f41
f03
1a0
0c1
120
0e1
220
da2
1f0
ce2
f13
d82
131
ba2
211
1e0
0d2
181
1b2
ee3
ec0
181
2a2
e30
1c1
2c2
000
bf0
103
d50
dd3
f12
d83
270
f12
cf0
373
ee0
da3
2e0
0b0
123
1a0
dd0
f52
233
2e0
2c3
2c0
0d3
ec0
0f2
e53
da0
ce3
000
f30
f12
0d0
0f1
182
2b2
f30
151
152
e30
0c1
f30
0e1
192
e70
1e1
262
01f
161
e20
ea2
df0
ec2
f32
120
0b2
0b1
410
ed1
260
161
000
f50
f11
01f
ec1
0d0
e31
0b2
e63
112
0e0
191
140
121
f02
0b1
172
ec3
131
e63
ed2
01f
da0
0f1
e33
ee0
121
c63
0f0
dc2
d13
110
e71
000
0f0
ef1
162
0e0
ef1
0e0
1f3
ec1
f02
191
e73
141
f30
1e1
0f2
f23
161
313
e80
ef1
1d3
1c0
f32
170
2a1
e82
dc2
123
d70
0d1
dc2
160
ed1
e52
df3
340
f41
142
153
230
ea1
2e3
000
371
0d2
120
ed2
0f0
1d1
01f
f42
0c0
101
160
f01
e72
281
192
01f
e50
142
f43
1b1
172
f43
131
f30
dc1
ef2
f11
ee2
311
1e2
3a1
162
000
f00
171
e63
eb2
f40
1b1
f22
f02
ec0
01f
f20
eb1
3b1
e82
0b0
f23
f31
262
ef3
231
e53
190
d91
e02
dd3
250
ed2
160
171
0c3
000
200
d01
f02
1a0
f41
1b2
da3
120
1e1
190
d41
f22
0e3
01f
0d0
161
0d2
0e3
141
e63
120
173
f50
eb1
d32
160
e32
233
0e1
121
132
f03
ee0
e91
ea3
ed1
1b2
1c0
1b2
0f3
000
d91
eb2
f23
d00
102
123
c40
122
f13
251
0b3
120
ea1
dd0
db0
0c1
0e2
123
f00
2e1
122
f43
150
0d1
153
f41
113
0c0
e21
e72
113
0f3
190
1b2
162
1d3
e11
223
ed0
ec1
122
233
000
d02
0d3
2b3
132
2b3
193
103
122
123
282
1d2
ed3
0b3
140
2c2
f22
01f
2b2
110
2a2
e03
f22
de3
f40
f23
000
cf1
2d2
200
cc1
112
e70
0b2
ec0
0b2
130
df1
0b2
df1
ea0
f00
01f
f50
e92
0c0
eb1
182
1e0
f01
270
ef2
220
1a0
000
01f
ec1
173
01f
01f
693
333
f13
f53
123
de3
01f
1d3
f51
e83
db3
0b3
273
000
d60
1c1
d62
e40
151
bf2
0d1
f02
1f3
1f0
143
0c1
d22
ef0
bf2
d42
120
f22
0d3
ef1
112
ed1
182
d40
0c1
0b3
262
f43
290
2a2
db0
342
de0
000
f21
103
f11
ea1
f22
d81
f12
0f3
d91
f52
e31
d11
f32
ea1
ee2
f03
e01
f42
db1
f52
113
cd1
1d1
ed2
f42
f03
f41
f42
000
171
112
f22
141
202
e70
271
1b2
1c1
121
ef2
1c1
0d2
0b0
0b1
d11
0e0
cf1
0d2
f31
f02
e70
b61
ed0
b61
de2
ea0
151
ee2
000
0c0
e41
ea2
143
ec0
143
f53
221
f12
e31
ef2
ec0
da2
0b3
e00
df2
0e3
e80
0e1
f52
f30
f21
e22
ed0
ef1
e20
f51
ef2
133
f30
0c3
ee0
0f1
f42
150
f51
1b2
0b3
0f0
d71
e21
1c2
000
0b0
ea1
e70
0b3
dd0
d51
d30
dc1
dd3
131
0d1
0f3
01f
0f0
f33
0f0
161
e33
121
e43
01f
131
ef3
ea0
161
d63
ce1
ea3
df1
f13
000
f40
e13
0c2
df3
01f
f20
ec2
e03
e60
ee2
f43
ea0
0b1
f13
f20
f51
ee3
d70
ef1
f42
ed3
f51
f33
e10
0e1
d12
f03
df2
ec3
f30
ea2
e53
dc1
d63
000
c00
eb2
1e3
ce0
f31
2c2
1c3
ec0
111
133
f20
0f1
eb3
d50
ec1
182
c70
f31
102
203
ed0
c52
f30
151
e82
151
e22
f33
150
f01
0c2
d33
f30
f02
f23
f33
1f0
2f2
383
2f0
f21
0f2
df3
f21
132
d23
de0
1a1
0b2
cf3
000
210
f42
e83
112
e93
0b2
ed3
ee1
f23
1c0
e62
0b0
f21
e32
200
f41
f12
e90
101
f12
110
eb1
e92
ee3
e50
0b2
173
210
0e1
ed3
f30
ec2
db3
de1
2d2
e73
0f0
de1
2b2
e73
1a0
102
dd3
000
ed0
e91
f22
f50
ea1
f22
e73
ed3
0d0
0d3
e10
ef1
ef0
e41
1d3
0c0
0e3
1f0
f51
100
f12
163
df0
282
f53
182
123
180
ed0
0b1
f22
d83
ea0
f42
c23
e02
2d3
350
ed1
e52
493
000
160
df2
140
e42
ee1
e42
190
ec2
e52
01f
f51
0c2
ec2
f20
0e1
1d2
01f
01f
01f
e80
01f
f41
f42
000
e60
0b3
290
f21
ed2
01f
200
0e1
e92
de0
1a1
1e0
1b1
f22
110
f22
0d0
1d0
271
e80
100
0c0
4b0
e71
ee2
e50
ee1
da0
f01
df0
f01
f22
000
ef1
1f2
ed3
1d0
292
123
180
f22
113
0e1
102
d83
f50
3d2
f13
130
282
230
e43
da2
de3
f13
123
172
e43
f20
f03
f20
102
01f
f51
f02
2b3
273
000
01f
01f
01f
01f
01f
01f
01f
01f
01f
01f
01f
01f
01f
01f
01f
01f
000
01f
01f
01f
01f
01f
01f
01f
01f
01f
01f
01f
01f
01f
01f
01f
01f
000
01f
01f
01f
01f
01f
01f
01f
01f
01f
01f
01f
01f
01f
01f
01f
01f
000
01f
01f
01f
01f
01f
01f
01f
01f
01f
01f
01f
01f
01f
01f
01f
01f
000
01f
01f
01f
01f
01f
01f
01f
01f
01f
01f
01f
01f
01f
01f
01f
01f
000
01f
01f
01f
01f
01f
01f
01f
01f
01f
01f
01f
01f
01f
01f
01f
01f
000
01f
01f
01f
01f
01f
01f
01f
01f
01f
01f
01f
01f
01f
01f
01f
01f
000
01f
01f
01f
01f
01f
01f
01f
01f
01f
01f
01f
01f
01f
01f
01f
01f
000
01f
01f
01f
01f
01f
01f
01f
01f
01f
01f
01f
01f
01f
01f
01f
01f
000
01f
01f
01f
01f
01f
01f
01f
01f
01f
01f
01f
01f
01f
01f
01f
01f
000
01f
01f
01f
01f
01f
01f
01f
01f
01f
01f
01f
01f
01f
01f
01f
01f
000
01f
01f
01f
01f
01f
01f
01f
01f
01f
01f
01f
01f
01f
01f
01f
01f
000
01f
01f
01f
01f
01f
01f
01f
01f
01f
01f
01f
01f
01f
01f
01f
01f
000
01f
01f
01f
01f
01f
01f
01f
01f
01f
01f
01f
01f
01f
01f
01f
01f
000
01f
01f
01f
01f
01f
01f
01f
01f
01f
01f
01f
01f
01f
01f
01f
01f
000
01f
01f
01f
01f
01f
01f
01f
01f
01f
01f
01f
01f
01f
01f
01f
01f
000
01f
01f
01f
01f
01f
01f
01f
01f
01f
01f
01f
01f
01f
01f
01f
01f
000
01f
01f
01f
01f
01f
01f
01f
01f
01f
01f
01f
01f
01f
01f
01f
01f
000
01f
01f
01f
01f
01f
01f
01f
01f
01f
01f
01f
01f
01f
01f
01f
01f
000
01f
01f
01f
01f
01f
01f
01f
01f
01f
01f
01f
01f
01f
01f
01f
01f
000
01f
01f
01f
01f
01f
01f
01f
01f
01f
01f
01f
01f
01f
01f
01f
01f
000
01f
01f
01f
01f
01f
01f
01f
01f
01f
01f
01f
01f
01f
01f
01f
01f
000
01f
01f
01f
01f
01f
01f
01f
01f
01f
01f
01f
01f
01f
01f
01f
01f
000
01f
01f
01f
01f
01f
01f
01f
01f
01f
01f
01f
01f
01f
01f
01f
01f
000
01f
01f
01f
01f
01f
01f
01f
01f
01f
01f
01f
01f
01f
01f
01f
01f
000
01f
01f
01f
01f
01f
01f
01f
01f
01f
01f
01f
01f
01f
01f
01f
01f
000
01f
01f
01f
01f
01f
01f
01f
01f
01f
01f
01f
01f
01f
01f
01f
01f
000
01f
01f
01f
01f
01f
01f
01f
01f
01f
01f
01f
01f
01f
01f
01f
01f
000
01f
01f
01f
01f
01f
01f
01f
01f
01f
01f
01f
01f
01f
01f
01f
01f
000
01f
01f
01f
01f
01f
01f
01f
01f
01f
01f
01f
01f
01f
01f
01f
01f
000
ec1
1f0
e41
133
01f
01f
de1
243
f11
203
0c0
ee1
01f
1f0
131
df3
ec0
111
da3
0b1
d33
01f
f00
0e1
d40
ee1
ef0
1f3
000
1c0
ba3
0d2
f50
1b3
e80
181
533
160
ec2
f53
01f
f21
112
dd0
253
180
ee2
2a3
250
e12
e43
0d1
e72
c53
d70
0d1
ee2
0f3
0f1
ef2
e03
e00
eb3
e00
f01
f43
000
160
110
1a1
0d2
263
0e0
0e2
1c3
0c3
121
142
0b3
da0
f31
eb2
f53
ee0
f11
f03
f20
ef2
0c3
113
f10
e01
d12
133
ed0
ef1
ee2
0c3
be0
ec2
293
c60
da2
203
eb0
111
db0
f42
0c3
000
3d3
2f3
113
d23
d70
f01
0d2
3c3
f00
f21
f02
173
01f
ef3
110
130
0f3
e60
dd0
f03
190
f01
ea2
273
111
e32
f53
e10
181
e52
000
e72
ea2
f40
e31
e92
f21
0f2
e70
281
f42
1e3
f20
1e1
e72
f23
f40
f51
0c3
e21
e20
f41
ed2
103
f40
eb2
ed3
181
e72
ef0
0f1
d02
f40
291
db2
e83
0f0
0d1
f43
160
231
e22
000
ee1
0b2
141
0b2
131
182
0d2
f30
171
ee3
01f
f01
ee3
100
0b1
171
0b0
ec0
da0
0b1
e73
1f0
181
1d0
0d1
f22
111
d40
0f2
000
130
df1
f42
0d3
160
e11
1d3
1d0
ed1
163
e71
132
0e0
142
182
f51
0f0
f21
133
190
f01
123
0e0
ee2
f21
c62
0c1
d82
0b3
f20
d32
f40
f51
f22
f53
f50
000
df0
eb2
e73
d30
f22
bc0
ed2
1c3
f50
233
d60
ea3
e30
0b2
dc3
f00
f33
173
990
f42
e63
b90
f33
d90
f52
de0
153
01f
180
f03
0e0
102
0d3
0b2
f13
000
1f2
0f2
01f
0f0
152
0d0
e21
f22
0d1
de2
0f1
0f2
01f
ee1
101
c32
e90
e91
cf2
210
dd1
ef2
120
0d2
220
122
000
e80
161
e83
ca0
ea0
0e1
0d2
183
280
203
e50
151
0f2
123
0b2
350
ed1
183
273
ef2
0f3
121
f53
110
113
210
f42
1e3
f31
ed2
f11
ee0
eb3
000
c60
0e2
c00
2d1
152
ed0
2d1
f53
f10
291
e03
f00
ed3
e50
152
df3
161
f03
3e1
252
f00
1c1
0e2
01f
121
f53
da0
ce2
133
f30
e70
1e3
000
d51
f22
eb1
0c2
f41
f52
150
f32
f43
f41
102
e41
ed1
f42
0b0
151
e70
e31
e50
0c1
e60
e90
182
e70
172
f40
122
000
01f
181
272
202
dd1
201
212
ea3
112
f03
f40
e71
f52
ed1
0e3
181
312
162
f50
201
f32
f43
141
ed2
f23
110
f31
122
0b3
1d0
181
0c2
0e0
f31
100
000
e60
ec1
1d2
ec3
f50
142
e33
dd1
ef3
120
ec3
ee0
d81
db3
110
e01
e72
140
ea1
01f
140
e51
1a0
ef1
e92
383
e23
0c0
292
d73
f20
121
0f2
383
0e1
2c3
ee2
e80
e63
000
d10
f03
f10
e13
e61
e42
320
f41
e52
df1
e53
e50
f41
f12
e70
110
f42
f20
ed1
f33
eb1
ef0
f21
ef2
f23
01f
e62
160
161
280
0f1
0f1
162
ef3
000
0d2
e93
f30
0f2
01f
d92
f03
d43
0c2
e63
f42
e82
eb0
dd2
f03
f10
f12
253
e52
f50
e62
01f
0f0
f02
140
0b2
f13
000
ee0
f42
da1
01f
d60
1d1
0f2
dd0
f01
f50
ea1
202
e91
152
ed0
0e1
0d2
d60
f11
192
dc1
162
0c0
f31
150
1d1
f32
230
131
f32
01f
e61
f42
000
e51
d53
01f
133
f51
be3
01f
273
01f
0e1
1e3
3c3
01f
e93
01f
f33
01f
e83
000
0c2
ee2
eb0
e32
f10
f53
f20
f00
101
eb2
f00
0e1
e92
f03
0c1
ea2
1c0
c22
150
0d1
ec2
eb0
ec2
193
eb0
f42
123
f50
f20
f11
122
e80
0c2
f43
ec0
252
000
ed2
ef3
1c1
f42
131
f01
561
f42
0f1
f43
da1
01f
2a1
01f
f41
0f3
1c1
103
f31
f42
ea1
171
281
0b2
000
f20
0c1
0d1
0c0
f52
f12
ef1
df2
0e1
f02
0f1
0b2
381
142
2f1
f02
191
f02
170
e41
e72
110
d81
cb2
110
af1
f02
0e0
152
170
ef2
000
f20
d62
d52
f23
f22
f23
0b0
e81
130
e91
d82
0c1
f11
f03
f31
f03
ec0
0c2
e80
01f
f12
0b2
01f
000
ce0
1b1
e33
d80
f21
f13
e10
f41
c81
0e3
160
281
100
f51
df1
133
ec0
ea1
0f3
233
211
0f3
0f1
f50
e61
110
0e1
2d0
2f1
e73
230
201
e53
000
f10
ef1
f53
0b0
140
f40
111
f42
223
0d0
0b3
db0
101
1d3
192
0c3
01f
eb2
ed2
203
160
163
0d1
f42
2f3
0b0
121
f12
283
e42
263
000
f00
f52
c40
e00
f31
0d3
f12
313
0d0
f11
232
153
ea1
e92
f13
f30
f51
f42
e73
dd0
0c1
383
ba0
ee1
0e2
323
d80
ed1
143
e30
f21
e22
ee3
ec0
0b2
dc0
1b1
ed2
2c3
171
2b3
150
203
1e0
f51
0d2
f53
000
cb2
213
dc0
1c1
c12
2a3
1a1
ed2
103
131
e53
0d1
f02
2e3
1b0
0b1
f42
0d0
d22
ee3
ef3
1f0
1e1
200
0d3
120
f21
0e3
01f
f00
0d1
ef2
1a3
e50
cd2
1a3
f20
f52
120
e62
000
1d2
113
e81
eb0
e93
0f1
e52
e43
dc0
f51
1e2
f30
e81
0d2
123
110
ed2
0d3
f41
f30
112
0e3
112
e61
e02
eb3
2c0
503
1e0
152
163
d53
f52
d03
000
eb0
0f1
252
111
2f2
182
df2
131
2a2
f50
0f1
ee2
f52
0c1
f31
f42
160
170
ec2
01f
01f
0c0
01f
000
190
f31
0b2
ee0
121
112
01f
d50
cd1
0d2
c50
db1
f20
f32
0b3
ae0
dd0
e31
280
f32
380
0c1
c90
1e0
0b2
240
112
3c0
000
d02
e90
d82
e63
de0
f02
e30
d33
0f0
f12
123
cf2
0c3
de3
e90
ed3
ed2
ed3
f32
f33
01f
152
e42
f23
f50
f41
e82
0e3
e00
183
ef0
e52
213
000
340
240
e41
f03
01f
240
dd1
f23
1c0
e11
183
1f3
ef1
e23
1a1
131
0f3
1e0
f01
ed3
e50
e61
e83
f50
0c3
01f
c90
233
000
e40
0d1
f03
e60
0c1
e53
ee0
f31
0f2
f01
143
141
e52
f43
201
0f3
e80
111
1b2
133
0b1
2a3
200
1a1
f12
243
110
131
0b2
f41
0d0
243
480
140
1e3
01f
f31
0c2
ef3
000
0d0
312
133
110
1c2
193
01f
f50
1b2
f53
ee0
f31
0f2
dd0
df1
0d2
0e3
f10
f02
ee0
111
dd0
0e1
f20
01f
d80
2a3
ed2
113
01f
0d0
f42
000
ee0
f51
1a2
133
0e2
2b3
1a3
0e0
183
e10
e71
0c2
183
ef0
383
0b1
f12
ea2
eb1
df2
143
f41
df2
263
01f
e90
141
142
e63
120
393
101
f52
f33
e00
0f1
f52
d50
0f1
000
1a2
153
2e2
111
0b0
ee2
f03
ee0
221
133
e70
231
e92
0c1
ed2
ee3
01f
e02
e73
bb2
da3
0d0
ea1
f22
0b3
0b0
0d2
103
f21
df2
f33
0d0
f32
f43
132
f23
0f1
e32
f43
000
0c3
f01
113
d81
eb1
1d3
ec0
ed1
0b2
f40
ce1
e83
e21
f50
f50
0b1
0c2
0e2
de3
01f
ec1
0e2
f53
3d0
121
ec3
0e0
0e1
ea3
e80
ed3
e50
0e2
d73
000
df2
0e3
c82
f23
f52
f10
f41
ec2
0b0
1a1
132
0d0
dd1
1b2
e11
142
e81
2f0
e11
132
240
d01
162
f43
01f
0c0
173
f10
d62
f31
0e2
f53
0c0
0e1
242
000
e90
ea2
1b3
01f
01f
250
182
113
c80
0d3
e60
f43
180
200
1d3
d20
132
e43
0c2
c43
1a3
293
f40
f33
0d0
0c2
0b0
0d2
e20
0b2
f23
000
e01
0c2
01f
1b0
0c1
0f2
112
0f0
e81
ce2
1c0
e62
140
181
1b2
0e1
f50
f32
161
112
ef0
f51
e80
f02
01f
162
250
0f1
132
000
f10
0d1
eb0
101
eb3
f53
0c1
e42
f00
0f1
0d2
da0
f30
f21
ef2
153
190
1e3
131
e92
103
01f
f20
f31
1b3
130
111
f52
203
220
df2
203
01f
130
000
f20
162
253
f30
01f
eb1
0b2
df3
f20
162
e60
1f3
eb1
e83
e90
441
e60
2d1
e82
eb0
e40
e70
131
eb2
ea3
f10
161
e32
f12
0d0
d92
000
01f
100
ea1
0b2
110
160
e91
e20
ea1
1e2
f30
262
1c0
102
e61
0b1
0b2
120
0c1
0b0
ea1
f40
ec1
f40
e81
e51
1b0
0b2
131
000
181
0d0
ed2
170
f41
0e0
f31
221
221
f12
113
e31
0b2
0d3
262
f50
da1
162
e51
162
f53
eb0
ec1
122
e71
122
ef3
f33
250
0f1
000
e10
f31
2b2
e53
db0
1d2
0c2
f40
101
f10
db1
e33
e81
f33
132
ef3
01f
0b0
e81
e82
160
193
0b0
0e1
f42
f43
100
e32
313
1a0
0f3
ef3
f03
000
e60
d53
e60
170
143
340
0b3
f50
e21
ef2
e80
eb1
f00
131
1c0
e21
f22
160
f31
f43
01f
0f1
140
f43
f40
0c0
123
f40
1a2
133
000
f40
152
100
f52
f33
ed0
142
133
01f
f20
172
1e2
f52
ea3
120
d73
0c2
1a3
0d0
ec3
192
d93
000
0f0
ee2
320
dc2
220
e90
ee2
0f0
e71
0c2
1c0
f31
0c2
01f
d30
101
ed0
142
ef0
e51
0b2
f00
f41
102
f31
0e2
142
eb1
0c2
220
d61
0b2
000
e73
ee3
f31
e71
e83
e03
01f
e63
e33
163
01f
f03
01f
f11
01f
f31
eb3
01f
000
01f
ed0
0e2
f20
ea1
0d2
eb0
ed1
1e2
ef0
e50
f11
152
e90
132
ce2
ee2
e93
01f
ef0
0b2
eb3
0d0
f51
dd2
ee3
0d2
120
000
0b1
01f
ec1
0d1
0d2
2f1
101
ee1
ee3
f03
01f
01f
0e3
01f
f11
f33
01f
0b3
01f
000
0b0
1e2
0f0
252
131
130
2c1
202
f20
e62
01f
0f0
ee2
151
e12
140
160
dd2
190
e51
d22
1a0
de1
da2
da1
f12
da1
c72
000
ed0
ea0
f20
ef2
e60
ea1
0b3
130
eb1
f02
f13
0c1
f41
f42
f43
e12
f43
e32
f51
ef2
ec2
f32
01f
ea3
000
0b3
2d1
0b3
310
1e3
ec0
0f1
01f
f30
e91
f03
01f
1d1
01f
01f
1e3
01f
eb0
e01
113
01f
ec0
0f3
000
0b1
142
1c3
0b1
293
f20
2b3
191
162
173
0b1
132
dc0
0e1
103
103
150
0c3
160
121
f52
0d1
f32
122
e91
1a3
342
273
0c0
f11
f31
eb2
0e0
ec1
cf2
273
000
e20
112
0c3
0c0
142
230
ec1
1d2
f33
d90
e91
312
303
f11
2c2
113
f52
0c0
f51
df2
dc0
e51
3f3
f50
eb2
f50
ed2
f51
d80
ee2
223
ea2
130
e22
212
f43
000
e30
0d3
db0
f22
183
ea2
e20
f01
163
e52
1c3
e60
0c1
e90
131
1a0
f12
1e0
db2
133
0e0
0f1
f02
1b1
ea2
e73
e72
2e3
1d1
e92
01f
140
f51
102
ec3
000
01f
d13
01f
f23
e50
f31
db3
ed0
121
f52
0b3
171
dc0
1d2
0f2
2b3
01f
cc3
f11
282
0c3
f01
ef3
f50
e91
ea3
000
130
161
122
150
292
f51
0f2
01f
0f0
182
292
102
eb0
e92
122
e80
1d2
0f1
eb2
f40
191
1a2
0b1
0d2
142
f31
000
170
1a0
f21
1e0
df1
ef2
d51
f02
e00
f41
e60
140
e71
e60
da1
c50
121
e10
0b3
210
f01
f20
f01
132
e91
120
0b3
1f0
0e2
000
0b0
f53
152
e63
01f
1c0
f02
253
f41
f12
103
f02
0b3
f10
eb2
ca2
0c3
e40
e73
ee0
f01
de2
de3
e70
e92
e90
111
131
1f3
000
250
100
f31
123
200
ea1
173
280
ec1
e83
ef0
dc1
1a0
e41
0e0
d61
233
1f1
d43
231
e73
e40
171
233
e71
e83
180
121
e53
3f0
2d1
cd3
0d0
e30
e51
000
102
0f0
d93
f52
ab3
d90
ca1
0b2
823
e90
f01
180
cf1
0d2
ec3
ea0
e10
f21
ea2
d13
f50
141
2c3
250
142
113
dd0
173
f11
1e0
191
2c0
0c1
0b2
000
240
222
0d3
1a0
162
0f0
f01
f13
f41
e53
140
2d2
0b3
e92
f11
242
f53
e81
262
f43
e31
ed1
eb3
eb0
f11
e62
103
e41
01f
e40
1f1
0d2
f13
ed0
0c1
143
101
0b3
000
131
233
151
383
1a0
283
2b3
162
f43
f00
0d1
e73
1a3
0d1
f50
ea1
cc3
ee1
f13
100
f21
e32
133
01f
ee3
170
113
1c3
0d2
000
140
df1
132
0c3
130
f41
0b2
0d2
0e3
0b1
0f3
282
123
1e1
0f2
f03
f10
0b1
0d2
0d0
0b1
ef0
e61
152
0f3
ef0
203
e10
d52
e43
1d0
e91
102
180
e31
203
100
c11
df2
213
f30
ef1
e92
f00
202
000
df1
112
0e0
0f1
ee0
f51
f32
133
f42
233
ea2
143
f20
f31
ed0
e61
f32
f41
e81
ed3
dd1
0d2
01f
280
1d1
102
f13
170
f31
f23
160
e63
000
f41
132
ed1
222
0e0
ee3
1b2
dd3
e60
201
e02
1b3
e60
181
ed2
163
e40
ef3
e40
dd1
0f2
e93
101
e92
183
f10
321
f33
160
d61
0f2
f32
ea3
ed1
e22
f03
140
e01
f02
123
01f
000
01f
130
f12
f13
e80
ec2
d63
0d0
ed2
e73
2c3
0e0
f02
0f2
da3
100
363
e40
f02
0d3
f20
df3
130
203
0c2
0f3
0e0
f32
ea3
ed3
1c3
000
292
0b2
01f
0c0
ee1
1c2
161
e42
100
ef1
0b2
0c0
192
eb0
f21
d72
f02
2d0
122
dd0
0b1
f10
f22
c90
0e1
e22
f30
e60
f32
000
e40
0b1
0b3
111
0c1
f32
ca3
de0
111
b53
e10
2c0
f11
123
f43
d80
0e1
e91
f33
1e0
f41
0f2
e13
100
ed1
1f3
d50
201
143
100
1d2
1b0
221
302
153
191
173
d90
103
000
e81
f53
f00
110
132
f43
01f
e31
0f3
210
ef1
f22
220
de1
da1
ed1
102
100
e01
1d2
143
01f
0d0
ef1
262
140
442
251
122
0d3
141
cc2
0d3
000
1f0
151
f52
0e1
e32
e11
f12
01f
170
e60
271
180
d01
e60
f12
f00
1a1
ee2
f50
e71
1a1
f42
ef0
161
ec2
172
132
000
f40
121
f23
f50
e21
dd2
0e1
e22
140
f52
f53
f52
d21
f32
f00
151
f52
eb0
211
da2
0c3
141
0b3
f40
ed0
db0
ea2
0b3
191
222
202
000
f50
c93
ef0
ef1
e52
e83
ef0
3c3
f52
163
de0
212
c33
120
101
e62
1b3
f41
120
f13
01f
e80
0d0
ec1
242
253
1b1
0d1
e72
f53
0e0
f31
0b0
e31
0e3
0c0
ed1
e62
000
102
dd0
212
153
b00
bb0
221
f00
d70
201
132
f20
ef0
251
100
ee2
f23
e50
e91
f00
e01
e90
0b1
f43
1e0
1c1
0d3
e72
153
e30
0f3
ee1
0d3
000
f13
222
e83
2a2
173
252
163
ea2
e03
f52
113
01f
e42
1e3
0e2
01f
ed0
e82
f40
01f
01f
000
ef2
e70
0d1
e22
180
e31
f02
460
d31
e62
f50
d62
ec0
ec1
db1
0d2
df1
0e1
170
df2
101
e60
0d2
ea0
de0
211
01f
ec1
0c2
000
ee3
d23
f21
e43
01f
ce3
e91
ca3
f31
df3
f31
3d3
413
01f
01f
123
01f
ee3
f43
000
110
eb1
1c0
2f0
2e0
ef1
f12
0b3
e12
1b0
cd2
f33
01f
f03
f00
131
0e3
130
0d3
e90
112
eb2
123
f10
ed1
f22
ea1
ea2
0c3
ed0
e70
000
f51
0b1
f23
281
e72
ee3
141
f23
123
191
0c1
e83
e61
112
f23
f22
0d3
1c1
ef2
db1
b41
231
2e1
d21
eb3
c11
000
e41
172
e01
122
dc0
132
e20
0c1
f33
d51
322
0e1
152
f40
0d1
262
361
192
f20
2f1
ee0
491
eb2
0f1
d82
0e0
0d1
f50
191
f42
151
e12
1c0
dd2
0d0
d51
000
e02
f33
01f
112
0f0
0e1
0f2
153
ef0
161
202
0e3
f41
1e2
100
0b1
e53
01f
01f
f20
e61
f12
ef3
f50
1a2
ee3
ef0
e31
ed3
eb1
e62
f53
e91
000
1d3
141
0c3
ca0
3f1
da3
da0
1c1
d83
141
203
f40
d81
1c3
d41
0e3
ef1
f53
191
ed3
0c3
f30
2c1
0d3
0c0
e31
120
de1
0c0
0b3
f20
391
000
dd0
1b2
e43
f30
0c1
0b0
ee1
da3
f02
f30
111
0f2
143
1b0
143
120
152
dd0
0b1
143
eb0
f51
ec2
e63
ef1
e73
0c1
ee0
e13
f53
ec1
352
e23
f50
f01
0e2
e11
f03
000
ef0
112
e33
01f
f32
0d1
cf3
e80
0b1
f30
131
e52
260
d43
e53
0d0
eb2
ee3
ea1
1c2
0e3
0d0
463
ee0
f02
ec0
0b1
de0
161
f12
f53
01f
f03
000
e60
111
e62
183
e90
cd1
182
293
0d0
bc1
0c2
c70
f22
100
f31
242
eb3
f01
272
ee3
de0
ed2
ea3
1e0
f31
ec3
1d0
da1
f50
131
f53
ed0
131
e81
ea0
e91
303
f30
1f1
143
e90
161
0f2
000
123
0f2
102
f33
ec2
ef2
153
110
f51
f32
e53
f21
f33
ee1
e73
f12
d73
f42
0e1
f42
103
100
132
ef3
100
e12
ed3
230
783
1c2
383
202
e43
000
0e2
f40
422
112
130
0b1
e92
ef2
f41
0f2
ed2
160
e42
0b0
f01
f52
e82
0b1
f02
221
0e2
ee0
0c1
0d2
000
0b1
01f
df0
de1
110
2b0
f33
1f0
ed1
ee0
d21
0b0
e91
e90
ed0
0b1
dc0
f41
f32
e50
e71
ef2
de0
151
b50
251
cc0
131
e10
ec1
000
170
143
f42
2c3
dc0
0c3
e33
140
142
1f3
100
243
140
f22
ee0
1b2
e63
302
f13
150
e62
103
0b0
f23
ef0
f51
f22
e23
180
e92
ee0
0b2
000
150
ed1
120
181
1b0
1b1
f53
181
0b0
ea0
171
ea3
0c0
2b3
e63
140
ec0
f11
0c3
0c3
e70
170
e21
f30
ef1
d90
0f1
ed3
000
f10
163
f42
f13
140
d93
110
ef2
dd3
f10
110
1f1
103
e73
130
0c1
e70
101
d70
111
0e2
173
1a3
f40
131
102
1a3
01f
f31
0f2
123
ec0
1b3
160
1e1
113
000
172
f20
f21
160
201
162
ec0
e01
ef2
eb3
e90
e42
1a3
0d1
0e2
1f0
ef1
192
ea0
ef2
120
0e3
f50
f42
210
123
0c1
150
ec1
0e3
1e1
103
150
e62
1d3
000
e50
0c3
df0
f21
133
e10
2e3
f01
0f3
f40
f52
01f
0e0
0d2
ed0
0c1
0c2
150
0c3
f33
0c1
df3
ec3
f50
ea0
0d1
ef2
f43
ef3
000
0c2
e90
0d1
0f0
0d2
171
e42
103
e11
f23
e81
e53
0f2
173
1b1
f11
f11
1c2
01f
df1
182
0c3
112
eb3
f31
1b2
0c3
eb1
db3
0b0
ea1
212
000
121
e82
f43
e30
ee1
ec2
e60
201
1a2
f40
ea3
f20
0c1
e70
f21
100
1c1
ef0
f11
f12
170
f40
103
0e0
0f1
143
111
162
d80
0d2
0d0
261
0c2
f30
000
e80
e63
f30
f31
f32
1b1
132
0d3
f33
180
f12
133
e10
e50
0e1
282
ed2
ef1
131
01f
0b0
141
e22
f33
180
f22
01f
0f0
e22
113
000
160
182
0e0
172
200
e63
d20
240
142
db0
122
0c3
ee2
0f3
ea0
f33
200
0c3
0c2
f50
0c3
240
f42
d93
100
e93
e00
0b0
ee2
000
ed0
dd1
ee0
0f0
f21
f30
ec2
f11
e32
0b1
3a0
ee1
222
e90
102
f20
1d1
f50
161
f00
0c1
1a1
ed0
1a1
e52
000
0c1
f50
0e2
f43
1c1
1e2
122
ec3
f03
103
110
f20
f21
ea3
eb0
f43
ec0
f21
1c0
183
f31
133
0e1
f12
191
1e0
f12
193
01f
000
100
190
f11
0d3
130
121
0c2
1f3
0f0
f31
172
1f3
0e0
0e2
160
0f1
f12
f20
e71
f52
143
f11
f12
193
0f1
e12
0b3
e80
ea2
141
e22
161
f03
2b1
e82
e93
e80
131
d22
000
01f
351
0b2
ef3
491
ef2
f53
ec0
291
141
ee2
f50
2c1
ec2
150
f21
141
100
111
e50
f31
ef2
01f
e21
f12
e51
ea0
e01
000
f10
f42
f00
301
ed2
ed3
f50
251
e83
361
f12
251
0c2
f41
f43
0e0
341
eb2
f03
f10
101
f20
121
0f0
102
01f
131
f33
f40
de1
0c2
f03
120
ed1
0f2
0c3
ec1
252
f13
000
e13
eb0
da3
ed0
e01
d22
dc3
ee0
df1
161
ed2
f23
01f
f22
153
f20
2e2
e33
111
ee2
0e3
1b2
1d0
ec2
153
0c0
0b1
f02
112
210
f41
113
120
f31
ef2
363
000
180
f31
f32
3b0
ed1
ec2
f33
1a0
e41
0e3
e30
ec1
f33
1f0
113
180
ee2
e03
193
da0
262
f03
1c0
ee2
01f
01f
e40
152
f42
ec0
ef1
123
e81
123
000
01f
f52
f43
0d2
cb3
162
e73
01f
f50
e42
1a2
ef3
113
01f
ec2
1a3
0b2
ee3
152
0d3
172
f13
143
e53
000
ec0
101
d30
0c1
c20
131
f42
250
f11
e90
0e1
e50
182
152
390
ea1
01f
f30
130
f51
192
d80
121
0b2
eb0
e21
0b2
f21
0d2
ee0
111
0f2
000
e13
131
e63
0b1
dd3
161
183
01f
01f
01f
0b1
ee3
01f
1d3
0c1
01f
df1
e23
01f
01f
000
192
cb0
262
123
da0
0e2
f40
f42
133
1f2
181
e72
01f
220
0e3
f10
152
160
f32
0e0
151
eb2
e12
ef0
160
eb2
f13
1d0
f12
de0
000
01f
01f
3e1
0f1
ef2
f21
df1
0c3
321
eb1
ea1
f52
f43
0b1
0b3
01f
f21
f02
ec3
ef1
f53
121
01f
d61
e42
ee3
000
180
f01
0c2
ed0
131
f01
f30
e01
f20
dd1
0e0
f11
e71
162
ef1
e50
e31
0e2
f40
e11
192
0d0
e21
f32
000
01f
f11
e91
ee3
ec1
f33
01f
e92
152
f13
0b0
f12
01f
01f
0f2
e62
ee0
0f1
1a2
153
ed0
e62
113
000
290
f31
113
3a0
340
183
140
271
f13
290
e91
150
161
f00
161
ec3
f41
103
280
111
f33
e71
0c3
e60
f01
101
f53
e10
f10
f41
103
2a1
f23
000
01f
0d2
142
f20
e81
f42
e03
01f
f30
211
200
f01
e70
f42
01f
0d1
1e0
eb1
ec0
1a0
f22
f32
1c0
e32
0c3
000
220
f21
e23
260
0e3
190
dd3
f50
112
1e0
f11
e72
ea0
eb2
253
0b0
0e2
e23
e70
392
d93
140
ef2
f40
121
f12
01f
e80
171
ea2
1e3
f12
123
f10
e32
0d3
ed0
e91
ef2
0c3
e82
2d3
000
ed0
0c3
f11
113
0c2
1c0
143
01f
130
0e1
e02
182
f00
f11
e92
173
0e1
f03
f32
f41
0f0
102
01f
0f0
101
000
01f
180
1e3
1c2
153
0c1
ec2
0b3
150
112
153
01f
141
1c3
0b0
dd2
1f3
110
f52
133
152
ea3
e30
f41
0f2
ea3
ef0
f10
101
0e2
000
01f
f52
0b2
182
f51
e62
f21
e82
f32
0c0
132
01f
01f
0c0
e62
ed2
ef1
0f2
0d0
f50
ee1
f22
000
f20
f41
f10
0f1
e30
261
f42
e70
201
f41
f10
f00
2c0
0b1
ee0
f52
f40
f40
01f
ee1
e21
160
ea1
160
000
120
0c3
230
f31
103
140
363
01f
01f
01f
f10
173
01f
01f
f03
ec0
f53
01f
01f
ed2
01f
000
e11
e83
270
d71
290
db1
ef1
ee3
ed3
0b1
0c0
f53
170
0b1
d93
e40
101
ed3
dc0
331
251
e93
240
113
eb0
173
ef0
121
1f3
0e0
3b3
000
210
ec1
d33
1d0
ed1
1b3
1d0
313
eb0
233
ee0
f12
123
f10
e93
170
243
0f1
ee3
0b0
0e1
291
f23
131
f32
f23
bf0
d40
f12
153
01f
ec0
ef1
000
110
f41
192
f11
202
130
e31
262
0e3
01f
de0
f41
192
f53
de0
dd1
da2
d00
d81
e52
0c3
f20
e61
eb2
f53
e11
e92
db0
db1
c42
e60
cb1
e71
182
dd0
0d1
de2
e13
d20
ef2
f03
f00
0c1
f53
ea0
181
e52
000
112
1f3
0e2
210
f53
160
e53
1e2
e63
f31
cf3
ef2
1a3
f40
e82
263
ca3
230
da3
e70
113
d10
f41
1e3
ef2
e33
0b0
ef1
f12
01f
de0
0f1
ef2
eb3
000
123
ec0
f41
0b2
0d3
f00
e81
0b2
f40
e41
f43
e40
f01
2d3
e50
103
110
eb2
150
0d1
e62
0c3
1c3
0e1
d32
0e1
e02
f00
181
223
1c1
e22
f20
181
ca2
190
dd2
0b3
141
c62
173
000
f53
150
0e1
f02
f53
220
180
0c1
0f3
ed2
ed3
ed1
ca1
0e2
e40
f11
142
eb3
ee1
0b2
0c0
ea1
ee3
e90
e91
eb2
e53
d30
0e1
be3
1a1
253
100
281
0f0
281
f13
f50
251
dc3
000
dc2
ed0
df1
e62
1c3
d61
133
f10
f51
f23
2e1
ec2
103
f20
1f1
df2
1b0
f51
d92
1e0
0d1
0d2
151
ec0
0b3
e50
d41
f20
171
ef2
f43
f32
e60
161
f10
0b1
113
000
db0
f42
de0
263
e10
e92
123
f40
f42
1a3
de0
453
e40
120
ed3
0b2
173
e50
db0
f42
eb2
1c3
1e3
370
0c2
ef3
1e0
0e2
0f2
f20
dc3
000
ed0
f51
222
ec0
2c2
150
121
242
01f
e02
171
db2
0b1
f52
eb1
0b2
d62
1b1
c72
f30
ec1
ec2
110
cd1
ee0
e82
01f
ec0
190
f21
0d2
000
dc0
121
f13
da0
0f3
ea1
2e3
2f0
ef1
f02
0b3
0e2
0c3
200
0f1
1e1
0d3
0c1
0e3
110
112
270
f41
113
e50
f51
cc0
2b2
f23
0e0
ee1
f52
f23
f41
f50
0d2
e53
ef0
f51
222
eb3
000
e60
0b1
ef2
e43
d00
ca3
d90
f51
0b2
dd3
f31
e03
0d2
f31
282
d80
1e2
f43
202
0b0
ee1
e81
182
e70
ec1
152
283
eb0
272
1a3
ed0
e22
d20
161
dc2
1c3
f20
183
ed0
121
192
3e3
000
f51
f32
0c0
b41
160
991
c91
f20
161
f52
ee0
0b0
ec1
1b1
ed2
f53
db0
d30
0c2
f10
211
192
100
132
f33
f10
0c2
f30
f51
f52
102
000
e31
ee3
c41
142
ef3
bb1
0b2
c81
ef2
153
1e1
0b2
111
01f
361
0c0
251
0e0
1d1
0c3
f00
3c1
f53
e80
351
eb3
0b0
f31
f10
1f1
162
eb3
000
eb0
0f2
ee3
1f2
190
db1
1a2
0b3
f12
253
0d0
f01
1e2
150
e61
0f2
233
e61
123
e90
f31
1d2
d83
221
e12
250
121
f02
2a3
cc3
cd0
f01
2e2
a53
2b1
213
1b1
213
f21
dc2
e63
f50
e41
c83
000
da0
e13
f03
d20
ee1
f33
e92
120
dd3
f00
f52
01f
2c0
f01
161
e60
0f3
f41
f23
1a0
d01
ea3
151
f12
100
170
f53
0f0
112
000
ef3
0d0
f42
01f
ea2
1d3
e82
0f3
e42
0d3
ef3
102
c63
ea0
e62
f43
da2
0e3
df2
0c3
db3
f50
f02
e92
0f0
f12
ce3
000
cc0
eb1
ee2
db0
e51
ec1
0f1
e12
172
130
ee1
110
e50
121
01f
100
0e1
111
ed0
111
f12
160
1c1
180
171
f31
e30
e41
000
f33
f11
ee3
ef1
f53
f11
f53
3e3
2d3
f41
df3
1a1
3d3
0d1
5e3
121
153
0f1
c23
ec3
01f
01f
f13
000
dc2
0d3
f00
ea3
f13
130
f41
0e2
ee0
101
e22
f30
0d1
e92
cc0
0c2
db0
0f2
183
103
0e0
e50
0b3
d50
252
193
182
ed0
112
0f0
ec2
f30
f51
000
f31
f52
f33
f32
0f1
f42
f33
103
ef1
103
bc1
0b1
123
eb3
f32
e41
121
e81
0f1
3d1
511
000
01f
120
e91
f51
0f2
ef0
171
0b2
e72
100
241
e22
321
e72
0e0
ef2
261
e42
0c0
381
c12
241
d32
de1
cb2
cd1
f52
cb1
f32
d11
e21
e52
000
ea0
121
d82
113
f10
f02
f31
f32
0d1
01f
f51
0c3
ea1
d82
ef0
f41
f22
0f0
f53
0d0
f01
ef2
f23
ee0
d82
f03
f40
e01
e92
f13
1a1
ef2
0f0
0d0
ee1
f22
000
de0
2f1
e73
ca0
0f3
b70
ea1
263
c30
e61
f43
160
1e0
f41
103
2e0
151
253
2e0
221
1e3
ee0
ee3
ed0
f43
150
f13
0e0
1f1
ec3
110
110
e71
ef3
0e1
e33
140
e61
de3
000
01f
0d0
ef1
152
f23
eb0
ee1
162
243
143
1c3
c20
131
2b3
e50
141
f30
eb1
f10
eb1
ed0
ee1
f03
1b0
e62
0f3
f32
0e3
170
ee1
e02
000
e32
0f0
e22
ec3
e70
283
dc0
ef1
112
0b3
e40
f11
d92
0b3
140
ee1
e52
143
140
f01
1a2
1c3
dc0
e33
e60
ed2
db3
ef1
e03
180
eb1
1f2
c43
0b0
121
180
181
f02
153
0e0
0c3
df3
000
f30
d42
173
e10
2b1
e42
163
e00
311
eb2
0d3
f00
f11
0b2
01f
1c0
f13
150
bb2
f10
e22
113
140
f13
2b0
171
e62
f33
130
1b1
c32
153
e60
0c1
df2
2e3
ea0
f51
f02
f50
e32
f00
171
e72
000
ed1
1f2
183
01f
ee0
f40
f03
f31
ef2
f20
e91
f02
133
e30
0d3
f50
0c2
260
c73
110
f12
0f1
113
101
103
1b0
f02
2c3
1b0
363
f21
ee3
f21
f03
000
f10
0e1
f10
191
182
212
f32
1f0
181
ee2
140
0d1
e22
f12
112
ef0
ea2
f20
eb2
01f
181
1c2
f41
0c2
171
01f
000
130
f11
f43
f41
f40
e61
eb1
f02
e61
0b2
0c3
f10
ea1
f21
f42
f30
e82
e20
191
f30
281
251
2a1
0e0
f40
0d3
f30
112
1d0
0e1
0c2
000
01f
f40
e12
d60
e52
f13
e10
0c2
d93
0c0
262
f23
170
f51
182
e53
160
f12
1a0
f02
243
f43
d93
0c0
ea3
0e0
e90
122
f13
f10
1c3
f00
0e3
f10
da2
1a3
000
f10
1c1
220
140
e23
120
161
ec3
f10
f43
f20
e43
01f
190
ef0
131
133
0b1
0d0
e83
0e0
191
0b3
de0
1b3
130
2b0
1e1
360
131
0c3
000
ed1
0b2
2d3
df0
543
f10
141
1f3
1f1
1d3
ee1
1b2
263
f40
eb1
0c2
173
df0
ed2
de0
0c2
0d3
df0
122
ee3
f10
123
01f
e50
f43
d60
d83
e20
ec2
d60
de3
e90
f01
eb2
dd3
000
ee1
0d2
d83
2e0
251
ea3
f01
0b2
ef3
f30
f41
eb3
1a0
0b1
0f0
102
e43
ef1
d72
120
eb1
0e3
100
111
132
d93
100
131
ec1
eb2
f33
120
e01
162
ca3
e90
ef3
000
0b0
b83
f50
eb2
ba3
e20
eb1
ec3
ee0
f21
1a0
0d2
a93
230
ec3
f11
f42
ed0
e23
151
f13
1c3
01f
e73
f40
121
f32
f40
f21
130
ed3
2a0
eb1
f12
e93
000
c31
e51
1c2
ec3
f30
f21
1b3
150
f11
173
0d0
ea1
1b2
f23
dd0
f32
0c2
133
1c0
171
0e2
e83
e71
0b2
f10
e51
0b3
241
192
d03
e80
201
0d3
f10
cb1
d50
db1
ee2
000
ef2
eb3
e40
ea0
3c1
ef2
ef3
1e1
01f
290
f43
0e0
1a1
f43
e90
111
f32
1a3
01f
140
241
e13
ee0
141
e00
eb1
133
ec0
ee1
0b0
1a1
120
1a1
000
f50
132
153
1d2
111
1b0
e62
ed3
0c3
e01
0b2
01f
eb2
e40
e02
f33
d71
0b1
e82
ee3
0e0
f00
331
0d2
1c2
dd0
f31
ea3
01f
000
110
383
0d2
213
01f
e73
2f0
1f3
1c0
293
f10
233
d93
330
eb3
1a0
f12
173
163
ec0
d33
f43
ea0
1d3
e33
f20
ca3
000
162
132
e70
ea1
e60
e21
e70
161
0c2
1f1
0b2
f01
132
ee0
190
e20
ef1
142
0c0
140
f12
270
151
162
01f
000
f30
e31
ec0
f42
273
110
102
f03
f41
0d0
f42
1b0
191
e92
f03
0d0
e23
01f
0d1
f03
ef3
eb0
e32
e13
0b2
1b0
1f2
100
121
000
ed2
e63
0d0
f21
0c2
e73
220
221
0d2
180
141
0b3
f51
dc2
e03
df1
f42
ee3
200
280
0e3
0b0
db1
203
0e0
e81
0f3
191
ea3
1b0
133
e21
ec2
133
e31
352
103
f51
3a2
f13
202
000
100
e02
1a0
1e1
241
e92
f23
281
e82
f12
e10
181
e32
261
101
0c2
121
e12
0d1
ef0
0d1
122
231
ea2
df2
dc1
000
f11
e70
112
e20
1b1
e80
361
f43
ee1
ed0
e81
e22
f42
f40
241
f43
231
dd2
ee1
e52
ec1
f33
0e0
281
e52
f20
171
f32
e51
0e3
000
1c0
121
103
0e0
f51
ba3
e91
0b2
da3
e80
102
ea3
0f0
371
213
ea1
ef2
f41
1a2
162
ec3
df0
371
f43
f50
0e3
f33
ef1
1b2
e80
0c1
0b2
f40
0e2
e83
0f0
d21
0f2
f13
150
ed1
1f2
1e3
000
330
121
420
f31
450
e71
e72
e20
0e1
e93
120
2a1
1d0
ed1
223
220
ea1
ed2
e90
f53
de0
2b1
0b2
112
153
330
e51
f52
df0
e91
e30
0c2
0b2
d91
1a3
e90
e31
e42
123
000
0f0
ea2
d72
f40
ea2
f10
182
f42
f03
133
ee2
273
01f
ea3
e53
0c0
253
e93
0e2
e32
0d0
e72
0b3
ec2
ed3
000
131
192
112
e70
e60
0f1
130
e82
120
01f
f40
171
eb2
f12
01f
01f
2c0
170
f31
f30
0e2
e80
000
223
f41
e23
e73
171
243
193
f41
183
111
e13
0b1
e33
f51
ec3
163
0b1
01f
1b3
143
01f
000
e20
1f1
f13
0c3
f12
1c0
d72
163
01f
1d0
f21
0c2
01f
160
e02
1c0
142
153
172
0b3
1b2
f00
e82
150
0e1
123
0b1
0c0
dc0
000
de1
113
2c1
ee2
b71
ef1
131
f52
1b1
f52
f03
bc1
141
ed2
f32
ed1
3c1
231
ea3
000
171
0c0
e71
292
eb0
ea1
e10
e11
152
190
e52
d21
e80
e50
e11
172
ee1
f52
ed0
df1
0d2
f20
e91
ee0
e71
f00
e71
f30
201
e20
1d1
131
f52
000
e82
170
ec2
f40
f01
162
0d1
132
f13
121
e62
f03
0d0
f01
f52
e93
ed0
192
262
f20
251
01f
e90
ea1
f31
0d1
f53
da1
e41
f42
000
0f0
ee1
173
0d0
d41
293
250
01f
e01
193
ed1
103
0f1
de3
01f
01f
ee0
f11
f53
e51
e33
f40
111
e23
f51
ef3
0c0
b11
eb0
e31
0d3
000
ed0
f41
e63
ea0
0b2
f53
240
101
f33
180
de3
de0
e02
f53
eb0
1e0
180
ec2
ee3
d00
f31
f42
e40
190
d33
df2
e53
f30
e02
eb0
f43
132
dd3
dc0
e93
000
190
e12
ee3
1f3
303
e10
1b1
0e3
0d0
0f1
f22
e23
0c0
e93
313
f20
1c1
0f3
0c0
191
dc2
df3
250
0d1
e12
d23
200
e31
133
e40
0f1
163
262
170
f01
1b2
ec3
f31
e02
cb3
e60
111
d72
ef3
000
0e0
0c1
d62
df3
f10
241
e83
ec1
252
e41
162
0f3
121
d62
dc3
ea0
f41
e63
ea1
272
f11
302
ea2
ed3
f11
0f2
e51
163
f51
182
f30
f33
1d0
e41
f21
000
100
ee2
113
0b1
e92
1e3
160
0d2
0d3
1e0
e62
103
f42
143
ee2
273
160
e61
e82
223
250
ee2
1c3
101
ef0
0c1
0c3
0c0
f51
303
ec2
f53
ef0
ee2
ed3
f40
da2
513
0e0
f51
ef2
7f3
000
f02
120
01f
01f
f51
d92
01f
121
01f
eb1
eb2
0e2
121
162
01f
0d0
e21
0b0
111
01f
f10
0f1
000
130
ec1
0b3
ec1
01f
bd0
1d1
102
100
f51
f32
210
f52
110
d50
181
230
ed2
0e0
ea1
d40
151
420
110
e80
c80
0e1
f32
000
f30
f23
170
130
f42
ef3
152
143
01f
0b0
ee3
f32
f10
01f
352
f43
ea0
0b3
f03
f32
ea3
000
f20
0b3
de0
f21
113
f10
0c1
1a3
ec0
1d1
f00
183
d80
251
193
200
e03
e83
f50
0f1
273
ee1
203
e80
f31
f33
de0
0d1
f50
113
f00
1b3
ed0
ed1
1d3
eb0
000
190
e01
e53
e61
f03
f50
e61
223
f30
dd3
0e0
ef2
e83
f51
e82
ef3
f31
ee2
ec3
e10
f42
260
e42
e53
340
d52
ea3
f30
e73
01f
ea1
e62
ee3
01f
170
000
e51
f03
0e1
f42
f51
0b2
e73
f01
0c2
120
01f
01f
e61
0d2
f21
ec0
ca1
0d3
ef0
dc1
1c2
ed3
e81
122
142
0f1
0c3
ec1
ee2
0c3
000
140
0b1
102
df3
1e0
f31
0d2
c13
1a0
f01
e90
e91
e63
ec0
ef3
122
1b3
140
f51
283
e90
f41
102
133
e20
e33
1d3
160
f11
253
e73
ef1
dc3
ee1
113
0d1
f02
133
000
f41
f52
163
173
0d1
f33
f41
102
0c3
0d0
1a1
223
0c0
101
0f2
f01
f50
ef1
ed2
0e3
181
e93
da0
1f1
f02
e73
ec0
131
e93
0f1
eb2
d40
111
112
f53
df0
0b1
f03
0f0
f12
ed3
000
0b0
ec1
f53
190
160
0b3
f20
01f
0b0
0d2
eb1
ea3
d90
110
e11
ea2
f13
190
e61
f42
f40
101
f00
eb1
01f
163
f20
ef1
000
0e1
152
0f3
ef0
2a1
101
1f2
e93
01f
ef3
01f
1a0
e72
150
1b1
153
ea0
2f1
dc0
1c1
182
0f3
e40
132
ef0
f01
ef3
171
2d2
322
112
132
000
1e3
ec0
f52
1c3
100
0b3
0c3
01f
01f
122
113
e30
0e2
153
f10
f12
de0
123
ed0
0d2
1c3
113
dd0
0f2
e33
01f
000
110
171
0d2
281
e62
01f
e60
e21
eb2
f31
ec1
db2
e40
ed1
e72
e41
230
d21
2c0
dd1
f12
de1
e22
01f
130
e51
0e0
d91
0d0
01f
000
f03
e81
0b0
230
172
113
0c0
192
f43
140
0c1
132
190
1c1
151
102
ee1
f21
ee3
110
e91
0e3
f12
f51
113
141
000
cd0
f31
f22
e33
c70
ee2
e23
ec0
f51
f43
0d0
f22
e80
0d1
ee0
0c1
253
f20
141
212
df3
0b1
f13
243
f10
de1
f20
e11
ed2
f03
0b0
e62
f40
ef2
e81
e92
f42
ea0
000
cd1
f52
f00
a41
d91
231
ef2
f21
f30
f01
e92
0c1
eb2
f43
181
f10
f11
ee1
ed0
01f
131
01f
e51
000
0c0
eb1
ef1
e91
e32
113
e90
ec2
201
141
f52
f50
dc1
f30
f12
f23
110
2e1
f52
0c0
101
f42
ec1
f51
ec2
f03
f50
142
f50
01f
ed3
000
1a0
142
393
270
2c3
ee0
1e1
e10
161
f02
f33
ea0
151
ed3
e80
e92
ec0
e82
213
f30
e51
f02
e83
d70
242
cf3
df0
153
d90
d72
103
ef3
ed0
f51
f52
e30
f02
ef3
0b0
0e3
e42
f13
000
f30
0e1
112
f01
f02
133
0d0
ee2
140
f22
df3
01f
f20
0f0
3c0
d21
ef2
f33
01f
0e0
e51
e03
280
f51
f43
0e1
0d3
eb1
e73
100
dc3
e43
f53
000
0c0
ec2
ed0
eb2
183
f40
153
f50
0e2
f53
f50
172
ec3
f40
122
f53
01f
de2
e52
123
153
123
f20
0f2
0e3
f00
0b2
ec3
000
1c0
f31
152
2a0
f01
0f2
f43
160
0e1
e32
da0
1f1
ec2
e82
271
e12
0f1
f22
1a0
1c0
151
390
f41
2f0
e02
01f
290
f01
0b2
1d0
ea2
f00
01f
000
3f3
3e3
f41
123
01f
121
0f3
0f1
e81
ec3
01f
0e1
e33
f11
f13
f21
213
183
253
01f
01f
f11
ee3
000
181
f32
100
0e2
2a0
132
ef3
0f0
de2
0b0
f01
152
ed1
01f
d40
0b1
f33
122
123
e50
242
da0
162
f13
01f
0c1
e62
ed2
0d0
f42
120
0c3
000
f41
ed1
ee2
f51
0c1
0b3
141
f12
ee1
0b1
121
113
f01
173
121
0f3
0e1
0d3
0d1
101
01f
0f3
000
ed0
0d1
e72
dc2
f20
f52
ee0
ea1
0b0
eb2
ef2
1d1
182
100
ea2
cd1
f02
01f
01f
01f
f50
0d2
f40
1a1
162
0f0
f51
ef2
000
dc2
0b3
eb2
141
0d1
0b2
f52
01f
113
df1
103
ec1
0f3
ed3
132
ea3
170
f51
120
f43
121
140
f22
000
dc0
141
f23
cc0
f13
d90
e91
f43
1a1
1b0
311
0b3
2c0
1b1
133
f53
160
ed3
df1
ee3
eb0
f01
121
f00
161
f10
191
000
e70
f11
ee2
ef3
e81
de3
e83
0c0
ed1
f32
e70
1b1
113
f02
f52
153
f31
142
f50
0e2
0d0
f51
f22
f42
0b0
111
0e0
0d1
f10
f42
000
ee0
0e1
e50
f51
102
f30
172
f30
0f1
f42
1f3
1b2
eb3
df3
e92
203
0f0
e41
103
ed0
172
133
140
312
113
180
162
dd3
01f
f20
272
273
110
212
133
f30
0e3
ef2
000
0b0
df2
e82
f33
ec1
0e0
ee2
f22
ec1
193
100
e21
de0
1d1
ee3
f50
161
143
ec0
ea1
102
e93
130
0e1
ed2
ef3
f01
f03
f20
121
e52
000
f01
e50
ef2
0f3
170
ef3
f23
140
0e2
0d2
f13
f00
dd3
100
e72
f20
df3
132
dd3
f12
f13
01f
e33
d63
132
eb3
000
01f
01f
01f
ed2
01f
01f
131
1b2
0d0
0d0
f31
ed2
150
162
100
f01
ea1
f02
0f0
ee1
ea1
0b2
ec1
01f
000
1a0
f51
f21
211
120
1b1
190
2a1
f40
f01
181
4a0
2e1
320
f41
01f
200
0d0
0f1
f00
ea0
eb1
0c0
f51
000
eb0
eb3
e70
0f2
de3
f10
122
eb3
212
e33
01f
01f
f31
f41
0d3
2e2
f53
f11
122
153
0f2
0e3
0d2
0d0
342
163
ea2
233
e12
000
1a0
f31
1b0
e81
1c0
f13
190
f41
e73
110
0e3
01f
130
f01
01f
ef1
0e3
1b0
f31
0b1
1d3
d30
f41
c00
223
dd0
0b1
1c3
ce0
2e3
000
f51
1b2
f13
0c2
0c3
f20
153
2a3
d40
181
ed2
181
df2
01f
01f
f20
121
f32
ea0
01f
f20
330
0c0
f41
f30
ea1
ef3
0e0
e01
000
ee0
272
f11
1f2
113
ef1
1a2
ee1
232
01f
e60
ed1
0f3
f21
153
f20
dc1
1a2
f43
0f1
102
eb3
ef0
ec0
ef1
0e3
251
f12
0d3
f50
1d1
ea2
f03
e62
e03
df2
000
172
0c0
183
01f
f00
f13
d40
e00
ee1
243
ed0
0b2
213
f31
133
0f0
f41
f32
ed3
0c1
f13
141
e11
e72
0c3
ee0
ee2
e03
e30
eb2
cd3
141
ea2
f23
000
120
161
112
333
101
153
e81
0f0
de1
ed0
171
f12
ec0
ec2
e12
0b3
121
e62
0c3
ed0
101
01f
f31
103
171
113
f31
f32
e13
e22
e43
0d0
e42
ef3
151
ca2
e73
000
171
0b2
f53
140
160
0c3
eb2
0b3
d60
0e1
f32
e30
f13
ed0
da1
d63
f10
ee1
d43
01f
01f
0d2
ed3
150
211
281
ec3
d60
1c1
0b2
df3
0f2
cf3
000
f01
e12
d91
e02
db1
e22
ee0
ef2
01f
ed1
e22
01f
f31
132
1e1
2f2
ee0
f31
1f2
f23
d21
e91
0d3
0f0
ec1
0b3
112
100
202
0b3
000
01f
f40
0c3
183
1a0
192
213
e30
f00
eb2
113
e00
223
0e2
2b3
dd0
0e2
150
f53
0c0
0c0
ef3
f40
0e2
01f
f30
f53
000
f00
0c1
262
0f1
1d2
ed0
102
e70
1d0
d61
eb2
db1
f02
0c0
e91
0c0
f11
f32
01f
f50
140
0e2
e10
f21
ea2
f02
01f
230
f01
000
191
0e2
0f0
181
0e2
0f3
2a0
0f2
0c3
130
ed0
e53
0c1
e93
e70
111
193
01f
e40
f43
f00
112
123
dd0
0f3
e22
e42
e83
01f
000
e50
1c1
f53
d40
102
f31
1b2
e61
152
100
0c2
1c3
103
0e2
f11
f43
f40
e33
ef0
f51
de0
0b2
1a3
dc0
122
1c3
df0
241
bc2
ed3
de0
251
b72
ee3
ef0
191
dc2
ef3
e70
191
e22
000
d91
0c0
c01
130
ec1
110
e92
1b1
0c2
f50
131
f50
0d1
01f
162
01f
01f
0e0
0e1
0d2
ee0
e41
eb0
e71
f22
ec1
f52
e11
000
e61
0b2
d61
e81
ee2
f11
401
f42
f40
2f1
ea0
291
f30
f01
01f
0b1
142
0b0
0e1
112
df0
dd1
132
ef3
ec0
f21
152
ea3
e51
0d2
e93
180
f21
212
f13
000
111
202
f50
f51
1e2
0b3
ed1
0d2
e23
ec0
ee1
292
ca3
e70
f21
182
e23
ea0
f41
202
cf3
f50
0d1
212
e43
f20
e91
101
e63
e13
ee1
f53
0f1
d82
0c3
0e0
0f1
e83
f21
ef2
000
e90
211
eb3
e10
f32
350
f02
f52
e53
0d0
ea1
f02
ef3
db1
1d0
da1
130
e91
1f1
113
171
0d2
f13
0b0
eb3
1d0
f43
0f3
0e2
0e3
000
e73
0b2
01f
e82
f13
ed0
ef2
123
f02
1c3
f52
f10
f40
f02
ef3
f52
0e0
e82
e13
ef0
242
133
01f
f52
e13
140
0b2
e83
000
e40
111
e62
e70
111
e02
e60
101
f32
df0
141
f42
1c0
190
111
0d0
de0
151
330
f02
0c1
f12
df0
121
f52
db0
01f
0f0
132
f11
0e2
180
dc1
152
000
01f
01f
0b3
f33
101
ee3
01f
01f
f51
01f
01f
01f
01f
01f
01f
f11
eb3
e51
000
e62
f20
eb1
e42
f13
e20
f21
e92
d40
0c2
ed3
113
e30
262
133
d50
0e2
133
db0
222
01f
f50
e50
ed0
0f2
dc2
ef2
170
0b2
0e0
102
000
0c1
f13
01f
0b1
0e3
01f
01f
01f
0b1
0b2
191
0d2
ee3
01f
191
01f
121
f32
2d1
f42
123
221
0c3
000
01f
0f2
221
1b2
0c0
0e1
212
ef1
0c1
f32
0b0
0b1
dd2
100
d32
ec0
ed1
01f
eb1
140
ea2
ee1
cc1
d92
d61
d22
ce1
be2
000
f50
f20
ef0
f41
f00
102
0d2
f20
ed1
f13
eb0
d91
e01
f52
f13
110
0d1
e83
e02
e73
f21
ec2
0c1
eb2
f03
0e1
e32
0d0
f02
100
ed2
f03
000
01f
df0
0b3
eb1
193
300
e31
213
eb1
0e3
0e0
0b3
0b1
1d0
f13
0b0
e81
ec3
01f
01f
eb0
111
e50
121
f20
e70
000
1f3
0e2
293
0d1
122
2c3
201
2e3
0f0
163
01f
01f
f00
ee3
0e0
171
102
ef0
0f2
0b3
f20
df1
1d3
220
f53
220
e32
ef3
140
eb1
ca2
e73
f41
d52
f33
000
100
de3
f42
f22
1d0
f01
0d2
253
ed0
212
163
1b0
f31
f43
ed1
0b2
1c0
ed1
f23
dc0
1c2
2f3
f30
0c2
f00
0b1
dc3
e92
113
f02
da2
e33
ec3
000
ef2
0d3
ec0
e52
01f
e80
f13
01f
0c3
eb0
0f1
f32
183
f30
121
e72
103
e40
f51
f32
0e3
e90
f11
f12
0e3
f30
121
cf2
191
d72
ee2
183
dd2
1e0
eb2
f33
150
e72
f23
000
0e0
3a3
253
193
f51
ea3
e82
f53
181
0b2
f33
f50
0c2
f30
173
01f
120
0f1
ee2
0d3
190
0c1
183
0b0
252
df3
0b0
f51
122
ed3
01f
f30
e33
000
1b1
141
141
0f1
0b0
0b1
0e1
0d2
0d0
0f1
161
eb2
01f
01f
01f
01f
262
1e2
01f
142
000
0c0
f53
0b1
01f
230
ed0
e71
f40
e11
eb0
f51
0c3
01f
0c3
f50
f11
260
f31
400
0b2
240
f21
000
120
eb2
f33
ec3
142
0e0
f03
100
f22
0c0
0c0
133
152
01f
f10
ec2
f23
f30
e42
123
eb0
e22
dd0
f02
0b3
e20
f12
e30
e52
243
000
01f
01f
eb1
123
0e3
01f
01f
01f
133
01f
01f
f10
01f
01f
01f
f30
f43
0e1
000
01f
01f
e70
ec1
142
ee3
01f
ee0
01f
0b0
0b2
103
0d0
01f
01f
0d0
173
133
01f
01f
f10
f53
f50
f41
193
000
01f
01f
210
1b1
0b3
110
0c0
01f
f40
111
f42
0e1
01f
01f
f50
e52
0b3
e90
ed2
133
103
0e3
193
e90
e11
f12
000
01f
01f
ee2
01f
01f
01f
ef2
01f
01f
01f
f30
f41
01f
01f
ee0
f42
000
01f
01f
f20
121
0b0
141
01f
01f
ec3
e70
01f
0b3
f22
e83
e70
f32
0c1
121
0f1
e10
111
f32
000
01f
01f
01f
f01
173
01f
01f
1b2
1b2
01f
01f
0c1
180
01f
01f
f40
e71
000
01f
01f
f20
192
f33
01f
01f
100
113
01f
01f
120
0f0
1d3
0d3
01f
0b0
f22
182
f53
000
01f
01f
e03
ed3
01f
01f
01f
01f
01f
01f
f50
f42
f40
01f
f30
01f
000
01f
01f
130
1c2
110
0d1
0c2
01f
01f
01f
f31
122
01f
0d2
01f
0b0
01f
0d0
101
01f
1f0
000
01f
01f
f42
0b2
f51
01f
01f
01f
01f
01f
110
0f3
140
1a1
1a3
01f
f21
ee2
f53
100
1b3
000
01f
01f
180
eb1
0d3
01f
01f
0e1
f33
0f1
01f
161
f52
0c2
e33
01f
e92
e92
103
f20
f01
000
01f
01f
0b0
0c1
192
0b2
01f
01f
0c2
0f0
01f
01f
01f
01f
0e2
102
0f2
01f
000
01f
0b1
01f
150
01f
01f
01f
f11
0b2
f43
01f
01f
01f
0b0
0d0
0d1
01f
141
ef2
0d0
ec2
0c3
000
01f
01f
1b2
0c1
0c2
01f
0e0
101
142
01f
01f
01f
141
0c2
01f
0c0
0b2
ef3
0b0
171
0d2
000
f11
01f
e20
183
ef0
1b2
0e3
01f
01f
0b0
01f
f42
01f
eb3
d91
f43
f51
f50
0b3
f53
ea1
0e2
ea3
000
01f
01f
01f
0d0
f43
01f
01f
01f
eb3
01f
01f
ef3
f03
01f
01f
01f
f53
000
01f
01f
f51
f31
01f
01f
f00
0f1
0e2
ed0
01f
01f
01f
e90
ed2
f51
01f
121
000
01f
01f
ef1
01f
01f
01f
ef3
f03
01f
01f
01f
01f
01f
01f
01f
f41
000
01f
01f
01f
f42
0b2
01f
01f
eb3
01f
01f
0b0
121
f42
01f
01f
f02
121
0b3
000
01f
01f
1c1
01f
0b1
01f
01f
131
f53
0c1
01f
01f
01f
01f
01f
01f
01f
000
01f
01f
140
181
01f
01f
170
130
01f
01f
0c0
1e1
f42
01f
e51
1a0
0b1
f52
000
01f
01f
01f
ee2
01f
01f
0c1
101
f13
01f
01f
01f
0b1
01f
0f2
0d2
0f0
0b3
000
01f
01f
de0
f43
ee1
f51
01f
0b3
f00
101
0c3
01f
01f
113
153
01f
01f
f43
ee1
0c3
000
01f
01f
2c0
f51
f00
0f3
01f
01f
0f3
142
1d3
01f
01f
0e1
113
102
253
f52
f31
f52
0b0
ef2
123
ea0
0e3
000
01f
01f
01f
e93
ee1
01f
0b0
f42
0c3
01f
01f
eb2
f42
133
0b2
0d2
01f
01f
000
01f
01f
f40
432
0e3
01f
01f
01f
01f
ec0
0f2
01f
01f
01f
f00
01f
01f
f40
f41
0c2
e72
000
01f
01f
f40
f52
01f
f42
01f
0d1
0c2
01f
01f
f53
f32
01f
f23
ec3
171
e12
000
01f
01f
01f
01f
01f
01f
f22
111
0e2
01f
01f
0e1
211
01f
ec1
01f
0b0
0f1
f02
000
01f
01f
0b0
ea1
f43
1b0
e62
0d2
01f
01f
0d2
01f
01f
f30
ed0
0b2
01f
110
f41
01f
f42
000
01f
01f
110
1b3
0e0
f42
0d3
01f
01f
f52
01f
01f
01f
ea2
f40
f43
01f
f50
0b0
180
000
340
0e1
dc3
190
101
ee3
f40
171
173
eb1
210
f23
f50
f11
ee0
eb0
0b1
f23
01f
f01
113
e20
e41
193
f20
cc1
ef0
151
0b3
c90
f23
e10
e21
ee3
000
e40
1c1
112
1b3
0d1
0f2
193
be3
240
dd1
9a3
ea0
1b1
223
e90
251
0f3
0c1
102
1e0
213
1a1
1a2
333
161
1f2
3e3
181
443
260
103
140
0e1
0c2
100
102
2f3
390
163
420
e92
000
f30
2b1
1b2
f40
0c3
220
0e2
f13
150
e81
e03
01f
0e0
0c2
1c1
213
01f
f50
151
100
0d2
f33
0b0
111
1a3
190
161
192
183
e60
e62
f10
f12
e80
0c1
1e2
000
d00
e61
ee2
f23
f22
243
0e0
191
0f3
390
e90
e82
0e3
ec0
0c0
0c1
0e0
f12
233
ea0
f52
2d3
e00
c00
0f2
0c3
1f2
163
ee0
101
153
ec0
0c1
f22
e33
ee0
203
e70
212
123
000
e61
112
ec3
f30
121
0d0
0b2
130
f51
e33
ef3
0c0
111
0b1
0d2
160
142
e13
100
ee1
130
153
1a1
132
183
332
1e3
150
ef2
f11
ed2
ef3
f50
f00
121
1c2
163
000
c10
321
f40
e81
153
f50
e61
1b3
150
ef1
f02
0e3
e30
ec0
f51
f41
0b3
f41
0f2
0c1
0e2
f33
d10
eb1
102
e23
d80
0e2
de3
0d0
f42
120
eb0
1f0
f41
0e2
d03
0d0
f22
ec3
000
0b0
ce2
f43
ed1
e90
252
e40
0f1
e93
140
ee3
0b0
f40
f02
0f0
e12
f43
290
ef1
eb3
1e0
f21
1d2
f03
1e0
ef1
0b2
173
1a1
e72
113
ee0
ec3
140
df1
0b2
100
142
f33
0c0
211
f52
173
000
0e0
e23
e50
ec3
170
e62
e83
200
e23
112
0e2
123
200
150
0c2
e43
180
162
120
3f3
f22
513
0d0
1a2
ee3
e40
1b3
ef0
f22
373
000
de0
e11
160
e81
1c2
280
211
232
0d0
201
0c2
ea1
1f0
e41
f42
1b0
271
0d2
f10
e60
121
1b0
1f2
160
de1
ed2
e70
f42
131
0c0
101
e42
f10
da1
c72
000
01f
130
1a2
123
150
ef1
142
f20
da2
d53
0b1
eb2
e70
f11
eb2
0e0
183
ee0
eb2
130
151
173
e50
112
113
d00
f41
f52
230
160
133
110
161
ec0
0b1
000
3d0
2d1
212
253
100
0e2
2b0
da1
1c3
1b0
ca1
0c2
1b0
0b2
173
f02
253
eb2
0f1
f32
f53
271
ec2
db0
0b1
e62
0d3
f30
181
dc2
1c3
e00
c52
ec3
1f3
1b1
f02
f13
101
ce2
ed3
151
ca2
000
1b0
521
f13
0c0
301
f43
271
de1
0c2
0e3
181
112
142
f41
0e2
0d0
f12
f23
120
da1
142
0e1
252
0b0
dc1
f43
01f
ef1
f42
ea0
ea0
101
102
f43
000
e30
331
0e0
2d1
ee2
1a0
131
e62
e21
e12
103
f20
151
231
f02
140
e31
0d0
eb1
f00
102
eb3
160
261
e53
1b2
0c1
f02
f03
d11
122
f53
1a0
ec2
ed3
182
e83
000
b93
112
d93
0b0
0d0
0f1
483
f01
f52
e53
212
d03
190
141
113
f30
140
e62
170
f21
182
d23
132
ad3
e90
143
0d0
ef2
1c0
0d0
d32
d62
103
000
120
e42
f33
e30
141
0c2
e43
db0
302
1d3
d60
0f1
112
113
120
f42
e73
dc0
0e2
163
1a0
ea1
173
0e0
100
0c1
102
230
1a0
e41
f32
0c3
f20
180
0c0
f11
220
e91
f22
000
ef0
cf3
0b0
ee3
142
263
0d2
103
01f
f53
0f0
242
f13
f50
242
1d3
122
f33
eb3
ed3
0f2
e53
222
0c3
ef0
000
bc0
bc0
ec0
450
ec1
e92
f43
f01
172
ec0
f51
0b2
01f
d20
1b1
f00
f41
0b2
f31
112
e30
f22
e40
ec0
ed0
0e1
142
1b0
1c0
f01
000
0f1
c33
0e1
e43
113
ed1
183
ee3
01f
01f
01f
f53
f33
141
e83
e03
01f
01f
1f3
01f
000
ec0
e92
cf0
f21
d12
153
eb2
1c0
372
ec2
01f
de0
f43
c80
142
cf2
f00
d40
262
f03
bc0
232
f13
0e0
ec2
190
ed3
0b1
e30
101
f53
000
0f2
01f
01f
d21
f02
f21
f43
e61
f13
de1
f21
f41
0d2
e91
f32
d31
f42
f43
01f
01f
d21
cf1
eb2
000
0d0
172
140
0e1
271
e00
491
182
0b1
152
e31
100
f32
f30
f51
e80
f11
d01
190
bc1
ab1
01f
01f
d81
da2
c21
ea2
000
eb0
152
f10
121
ee2
f23
01f
102
0c3
0b2
f12
f00
d52
e70
e81
f52
01f
0f0
e82
ef1
ee2
ed0
e32
f33
0e0
131
f22
f10
103
000
390
e81
213
0f0
1e3
e31
221
d43
100
1b3
0c0
ef1
f03
ea0
f31
e33
100
01f
de1
0c3
260
0b1
0c3
761
01f
ee0
d91
133
e61
0b1
000
210
141
ea2
f20
181
293
e70
eb1
f20
e21
d53
1b1
f10
151
ea2
e00
1a3
ef0
141
f43
1a0
181
f32
e60
151
ee2
f40
f32
0d3
ec0
0d2
0e3
ed1
0b2
ee2
f13
01f
01f
000
e52
ea0
1b3
151
2c2
aa3
160
bf3
253
0c2
f02
f13
270
f02
d90
363
110
142
f13
0d0
f21
222
1e3
f21
122
263
ed0
e42
de3
f01
df2
0c2
f13
dc0
e81
262
1b3
000
1e2
f43
f51
f32
1c0
e51
212
eb3
d51
122
0c2
ed0
f51
ec2
f40
01f
f21
123
ec1
e62
cd0
181
f33
d10
0d1
ed2
120
1a0
ee3
e91
f42
ee0
0d1
000
0c0
163
0b0
100
f21
ec2
f40
f41
112
123
e42
f10
ec2
f13
01f
0e1
122
f41
e20
ee2
e50
d43
e30
171
212
d13
0e2
ef0
f53
f10
102
e53
dc0
1f2
d83
000
1a0
f51
ee2
0e0
f41
e82
e71
e32
e71
0c2
0d0
01f
e52
ec1
0f2
01f
01f
01f
0d2
ea0
01f
0b0
111
000
e80
0e1
f33
340
171
e02
1d0
d41
e92
ec0
ee1
f42
140
300
f12
e71
e92
bf0
151
0d0
01f
e60
d71
f10
01f
0b1
113
ed0
ef1
000
230
0d2
210
103
130
3b3
01f
01f
01f
01f
160
f32
293
ef2
ee3
f13
ef0
1a2
103
ec2
eb3
e70
d92
f30
232
000
350
f01
1b3
3b0
d41
f00
ef1
113
ee1
f10
e51
1a3
e81
1d3
f10
f11
193
1d0
ed1
e33
0b1
113
f10
181
e10
0c1
e43
e70
e31
0e0
0d1
e10
f41
f43
183
000
e90
eb1
f52
dc3
f00
152
0f3
0f0
183
110
2f3
f21
db3
0e1
263
f20
0c1
153
e80
0b1
2a3
130
121
f52
190
133
3b0
1e3
170
f51
f43
0e0
ef0
e81
e02
df3
eb0
e81
e63
000
0b0
e91
382
f33
100
231
262
153
f00
0b1
e32
0d3
f31
f23
ef3
f20
173
113
01f
d90
e92
f33
eb0
f32
f40
0e2
f30
ea1
e12
1a3
d90
f11
c92
103
ed0
f10
000
130
102
143
100
ed1
0c0
e22
0c3
190
f02
ef3
102
e90
ef1
f11
113
0e0
ea0
193
dc2
173
ee0
f52
1b3
dd0
0f2
1a0
ec2
0f1
e72
ea2
df0
151
ee2
0c3
000
e50
e62
183
0d3
141
da3
df3
131
eb2
1e3
181
0c3
0d1
0e3
f21
1b2
163
100
121
ee2
1b0
c62
d63
0b0
f41
ed3
161
0d3
0c0
0f1
e42
e13
1d0
1f1
db2
d03
f32
ed3
120
1a1
d42
ef3
000
e51
0b1
f50
f01
f31
e40
0e2
f33
f01
132
ed3
0c0
f53
f30
192
f23
0d0
112
e73
f52
e23
160
0f0
ec2
183
0d3
d60
f13
000
df1
0b2
e31
ee2
de1
01f
0d2
f03
1c0
f01
122
f11
122
01f
0c0
0c1
0f2
2f0
d81
112
220
0d3
0c0
0d1
1b2
1b3
e00
1e1
e32
eb0
df2
eb1
f12
e93
172
000
ea0
f32
f20
0b0
210
d53
ee0
0d0
ef2
243
120
f02
263
d10
ef3
f20
c83
173
d70
f52
3b3
d83
150
e63
ef0
ed0
132
eb3
000
260
f31
2a2
0d0
f31
162
1e0
121
0e2
110
0d1
170
ea2
0b0
0f1
f50
e71
ee2
f00
181
e42
ec0
f41
df2
110
ce1
f12
f52
0e1
ee2
f11
0c2
280
1c2
000
e30
e33
e30
e52
0c0
e42
133
0f1
e23
eb0
163
0c3
0b0
f51
0c3
f40
0b2
1e0
191
273
190
171
193
01f
100
e82
110
e91
dc2
0c3
1a0
f32
0e0
000
d40
e21
252
1f3
e90
0d1
192
0f3
0e0
eb2
f11
e43
ce0
ea3
e60
191
113
e70
ef3
ea0
182
e33
f30
181
133
391
f53
1a1
ed2
ea3
f40
db2
e93
1c0
182
0d3
01f
132
d73
0c2
000
0d0
e01
1c0
dd1
0f2
ef1
0c2
120
e21
c51
f00
df1
212
0c2
140
f21
131
0e2
f30
0f1
f52
f42
0e1
182
f40
102
01f
01f
000
eb2
f30
1f0
e21
0d0
cf1
f23
0b2
f13
ee1
f30
e61
0d3
2f1
122
e51
192
f31
f23
0d0
101
0e2
0f3
130
0c2
e51
ef2
110
f02
f13
000
eb1
352
ec3
292
0e0
0f3
0b2
0c3
0e0
0b2
dc3
101
f43
ee0
0b2
ef3
f11
cc3
1a0
e02
183
cc2
ed0
e61
eb3
0f1
123
271
e42
2b3
ed0
0b1
132
d83
000
dd1
f13
f50
e92
ec3
220
f21
f22
133
370
e41
123
e10
ee2
f43
f53
260
dc1
e62
ef3
161
0d0
ed3
130
ee3
db0
0f3
1e1
132
180
192
f03
000
0e0
ec2
ef3
f10
f22
f33
0d0
f52
f13
f20
f50
e72
e93
122
e43
f20
272
eb3
f30
1a2
01f
d72
ec3
f42
1a3
0c2
000
f21
0e0
e51
152
f30
241
ed0
ee1
192
ed0
f42
d40
1b1
ed2
ea0
ef0
1a2
180
0b2
1a0
ea1
ed0
f42
e52
eb1
000
f11
f51
eb3
e31
e41
01f
133
01f
f01
db3
161
01f
1c3
01f
01f
f51
f01
f21
e93
000
f00
2f2
01f
e80
f51
142
e83
dc0
f51
332
f33
ec0
0d2
0f1
ea3
102
ed3
d40
f51
1a2
f53
e62
0e3
d12
f30
0d1
e72
e40
ef2
ed2
ef1
f31
01f
000
141
161
01f
f11
0b1
e43
111
f43
de1
f03
ef3
01f
01f
ea1
113
141
0d3
0c1
01f
291
2b1
0d2
000
eb0
291
201
1b2
151
131
eb0
111
de2
120
e02
f11
e42
e21
ee1
e52
e31
e52
0d0
cf1
e42
140
0c1
130
0e1
1d1
2a0
0f1
e32
000
f41
df2
ee3
f40
ea2
f43
f01
ef3
ef0
e41
0d2
d72
e32
e73
e52
f41
ec2
f32
0b0
f53
01f
01f
01f
191
162
f13
000
e61
e00
ef1
ef0
ea1
150
ef1
1e3
ef0
ec3
ea0
d01
f43
eb0
101
0b3
0e0
291
193
113
0c1
0c1
140
01f
c61
0e3
000
e90
162
152
133
0c1
173
0e1
f40
f11
e13
01f
f50
0e3
ed0
131
0e2
183
01f
0b1
0f3
f12
353
f01
0e2
133
343
111
213
111
f02
203
000
190
f11
132
df3
e90
f53
0f0
f41
2e0
f51
ef3
f10
ea3
f21
ef1
f52
2d3
eb0
e11
0e2
113
e20
de2
103
ef0
f22
e50
f01
252
213
df0
0d1
dc2
e12
ec3
0c0
ef1
e72
e73
0b0
ef1
0c2
e13
000
ea0
e81
d72
1b3
e20
e12
183
100
172
f40
0c2
ea3
0c0
e51
d12
0c1
f12
ea0
0c1
e82
e70
f52
0c3
e82
0c3
250
ee2
0c0
f52
f23
f22
f53
153
120
1b0
dc1
0d3
160
f41
123
000
f31
ed2
233
f30
e60
0d1
f13
131
f13
f01
f20
f03
ea0
0f1
f53
ed0
1c1
eb0
0e2
ee3
0d2
182
dc3
ea0
0e2
ce3
100
273
100
152
d23
d73
f10
e71
ed2
e03
000
141
142
1a1
112
0d2
ec1
ea0
0c1
101
0f2
0e1
f41
01f
01f
0e1
0c2
f40
f51
f32
0f0
102
100
000
130
0b0
0f0
dd1
d51
eb2
f10
ee1
01f
ec1
ea0
e91
01f
e30
1a0
0e3
1d0
f00
270
eb1
280
ea1
340
000
e02
f13
e12
c93
f30
e52
f51
f52
173
d52
e82
ed0
f03
ef3
01f
f10
d02
e30
ed3
f10
1e2
120
ed2
ef2
ef0
1b3
1c3
000
f10
181
0c0
121
0c0
e83
1d0
f21
eb0
131
0d3
1c0
dd1
ed3
0d0
f21
f51
0c3
f11
223
0b0
0b3
e11
183
e50
f51
183
0b0
f01
2b0
e81
e23
121
e43
000
e60
193
ed0
e72
1d3
f41
ef2
103
180
f02
f13
e20
0d1
f51
0c3
0e0
120
e62
c83
cd0
d03
f30
e41
0b2
f23
f52
dc3
f40
f21
ec3
0c0
0b2
0d3
122
1e3
01f
000
f31
e42
f43
ee3
ec0
141
f41
e22
120
1e2
f40
f31
0c2
ee0
180
dd1
ef3
162
f11
f53
f32
ea2
f31
163
0b3
ef3
000
110
d63
0c0
f12
e63
ea0
e20
f01
1f3
e62
f03
103
f41
1b3
e42
e03
01f
1a1
0c0
eb3
140
e81
ea2
ee2
f42
f33
ec1
f32
000
0c2
133
ea0
122
df3
0e2
f53
0c3
101
cd3
142
f41
f22
0b3
d20
261
0f2
f13
eb0
0d3
0e3
0b1
f40
e72
ef3
e11
e81
0d2
f31
e93
000
1c0
e62
1a3
0d1
e42
1b3
e30
f31
f22
103
e90
111
f32
113
eb2
0b0
ee1
0c0
111
132
ec0
e31
0d0
110
ec1
0d3
0e0
0e3
0b0
ed1
172
f11
0c2
0e0
111
0b0
0e2
0e3
000
f01
ee3
e41
e32
143
ee3
0c2
d81
0e2
0f2
ea0
1d1
342
0b2
132
241
120
182
e83
0e0
f12
f33
000
3d0
113
330
2d0
1c2
170
122
133
1f0
ed2
eb3
160
0b0
103
ea0
f40
01f
01f
de0
133
ea3
e20
f42
f53
ef0
0f3
250
0b2
000
ee0
eb2
f30
121
ec2
ed0
ed1
ea2
eb0
f11
eb2
100
d71
152
102
01f
250
e81
232
ef1
192
190
0d1
102
0e1
f22
110
01f
f21
102
ef0
000
1f0
e71
132
f23
1f0
ec1
f12
141
f22
e50
181
0b3
140
ea1
f42
ed3
ea0
e92
ee3
f10
f22
161
f42
f10
f01
e32
e33
01f
01f
120
ee2
f43
110
0f1
ef2
0d3
f20
0e1
173
130
1b3
01f
000
0b3
230
250
f11
ef2
e23
0f1
140
1e3
ee3
e71
ed3
0d3
dc1
213
e71
103
e71
0b0
f32
162
152
180
141
192
d03
110
142
000
01f
0f0
0d1
f32
241
ef2
181
df2
f43
111
ee2
01f
f40
0b1
0d0
171
e81
01f
01f
01f
180
ec2
231
ed2
000
ec2
e51
ed2
163
ec3
e00
131
112
f03
0c3
f41
f13
f42
f53
1c1
ee2
f30
1b1
ee2
ed1
e72
140
f11
0b3
ea0
f11
f42
0b3
f20
e51
0f3
01f
000
1e1
100
171
103
f50
211
f02
e63
ed0
f21
df3
f30
0f1
0b2
ef0
131
f13
01f
eb1
143
eb0
1d2
d63
f30
e43
0c2
0d0
ec2
253
f52
173
f50
ee1
f50
f01
102
ed3
181
0d3
000
0e0
131
0b3
280
f12
193
540
f31
f22
410
de1
eb2
e80
121
102
0d3
210
01f
f01
eb0
0d2
210
f41
e43
ee0
0d1
162
110
e81
ef3
e53
01f
130
0c3
000
f12
f22
f32
f03
ce3
0b2
01f
01f
0b2
ee3
e82
f52
0f0
0c2
ec3
f42
0b3
eb0
0c2
0e3
f20
e62
f30
172
143
000
ed0
291
ef2
ef0
231
da0
1e1
dd0
191
150
151
f02
121
ed2
f51
1e0
ea1
ed2
f00
0e1
ec2
140
e91
f50
01f
eb1
0d0
0c1
000
111
0d3
f43
f31
db3
dc3
01f
f21
dc3
f33
0b3
f21
ec3
f41
203
eb1
f01
e81
01f
000
260
ec1
122
260
f41
192
f23
ef0
262
f33
e60
172
1b0
212
f21
f23
110
ef2
01f
e20
132
1e0
f41
f33
230
f53
f51
ee2
f41
dd2
1b0
000
f51
161
0b2
01f
351
f53
01f
0b1
f13
f52
ec3
261
f42
ee3
171
f43
f21
f11
f22
1a1
f21
161
01f
000
f41
f10
1c1
2c2
0e0
0e2
130
ef1
102
1d2
f51
01f
ea0
161
172
ef1
01f
f50
181
381
0c0
261
160
171
1b2
181
000
181
ed3
0e1
212
1e2
f53
f40
ea1
f13
101
0d2
132
172
e13
0d2
0e0
f23
0d0
0c1
0d2
eb3
0e2
e71
f10
f40
142
f50
121
000
de1
140
d51
300
440
0f3
f30
e41
ee3
01f
ee0
261
e60
f23
0f0
e30
0f1
f53
0d1
121
153
d80
ee1
1d3
1a0
e71
000
ef0
1a0
210
111
0c0
101
e73
f12
120
0f2
e83
f03
f21
f23
f43
01f
eb1
120
01f
0b2
130
132
113
132
000
140
0c1
df3
350
ee2
d33
2f0
ec2
f33
2b0
e91
db3
170
121
f02
310
f21
0e2
f13
de3
0f0
222
190
113
f03
e91
f30
f11
e72
0d3
e90
f11
d82
1b3
e50
ec1
f42
01f
000
eb1
ea3
ec1
332
e93
262
0e1
0f2
0f3
122
eb3
d90
eb1
132
1b3
e20
1e2
163
130
152
123
f41
f23
f10
f20
0e2
1e0
f31
0f0
e71
0f1
1d2
01f
000
0d0
0e1
e62
0e1
e72
1e3
0f1
f50
0b1
1a2
160
0c1
e72
01f
133
333
d92
f42
2b3
01f
ec0
f11
ef3
f10
e50
0e3
000
f40
f21
ef2
eb0
f50
121
ef0
e11
1b2
01f
01f
e81
f32
01f
0d2
ee0
ea2
0c0
102
000
211
01f
e60
e91
ca0
0e0
151
da1
0b2
e51
ee2
f43
ec0
360
f11
01f
110
e61
f52
110
f51
de0
ee0
de1
f23
f30
f21
180
000
da3
0d3
140
143
110
e02
333
01f
243
de2
133
0b0
f51
f12
1f3
162
0b3
0c0
f02
0b3
213
ed0
102
dc2
130
e72
01f
1c2
f43
000
dc0
ed1
1b3
01f
e00
100
0b1
e03
f50
f51
0b3
140
f21
183
1f0
ee1
193
130
131
210
ec1
0d0
f11
ed0
f40
0e0
151
133
101
e73
e70
e51
f23
000
eb1
ef2
d73
ed0
0c0
193
100
ed2
ef1
e53
f41
0d3
ea2
0c3
0b0
f01
ee2
cc3
0c1
193
f01
e42
163
df1
ee2
0e0
d91
f02
c13
1a1
0c2
0b3
0b1
e22
263
f33
190
142
000
e11
122
211
f12
eb0
e42
f00
f21
ee0
152
0d0
171
182
f53
f51
122
f53
e21
302
0f2
0e3
120
f41
0b2
f30
dd1
cd1
202
e53
f41
0f2
263
e70
e31
dc2
1d3
e81
d22
143
dd1
d92
000
0d0
0e1
0f2
223
1a0
ef3
100
df1
0d2
130
132
253
163
f40
eb0
0f2
263
01f
01f
190
ef3
0f0
f51
0d3
0c0
f12
160
f11
ec2
e11
ea2
273
0f1
1c3
000
ee0
df2
111
f32
e40
131
0f2
e23
d90
f21
153
d42
2a3
0f1
0b2
ef0
291
1e2
0c3
d80
0d1
192
1e3
01f
1b2
ea3
161
ed3
111
f53
ea0
0e1
e73
ed0
0b1
ea2
d93
f20
0f1
da3
2e0
f31
0f2
0d3
000
e71
eb3
150
0e1
0b0
0e0
131
122
1f0
0c3
f20
ea1
e93
0f1
f42
153
f50
160
e91
0d0
ea1
0d1
0b3
190
ed1
eb2
263
0b0
c71
243
d41
1a3
000
212
f30
ef3
ea1
100
e72
0f2
f23
2c2
e43
f11
1f2
0c0
181
e70
101
f52
113
301
122
0e1
132
f51
132
ed3
141
113
d92
120
e01
ec3
01f
000
0e2
310
2b0
163
e90
e93
0f0
0d0
143
f22
ed3
e40
0f2
0b3
e60
e70
122
0c2
e20
e82
ef3
de3
1f0
0f2
e53
240
193
000
260
1f2
0b0
0c1
f02
f50
ee2
da0
ea2
0e2
0f0
f41
0c0
db1
e92
d91
110
eb1
da2
0e0
dc2
0b0
e71
e22
ef1
f22
e72
0b0
121
df0
141
f52
000
ec2
e93
e81
f32
f03
f22
0c0
1b1
102
122
ea3
0c2
0e3
01f
f20
0f1
232
dc3
ef0
133
ed1
173
180
f51
f42
0e3
f20
f51
f33
1d0
1b3
290
e31
f52
253
e91
e10
0d1
000
d40
e02
ea2
f52
180
161
152
ee3
df0
f11
f32
e13
f20
0e1
172
f53
182
140
102
151
e73
e43
e51
f43
2a0
0b2
1b3
190
eb1
113
ea0
f51
153
eb0
f41
d53
000
120
de1
ec2
f11
f50
ee1
e70
1e1
e22
e31
f02
0c0
e81
0b2
0b2
291
130
01f
ea1
f52
01f
241
232
271
1c1
f20
e71
000
100
e11
101
ed1
f00
f21
01f
f21
e31
101
ed3
1f1
0c2
140
e71
d81
0d3
d51
e72
0f1
102
0f3
0c3
ea0
e50
000
142
183
201
112
143
1b1
f20
f22
f20
0e1
0f3
151
f22
dd3
f32
f33
de0
df2
e13
ef0
f31
0e2
c13
f50
f11
ed2
ef3
101
d12
1c3
f30
101
e72
ed0
f31
0b2
ef3
f00
271
183
181
2e3
1d1
ec2
000
130
f41
122
0c3
0b0
1a3
310
f31
f42
3a0
d71
e12
f03
01f
e30
0f1
123
240
0f1
e53
f53
0f0
1b0
e50
221
f20
df1
e52
101
e73
2f0
101
e03
0b0
1f1
da3
000
1c0
0b2
dc3
f20
f12
f03
f12
f20
0d3
df3
f50
112
dd3
ec3
f20
182
f40
dd2
e93
e62
e03
123
1c2
103
f10
eb2
e63
e12
302
0d2
000
130
181
260
0f1
221
c80
121
f50
0e1
f42
01f
e00
1b0
f31
ea2
f40
151
f22
ec1
0f0
1f0
ef2
f30
161
dc0
141
01f
000
ee1
213
0c3
f11
143
01f
e83
01f
0b1
cf3
ea3
ee1
363
1c3
e63
eb3
01f
01f
000
1c2
f43
250
1b2
382
ed3
f40
ef3
f20
f21
0f3
1f0
1b2
e83
ec0
e82
0d3
0f1
f13
e12
f43
f30
eb2
f42
270
1c2
f33
1e0
0d1
000
f11
f52
f53
121
f32
ed2
251
ec2
0c3
161
f43
231
221
181
0c3
0c2
221
0c2
0f3
0f1
0d2
0c3
121
191
e01
da1
000
d80
e12
f32
170
f32
0b2
f51
d42
01f
0b1
1e2
f50
de1
160
f01
162
1d2
201
131
160
0c2
0b0
421
202
eb0
4e1
192
1e1
0e2
000
f43
f40
ed2
ef3
01f
ec0
f01
132
f43
e32
110
0b1
eb3
170
0b3
f20
0c0
122
123
0f0
0c0
151
152
f13
ed1
122
f20
1b1
0f2
f10
181
191
000
f40
1a1
eb3
f01
01f
1b0
221
0d0
101
e30
143
0f0
0c3
0f1
213
f00
201
0f3
d01
153
c61
f01
1d3
140
f41
133
320
391
4c1
000
ed0
f12
0d0
f21
db3
e13
0f0
cf3
e70
f51
0f2
f13
f51
f43
f42
f33
0d1
0f2
183
102
101
163
180
0b3
0d0
153
f20
121
102
0f3
e90
000
340
0f2
f13
0d1
0d2
cc3
2a0
f21
ee2
d63
0b0
f31
ed2
130
121
192
ef3
eb0
101
0c2
df3
1e0
f11
cb3
eb0
1f2
f43
f21
123
112
1d3
f43
f00
e73
e00
0f1
f12
0b1
d92
1e0
f12
333
ef2
143
000
f00
de1
e32
01f
f40
121
170
172
133
ed1
d92
223
e00
f31
0e3
e91
113
e20
1b1
f20
182
160
ec1
dd3
d71
e53
121
142
0d3
1a0
112
0c0
ef2
0e3
ec0
121
e62
0b3
000
f40
0f3
161
f52
0c1
0c3
383
0f0
0c1
ef3
0c1
132
f33
f10
f32
1b3
f30
f43
ec3
ee1
e33
180
2a3
160
0b2
df3
c73
f00
c23
000
eb0
182
f51
ef0
f22
121
0f2
f40
0c2
f41
1b2
0b1
252
01f
150
eb1
ef1
e62
ec1
f42
f51
0d2
e81
f32
dc1
e72
000
110
e71
01f
112
b60
01f
e90
01f
301
f53
01f
120
eb1
1f0
f51
190
0c1
c20
0f1
112
f53
01f
210
f40
f52
000
e22
103
eb2
f33
ee0
f42
0c3
102
110
d92
e22
0e3
ed0
f52
113
232
dc3
0c0
133
ea0
f51
1d2
e73
01f
ee2
f31
01f
000
e63
101
f23
f00
1d1
1a1
0d3
01f
130
0c3
190
171
1d3
101
0e0
de1
ed3
210
203
f51
0b3
ec1
ef1
0b3
ee1
f33
eb0
eb1
e63
000
ec0
2d3
f32
263
e32
cf3
110
f02
b63
e30
233
e80
0c1
153
ec0
0b3
c63
0c3
e31
0f3
d80
1f2
2e3
162
0d3
e40
f22
e23
f51
f33
01f
230
333
000
0d0
111
ee2
f20
0c1
ec2
d83
ea0
f13
122
160
f31
ef1
f43
ec1
102
0b0
112
0f0
e81
103
120
101
0b2
e03
1d0
0b1
f42
123
2f0
ed1
132
0b1
0d0
102
0b0
123
000
c43
f40
f51
e73
e50
ed0
f31
193
250
da3
190
ed2
f13
ea0
0e2
e93
f30
0c1
01f
140
cd3
ec0
ec2
e23
0b0
e20
162
e33
0d0
ec3
01f
f11
0d2
103
000
ea1
ef0
162
f03
e70
0d1
103
e41
ec0
0c1
ed0
102
1f3
0d1
0f2
113
132
f13
f00
ea1
152
112
0f3
f43
1a1
2e2
183
ed0
ee3
e71
342
1b3
f01
202
000
1d1
e22
1a1
dd2
ee0
191
f53
0b2
e73
1f0
de2
f42
f20
ed2
101
f02
133
0e0
ea2
143
160
161
0b3
e42
153
131
1c3
e60
e22
113
0c0
170
01f
000
ec0
ed1
eb3
f40
131
ee2
f13
0d1
0d3
e30
122
ec0
f41
182
f03
e20
0d2
e90
113
231
f22
ed1
222
01f
dc0
2d1
132
0c1
110
181
ef3
110
0b3
000
2a0
0b3
320
133
01f
eb2
230
1f3
160
0c2
123
110
df2
e63
140
ef2
123
e40
0e2
1b3
270
cc3
240
dd3
2b3
f10
e93
01f
1c0
393
000
e70
e52
e70
e21
e12
f10
e51
ee2
f41
1c1
120
ef1
102
dc1
01f
0b1
eb0
1e0
1b2
141
0b2
200
ef1
191
f42
ef0
f32
ed0
f22
000
df1
e61
f03
160
142
d63
e10
232
100
ea1
0d3
ec2
f43
1f2
ee3
e50
f01
142
e23
01f
ee2
e91
172
153
f22
ec0
f31
e23
01f
ea0
141
f12
000
210
f33
1a0
0f1
280
0b1
f50
1e3
da1
e71
170
ea1
173
f51
283
f31
1f3
1e1
e03
1e2
1c3
0b0
f32
0b3
da1
1e3
01f
f20
101
d32
ea3
000
101
1d1
3f1
231
130
ee1
f51
0f0
2f1
0d1
182
231
e71
e02
0e0
f51
221
ee2
e92
ed1
f40
f01
f32
000
e90
f00
0b1
271
ed2
e73
f40
2a1
0c2
f53
db1
f12
0b3
01f
2e1
f23
2c1
f43
0b1
e31
142
eb0
0e1
f01
261
dc2
0b0
ec0
e51
000
100
e82
ee3
111
e80
ec2
e43
e60
e01
ef3
150
ec2
103
0e1
152
0b1
c73
f20
f51
f43
111
e42
0f0
0e1
150
141
e23
0f0
101
1a3
ea0
f42
d43
190
f21
f42
183
163
f12
233
000
390
e71
ea2
1e3
420
eb2
1e0
ee1
e01
0b3
f31
1d3
1f0
101
da0
181
e80
0d1
112
220
ef1
f52
e70
1e1
1e2
f23
f30
1f1
113
f00
122
f01
0b3
01f
220
f41
000
f50
e42
01f
01f
122
e83
f02
0c0
f52
e73
01f
01f
eb2
283
d83
0c2
0d3
dd2
01f
f30
0d2
1b2
1d3
000
111
0b2
f20
1e1
0b2
ed0
01f
230
f42
110
111
121
f52
0b0
f21
120
0b0
f01
172
e00
f11
120
ef2
f20
e91
192
0f2
1a0
151
000
01f
0b1
131
101
2d3
01f
191
da3
131
0b1
f01
0d3
d23
ef3
0c1
01f
01f
01f
000
0b0
172
252
e00
0c2
f50
230
130
212
f51
f42
0b3
230
d52
0f0
f02
f13
260
e62
3a0
0e2
01f
f10
f32
0b1
000
01f
f51
151
f42
0b3
1b1
ef2
f21
01f
0f1
01f
f01
ef1
111
0e1
ec3
241
01f
c81
f23
cf1
000
e81
f20
f31
ee1
f53
eb1
f42
f01
0d2
e80
152
de1
152
ec0
ed1
0c2
f40
e51
242
ea0
0c1
172
252
112
e80
1f2
281
ef1
ca1
000
f51
f43
0e2
ef1
192
e61
01f
0b0
0c2
0d0
0f2
ec3
1c1
0c2
01f
ef0
0f2
0e3
160
151
1f1
0c2
0b3
0c2
183
f40
0e3
000
150
e11
0e3
250
ed1
190
e83
1d0
151
dc1
0e3
f43
0e0
0f3
ee0
f33
f11
f00
0c1
d61
273
ee1
101
01f
111
2e1
000
f41
e43
0f0
f22
da3
200
f01
f02
e83
e91
d83
e90
0d1
ee2
0f0
e51
f40
2f0
ed3
eb0
0e0
0b2
0b3
01f
190
163
ef3
111
000
0b0
ee3
2a0
eb2
f42
e33
0c2
e33
01f
220
0d3
f50
151
e93
dd0
111
192
dc3
111
f12
0b3
f01
1d3
ed0
1f1
f22
110
252
103
e42
f43
e60
0d1
0e2
253
0d0
3d3
000
131
142
d63
0b0
122
eb3
120
ed1
202
0d1
193
e90
0d1
db3
0e3
e40
0b1
132
f31
0e2
0f3
01f
0e2
ee3
e80
f13
102
ef0
ee1
0d2
e73
f13
eb0
f41
f32
dc0
0c1
000
0d1
f52
161
0f0
132
0d0
172
2b3
e32
2a3
e22
173
170
f12
1c3
0c0
ee1
1c3
100
143
e80
ed1
0c0
f21
e92
133
e90
163
f30
f22
b23
ee0
0c3
0b2
193
ee0
101
122
000
f21
e92
f10
f51
eb1
0e0
142
df2
ef0
0c0
0f2
01f
f32
e62
142
110
f22
f01
f52
e52
0c2
000
e20
f50
0f1
211
122
321
0f1
ef2
01f
2c1
150
1d1
2b0
111
d81
01f
e81
200
f01
e01
150
f22
f53
0d0
eb1
000
ea3
01f
130
1d2
2f3
173
0d2
ec3
ed0
123
152
f13
01f
0e2
e20
152
0c0
ec2
e63
01f
292
0e3
0d3
0c0
162
e43
f50
152
000
