01f
e50
d71
dc2
e90
e82
d00
251
c12
c33
d90
e32
e93
dd0
302
5a3
01f
5f0
d32
e43
e21
01f
01f
01f
dc1
e43
1d2
431
592
d63
e00
e03
e10
e81
d52
da3
312
df0
d62
7f3
2f1
dd3
01f
000
211
e70
e62
d93
7c3
1e2
d03
e81
01f
01f
c90
d41
cf2
3e1
e12
01f
01f
01f
e60
601
e22
362
e03
e71
da2
e90
df1
db2
6d3
560
e62
393
01f
e53
01f
e92
000
01f
4a0
321
e30
df1
680
7f0
df0
e91
01f
6b1
df0
3d1
01f
01f
01f
e10
2e1
01f
e80
171
01f
01f
dd0
01f
01f
000
01f
01f
e70
e51
632
d70
1e1
c22
4d3
01f
491
dd3
e40
d71
01f
3e1
e03
db0
441
233
01f
e41
dc0
261
172
dc3
01f
212
01f
2a2
640
e11
522
db3
df0
4c1
2a2
be3
e50
e71
e22
e43
283
000
302
01f
1c0
e92
dc1
3c3
01f
01f
5c0
d71
d92
d03
241
e82
e60
e11
01f
01f
e60
502
dd3
01f
2e2
e23
01f
e42
2d3
c72
e13
df1
d72
3f3
dd0
4c1
542
e93
e90
df2
000
01f
01f
e10
de1
da0
01f
e40
1e0
421
01f
01f
01f
01f
301
01f
01f
01f
01f
01f
de0
cc0
e31
e70
2e1
000
01f
01f
01f
d60
dd1
d82
412
e43
d61
2e3
170
de3
de2
3f3
2b0
e72
550
c62
e63
180
e82
e30
341
cf2
3e3
262
e31
282
e93
e61
253
530
d72
183
01f
330
cc1
192
423
e40
431
da2
da3
000
3c2
d13
01f
2c3
d90
591
272
d63
e10
e31
d62
e93
273
e91
e92
1d3
e50
351
d22
d43
01f
e60
e91
462
e33
01f
290
e91
d30
741
e32
e73
182
01f
01f
01f
ce0
dc1
e02
c53
630
e73
000
01f
01f
01f
400
e11
450
e31
370
d01
371
e10
271
01f
3b0
ca1
df0
01f
e60
e71
281
de0
de1
db0
01f
01f
01f
750
e61
e90
c91
000
3a0
e81
01f
df2
2b3
e51
2e2
e93
202
263
df0
dd1
e70
e31
e32
e73
2b0
dc1
472
e93
e41
e52
e00
3a1
cd2
1b3
e60
d51
01f
01f
341
e92
d63
280
292
dd0
d61
450
d02
ca0
e42
1e0
511
d92
da3
c20
d41
672
3f3
252
e83
000
db1
462
da3
01f
e00
531
d62
e93
e72
283
01f
e41
e82
490
253
e11
3a2
cb3
390
e61
e83
dd2
5c0
172
df3
01f
530
e52
e92
e93
470
db1
d13
422
e73
e70
d41
e62
483
e52
db0
d71
e61
000
d80
01f
d00
01f
e50
e11
650
e71
dd0
371
491
e60
01f
d31
1e0
01f
dd0
7f1
e10
e71
621
01f
280
d01
01f
000
