1ca1
1d02
1b07
0a89
1c4a
0c0c
076d
040f
05b0
0451
1ad2
02f3
1d16
1a62
1a86
1aa7
1bc8
1aa9
1b4b
1aac
1b4d
19ee
0391
0416
1c8c
1d23
1c05
1b06
1927
1d08
192b
1a6c
1a8d
1cce
02cf
1d51
1af2
1c33
0974
0555
03d6
02e0
0583
0c04
1a66
0548
0709
1b6a
1c6f
17b0
16d1
18f2
1b33
1c17
1bf8
0ae0
0501
1c44
0825
1b89
1b8b
1b0c
1cb1
03f3
02f7
04f8
1cc1
0364
1cc5
1c66
08e7
0b28
096b
0c6c
052d
18ee
0850
03d1
17f2
1ad3
1cb5
1916
1b17
1b58
1be3
0444
0386
1c27
0789
04ea
06ab
1d0c
05ae
0aef
04b0
03f6
0000
