781
ac2
a03
1989
16eb
116c
10cd
17ee
17f1
935
dd6
e77
8b8
1842
1806
1867
aa9
194a
172b
19ec
f4e
180f
972
d93
1a14
937
858
741
c62
a63
a67
de8
a89
192a
1a0b
86e
16cf
1550
1391
16d2
1915
14b6
1557
1a00
802
7c3
dc6
fa7
19e9
78a
feb
18cd
164e
7cf
690
1891
1312
1773
1716
1777
1982
1787
14c8
1849
c6b
154d
14ee
db0
f31
d96
ff7
838
680
1902
7a5
16e7
8aa
184c
64f
000
