04a3
04a9
1ceb
16cc
1d0e
1c50
1811
17f2
0374
1816
1577
1c78
003f
0604
1c66
1d27
0668
0ac9
1b6a
1c6b
09ad
042e
164f
16f0
1a31
1c12
1954
1bf5
02c0
1666
1a07
19aa
160b
186c
19cd
1cee
1b90
16b1
17d2
03d8
1aa1
1b42
1883
1d04
1c85
19e6
15e7
1788
1a8b
188c
03ae
1c10
0b92
0673
1bf4
0335
07f6
0bf7
06f8
1b01
1d22
17a3
1925
1a08
1c2a
04cb
1b4d
1d31
02f4
0358
03a1
0563
1bc5
1d46
19c7
1acb
186c
038d
054e
1d00
1a65
07e7
0628
1d2a
056c
14af
1514
1b55
1cd7
0000
