04c0
19a2
1943
1d44
05e5
0326
1bc7
1a68
062b
06cc
18cd
1bce
0410
0cd1
0872
1cf4
1cd5
02f6
0c57
0978
003f
1d42
18e3
1a44
0345
07aa
0c6b
0cec
090d
03ee
04d1
1d12
1a93
1814
1795
1a36
1b83
1d25
1c4a
094c
0a0d
06ae
1cef
1c90
1cb1
1cc0
1c61
19e2
1ca3
1d24
09a6
0907
0468
0369
06ab
06cc
1970
18b1
1bb4
1b75
1d56
1d58
08a0
1922
1923
1b64
02c5
1867
1aa8
1c09
1bea
1beb
170c
1aed
1c4e
188f
1bd0
03f6
04b7
1920
16e1
1802
1a43
1ae4
1c85
1b86
1947
1a28
1b89
048a
07cb
036c
034f
0a30
0eb1
0832
1bf4
1a35
1b78
1c40
1621
1ae2
1946
1be7
0308
0529
1d0b
1a2c
048e
03cf
1d11
03f2
0393
1c76
0000
