1be0
1b01
05e3
0304
03a5
0906
0787
1ceb
058d
05ce
196f
0671
02d2
1cf3
0437
0358
1d40
1822
1783
17c4
094a
09ab
072c
04ed
034e
0391
0572
0413
003f
0400
03e1
1cc3
1d05
1b08
1c29
19ab
19ec
1cce
1bf0
1871
1a52
1c53
1c55
1896
1b17
1cb8
1bc0
0321
0602
0403
0384
0385
030a
042b
066c
032d
034e
082f
0470
1d57
1a20
1ce1
1ae2
1a23
1c24
1c05
1c2a
1d4b
052d
0370
0571
1d53
04d5
1c37
1b40
1b03
1a84
1c87
1988
1d49
03ca
03d0
0591
1b93
0515
03d6
1c18
1cc0
1d24
1c05
1a26
1ba7
1a28
1809
1d2c
19ad
1c8e
1cb2
0674
0375
1d37
0000
1b60
19a1
1d02
0424
1ba5
0467
1b09
036a
03cb
1a8c
18cd
1b2e
1931
1b72
1c73
1af4
19f5
1ad6
1c77
1a40
1b05
1d06
1be7
1d28
0354
1b18
003f
1c60
1c81
0363
0364
1a45
1a07
02e8
0749
03cb
190c
046e
046f
0550
1bd1
03b3
03f4
03f8
1b80
0362
05c3
1b8a
178b
198c
1a6d
1c6e
1911
1d32
1cb3
1d36
1ba3
1d28
03a9
1c0b
034d
056e
0531
0552
04f4
09d5
0896
1a58
19e0
0702
03e3
09a6
0727
05eb
1d4f
1bf0
19b4
0456
1c78
1d01
1d02
0923
0804
0ae8
0629
030c
092d
03d0
0832
1cb3
0335
1b58
0000
19e3
1984
1c66
1807
19e8
19ea
192b
04ad
1b8f
04f2
02f5
1ce0
1c24
1c85
190a
1a6b
1b0c
1bcd
1c4f
0333
0474
0615
04d6
0537
0818
1d2a
1d4b
1d04
19e6
044a
1d0b
1bec
04ae
18ef
1c10
1991
1b52
1c53
1bd4
1d57
1a58
02e4
04c7
0488
0589
02eb
078c
060d
1bd0
1c91
1c72
1a13
1c94
1a56
1d17
1b18
1be8
1be9
1aab
1b8c
19ed
19ee
1d0f
1b30
1bd1
17f2
18b3
1b34
1bd6
1977
1ab8
0380
0308
042c
1bee
1b8f
1bd2
1b93
1974
1935
1956
19f7
1b98
1ca4
1be6
1967
1b28
1b09
1cab
1aac
1c2d
1a2e
1d30
1c71
1b54
1ad5
1a16
0358
0000
1ca1
1d02
1b07
0a89
1c4a
0c0c
076d
040f
05b0
0451
1ad2
02f3
1d16
1a62
1a86
1aa7
1bc8
1aa9
1b4b
1aac
1b4d
19ee
0391
0416
1c8c
1d23
1c05
1b06
1927
1d08
192b
1a6c
1a8d
1cce
02cf
1d51
1af2
1c33
0974
0555
03d6
02e0
0583
0c04
1a66
0548
0709
1b6a
1c6f
17b0
16d1
18f2
1b33
1c17
1bf8
0ae0
0501
1c44
0825
1b89
1b8b
1b0c
1cb1
03f3
02f7
04f8
1cc1
0364
1cc5
1c66
08e7
0b28
096b
0c6c
052d
18ee
0850
03d1
17f2
1ad3
1cb5
1916
1b17
1b58
1be3
0444
0386
1c27
0789
04ea
06ab
1d0c
05ae
0aef
04b0
03f6
0000
1be1
0364
1b2b
1aec
06ae
1bcf
0531
0413
1bb8
1ac0
1b01
1a22
1b83
1a84
1b25
1d49
05aa
078b
068c
056d
0550
0651
0452
03d3
1bd5
1c61
04a0
17c1
1662
1963
0ec5
0fc6
1868
1caa
0c6b
0eec
03ad
186e
1ccf
0bb1
0912
1d54
0576
0877
0458
1c40
1a43
0425
1ce8
1c69
040a
1ccc
1a0d
1aae
09f0
0791
1d12
1c73
0454
02f5
09d6
0337
0420
1c62
1ce3
1904
1cc6
1b87
1cc8
1d0b
1caf
0333
0338
1aa8
1beb
1bec
19ed
1a8e
1c11
1972
1c33
03d6
1982
1763
02c5
19e7
1848
1aa9
1a4c
1a2d
1c6f
1cf1
02f3
1b17
0000
1d42
1b43
1ca6
1bc7
1bc8
1c4b
1bcc
030e
0331
0512
0454
0355
1c60
1cc5
1d4a
1d30
1d0c
1c42
048c
048d
0551
05b2
0333
1d15
0577
02d8
1d2e
1cf0
1b73
0397
1d18
0560
0481
04c5
0426
1cad
1d2e
1c71
1d52
1cf6
1cb7
02c4
04c5
1b46
042a
1c6b
1d50
1cd3
1d35
02c1
1b63
03c5
04a6
1d28
03eb
02f7
0000
