1be0
1b01
05e3
0304
03a5
0906
0787
1ceb
058d
05ce
196f
0671
02d2
1cf3
0437
0358
1d40
1822
1783
17c4
094a
09ab
072c
04ed
034e
0391
0572
0413
003f
0400
03e1
1cc3
1d05
1b08
1c29
19ab
19ec
1cce
1bf0
1871
1a52
1c53
1c55
1896
1b17
1cb8
1bc0
0321
0602
0403
0384
0385
030a
042b
066c
032d
034e
082f
0470
1d57
1a20
1ce1
1ae2
1a23
1c24
1c05
1c2a
1d4b
052d
0370
0571
1d53
04d5
1c37
1b40
1b03
1a84
1c87
1988
1d49
03ca
03d0
0591
1b93
0515
03d6
1c18
1cc0
1d24
1c05
1a26
1ba7
1a28
1809
1d2c
19ad
1c8e
1cb2
0674
0375
1d37
0000
