1c21
0703
0704
18c6
18a7
1b08
1cea
160b
100c
1a2d
04ae
1cf0
1751
19d2
04f3
0415
0316
003f
1c01
03c3
0604
1905
1d46
06c8
0349
1cca
06ac
094d
04ae
0350
0c91
0b12
1cf7
1be0
0442
0363
1c66
17e7
1a08
030a
02eb
050c
062d
02ce
02ef
0590
0611
06d2
0593
0361
0405
04a6
02c7
1b88
1c49
066b
1c8c
154d
194e
098f
06f0
1c11
1832
1673
0454
1cf5
1bd6
1957
1918
1d02
1c43
1cc4
1be6
1a27
1d49
1aaa
1bab
1d0f
1c70
0433
1c58
1d22
0304
03a6
0a67
0b08
02e9
044b
040c
06b0
0831
0332
03b6
1cb8
1ae5
1886
1c27
03c8
03a9
198a
152b
04ed
06ce
1b4f
1430
1d51
0812
06f3
1714
1815
1cd6
0000
0347
06c8
1c69
1cab
048c
1a8e
1a90
1cb3
1a15
1cd6
1978
003f
1c45
0427
19aa
1ceb
176d
1a8e
188f
1750
19d1
1cd2
1b54
1d15
0337
18a0
0382
0503
0424
1885
19eb
17ac
164d
1cce
036f
1cd1
1c32
02f4
0340
03e1
1bc4
02c5
1ba8
1b49
1aea
178b
1bef
0312
02d4
03b6
02e0
04e3
0304
0be5
1d27
05a8
0c2a
1c8c
066f
0317
0780
0501
04c5
1a26
1967
14eb
190c
1cce
1b2f
17f0
1c93
1c95
0396
0397
0700
0442
1ae3
1d24
0725
1d47
1648
056a
04cb
17cc
1a0d
1a4e
088f
03b0
17d1
1a72
1ab3
05d4
17f6
1ad7
1c78
0000
04c0
19a2
1943
1d44
05e5
0326
1bc7
1a68
062b
06cc
18cd
1bce
0410
0cd1
0872
1cf4
1cd5
02f6
0c57
0978
003f
1d42
18e3
1a44
0345
07aa
0c6b
0cec
090d
03ee
04d1
1d12
1a93
1814
1795
1a36
1b83
1d25
1c4a
094c
0a0d
06ae
1cef
1c90
1cb1
1cc0
1c61
19e2
1ca3
1d24
09a6
0907
0468
0369
06ab
06cc
1970
18b1
1bb4
1b75
1d56
1d58
08a0
1922
1923
1b64
02c5
1867
1aa8
1c09
1bea
1beb
170c
1aed
1c4e
188f
1bd0
03f6
04b7
1920
16e1
1802
1a43
1ae4
1c85
1b86
1947
1a28
1b89
048a
07cb
036c
034f
0a30
0eb1
0832
1bf4
1a35
1b78
1c40
1621
1ae2
1946
1be7
0308
0529
1d0b
1a2c
048e
03cf
1d11
03f2
0393
1c76
0000
04a3
04a9
1ceb
16cc
1d0e
1c50
1811
17f2
0374
1816
1577
1c78
003f
0604
1c66
1d27
0668
0ac9
1b6a
1c6b
09ad
042e
164f
16f0
1a31
1c12
1954
1bf5
02c0
1666
1a07
19aa
160b
186c
19cd
1cee
1b90
16b1
17d2
03d8
1aa1
1b42
1883
1d04
1c85
19e6
15e7
1788
1a8b
188c
03ae
1c10
0b92
0673
1bf4
0335
07f6
0bf7
06f8
1b01
1d22
17a3
1925
1a08
1c2a
04cb
1b4d
1d31
02f4
0358
03a1
0563
1bc5
1d46
19c7
1acb
186c
038d
054e
1d00
1a65
07e7
0628
1d2a
056c
14af
1514
1b55
1cd7
0000
1d20
0603
0624
1bc6
1a8b
07ad
036e
1cb1
0a52
0d33
0534
04b5
1af7
003f
0320
0486
05e7
180d
148e
1ab1
19b2
1c93
1b57
1bc0
1c41
1d25
1b26
1d47
1cc9
038b
1b0d
192e
034f
06f0
0a51
07d2
03d6
0737
0318
02c1
0822
05a3
06e4
03e5
0646
0507
1acb
1b8c
1c4f
18f0
1b51
1c94
1ab5
06c1
1823
1bc4
0586
1988
1c29
1c8a
038b
1bcd
1c0f
0391
02d2
1d18
1ae1
17c2
1c43
0885
0f86
0967
03a8
05ab
044c
1b6f
1ab0
1851
1c92
1cf3
1cb5
1796
1ad7
19e0
1aa5
1d29
18aa
066c
1aef
0871
0495
0856
19b8
0000
1bc0
1d47
0348
030b
074d
08ae
0470
03d2
0a33
02d5
003f
02c2
04a7
02ea
040c
1c4e
1912
1a53
1b97
1c38
1d4d
1d4e
1c90
1ce1
1c67
0389
1d4a
1bcb
16ac
050e
19ef
19b0
16b1
0533
18f4
1b75
1bd6
02d7
05d8
05e2
1d23
1d04
0747
1ca9
058c
1ce3
040f
1b71
1d57
1cc0
064c
08f1
0432
1bf3
07d6
04d7
1c58
0000
