1be1
0364
1b2b
1aec
06ae
1bcf
0531
0413
1bb8
1ac0
1b01
1a22
1b83
1a84
1b25
1d49
05aa
078b
068c
056d
0550
0651
0452
03d3
1bd5
1c61
04a0
17c1
1662
1963
0ec5
0fc6
1868
1caa
0c6b
0eec
03ad
186e
1ccf
0bb1
0912
1d54
0576
0877
0458
1c40
1a43
0425
1ce8
1c69
040a
1ccc
1a0d
1aae
09f0
0791
1d12
1c73
0454
02f5
09d6
0337
0420
1c62
1ce3
1904
1cc6
1b87
1cc8
1d0b
1caf
0333
0338
1aa8
1beb
1bec
19ed
1a8e
1c11
1972
1c33
03d6
1982
1763
02c5
19e7
1848
1aa9
1a4c
1a2d
1c6f
1cf1
02f3
1b17
0000
