e71
622
ee0
d52
01f
e51
ea2
ce3
2d1
e92
f03
0f0
ef1
e01
132
dd3
250
ee1
422
142
173
190
e21
1a2
111
292
243
140
e33
291
ee0
e32
201
1b3
2c2
af3
01f
e41
dc2
1f2
3d3
1b1
2b2
363
000
ee1
db3
f01
103
01f
d40
1b1
e63
371
192
e60
e53
d90
1e3
d00
d41
1c0
1c3
dd0
d31
ed2
f13
2c0
161
ba3
d40
281
ed3
2e3
131
280
eb3
d40
591
162
d63
2f3
e70
251
310
d11
460
c81
e82
e33
000
e00
01f
01f
ee0
180
120
01f
3f0
122
da0
01f
d70
1a0
102
1d0
143
01f
ed0
f10
01f
dd0
e30
113
000
4c3
ee1
e12
ec3
01f
eb0
141
4a2
1b0
e61
d22
d63
1f0
e73
123
680
d32
103
eb0
1d2
0f0
2d2
113
dc0
1f3
240
ee1
242
210
ee1
243
f03
e62
e50
ef2
213
f10
cd2
eb3
1c1
462
e63
e80
ea2
e30
ed1
d22
243
000
2d0
1d3
280
ec1
e73
01f
130
1d1
e82
e91
5d2
de3
100
121
e83
113
230
e71
dd2
e50
ea2
173
ee1
d42
2e3
120
172
ee0
131
1a2
ec0
f00
e73
ef3
672
ee0
e01
152
d80
1a1
ee0
de1
e62
153
3f0
eb1
d42
000
f01
121
113
01f
413
e73
2c3
01f
d73
f11
ed0
e63
ef0
123
f00
ea1
203
ed1
01f
01f
193
ce3
2f3
ee0
c43
eb0
f03
000
3b0
e03
ec0
5a3
01f
192
123
2c0
e12
e20
01f
db0
f12
dc3
c23
170
3a2
d83
1d0
d53
e13
1e0
123
e12
ec2
5b0
ec2
c13
e32
e90
262
eb3
0f2
c83
e62
1e3
000
0f1
ea1
dc2
01f
162
e31
132
190
ed1
ec2
ed3
121
320
d02
1b1
122
321
222
01f
1f2
01f
e91
e63
ee1
f12
e51
1d2
01f
1a1
282
141
d82
0f3
000
e90
e41
01f
1d1
133
da1
e83
01f
01f
01f
e10
ec0
1b1
e50
f00
170
ec1
ef3
01f
f01
e30
ee2
01f
2e1
1e3
dd0
151
ec0
de1
1c2
ed3
000
1f1
e52
3b3
e81
01f
181
432
433
e11
df2
b93
172
141
272
1b3
01f
302
183
f02
463
151
f02
111
1d2
143
dd2
212
e53
e63
1d1
dd1
272
d33
412
293
f11
e62
000
e80
e91
e90
01f
ec0
1c1
f02
2e0
ef3
680
ea1
e31
d61
ef0
ee1
eb2
f00
1b1
01f
01f
181
01f
01f
1f0
da1
122
ee0
e31
000
260
ed1
f12
193
ed0
eb1
e83
01f
df1
232
ed3
231
e32
133
261
f13
0f0
eb1
551
ce2
d73
2b2
173
f11
ed2
e43
110
1e1
162
3b3
01f
01f
01f
261
1e3
200
e62
3e3
01f
ed0
292
e93
2f1
1a3
150
231
0f2
2c3
000
e61
172
f13
01f
ed1
d93
f00
4a1
ed0
123
2d1
1f3
dd1
403
01f
e60
e32
103
261
f13
2b0
231
e92
ef3
01f
193
371
ea3
121
232
3c3
01f
df1
0f2
5a3
df1
1d2
263
000
f10
f13
e81
142
01f
252
1c3
e70
2e1
f03
e91
1c2
01f
120
d51
e52
f03
130
f02
1b1
e03
0f1
e60
101
ec0
f02
1a3
01f
f03
2d1
152
ed3
150
e62
f13
180
152
143
260
0f1
d52
df3
e51
eb3
000
ee0
e81
e90
01f
01f
440
e61
1a2
340
211
730
1d1
271
ef2
e51
430
ee1
1d2
dd1
171
01f
350
202
1c0
3d1
171
321
e30
e42
000
de1
2a2
ed3
01f
1c2
193
271
f02
e63
162
140
f11
1c3
120
ae1
ed2
153
1d0
1e1
ef2
233
bf1
302
f00
341
f12
e63
d22
de3
261
e72
1b3
2a1
ee2
281
de2
210
281
eb2
263
101
2a3
1c0
1d1
253
1f1
132
ed3
000
172
e91
e92
01f
172
123
441
de2
163
1f1
183
01f
4e1
f02
eb3
eb1
132
1b1
e63
182
173
371
243
01f
01f
01f
2d1
152
383
e02
f00
153
ed1
e23
dd1
da3
000
241
eb2
e83
1f1
ee2
403
01f
101
2d2
e42
102
d80
1c2
cc0
ec3
100
e71
222
ce3
da0
ea3
220
d43
e20
e71
e83
e91
e02
0f3
202
220
eb3
ed0
121
d33
132
e41
412
f03
150
cf3
380
2c1
df2
000
e61
f13
411
283
01f
111
133
290
e00
161
1b3
01f
e60
ea3
ed0
c41
cc3
320
e91
d51
e73
e71
2a0
d83
f10
ee1
e51
01f
ee1
f13
ec0
e41
e03
de0
203
000
0f0
dc2
f03
5d2
f13
01f
1a1
132
f00
f11
e63
ec0
101
131
1f3
e70
dd2
223
140
181
b32
2b3
240
db2
100
b92
ef3
131
e62
eb3
ea1
2e2
db3
ee0
163
e62
d50
c42
111
ec2
413
211
1e3
1a0
b42
413
270
ed1
f12
000
320
e81
e62
1b3
01f
ef0
ec1
242
2a3
e91
152
df0
ea1
141
eb2
ef0
f11
b22
df3
eb0
2f1
172
2c1
cf2
402
e70
1e2
490
f10
ef1
172
f11
112
de1
592
ea0
ec2
e03
d60
171
272
1b3
e50
301
ef2
d63
190
f01
e93
000
2d1
170
192
01f
1e2
0f0
e83
351
e42
423
ef0
ef1
151
db1
e62
d83
01f
163
3e1
132
6a3
01f
ec2
e93
e80
d61
362
df3
01f
1f0
141
102
113
272
e83
182
170
272
ec3
000
221
102
e70
cf1
f00
111
db1
3e3
d90
241
172
400
e41
ec2
1d3
1c1
e72
01f
c80
483
01f
eb3
530
db1
df3
0f1
ee2
ea0
4f3
e80
01f
e90
cd1
293
111
1a0
e01
ea3
c60
123
000
1d0
01f
01f
01f
1b0
01f
e70
190
173
ec0
01f
01f
150
01f
01f
da0
ed2
01f
380
122
01f
01f
330
e73
000
1f0
ea1
e82
0f3
2a2
ef1
e82
f01
e62
153
1b0
e41
e82
d13
f11
1e2
f13
eb0
3d2
200
f01
de0
231
dd2
01f
101
1e0
111
eb2
121
2c2
1a3
102
e60
252
333
01f
4e0
e11
ef1
dd2
283
e11
dc2
123
470
f11
1a3
000
372
ef1
cc2
293
1a2
f03
e81
183
ea1
3b2
d22
2d1
d32
e50
110
f11
01f
01f
ea0
d82
211
dc2
e70
110
1d1
e52
113
01f
1f0
e61
e02
103
f11
252
370
eb1
ef2
01f
000
01f
f13
eb1
d73
ef1
ea3
f01
eb1
4f3
ef1
1e1
e43
01f
0f1
131
d93
ec1
3b3
01f
303
01f
01f
e83
01f
ec1
000
2a0
143
1f0
362
110
1c0
e93
210
e20
303
d50
ed3
113
01f
1b2
e03
d50
e40
133
de3
01f
102
2a3
2f0
e72
ea3
e92
2b3
ef2
f13
000
f01
2f1
1f2
ee1
ef3
0f1
112
eb3
f00
111
f02
01f
e52
01f
01f
190
eb2
f11
ef2
0f3
f10
ed0
153
01f
180
f01
f10
f01
ea2
150
ed1
000
db1
e83
01f
e71
ef3
f01
ed3
e91
f02
e53
110
01f
01f
1f1
eb2
173
01f
1b1
123
271
133
111
153
130
ec0
01f
e81
e23
db1
ee3
d41
e23
01f
000
d92
ea3
eb2
493
ed3
01f
dc1
e92
dc3
193
321
432
273
01f
ed1
2d2
ee3
01f
01f
cf2
e63
291
322
253
2c2
341
3b2
3f3
01f
e82
113
f00
ef2
ef0
ee2
121
000
201
ed2
e81
ea2
ef3
01f
1f1
ed2
d30
db2
ec0
e71
eb2
110
210
121
242
01f
1a0
f11
122
530
eb1
192
ed0
ef0
181
f03
df0
ee1
01f
160
ea2
0f1
e20
e72
230
000
111
153
f11
e43
01f
ea2
da2
ec0
302
3f2
153
201
e51
c22
da3
01f
131
741
1c3
2a2
113
d71
e53
170
d71
182
233
01f
121
f12
de3
180
e72
1b3
01f
1a1
f13
000
110
3c1
e82
e93
ec1
ed3
1d1
0f2
210
0f2
2c3
461
ed1
1a3
d71
181
e82
220
1b2
01f
f10
e92
1f3
190
ef1
f13
130
0f2
153
140
d91
01f
170
291
150
1b1
1f2
103
120
2f1
ef2
000
e40
151
191
ec3
ea0
0f1
190
e62
eb0
241
e92
d00
103
f10
cb1
242
293
ed0
490
01f
170
140
e41
e42
f10
d81
1b2
273
190
193
ee1
172
123
01f
e70
131
eb2
e70
ed0
000
190
d61
1a2
e82
170
150
251
390
152
d80
e81
e52
01f
220
e91
4d1
112
01f
121
1b0
e91
eb0
2b1
ee0
121
01f
370
f12
110
153
ea2
450
000
e70
201
df2
d73
ee0
cd1
3c2
ef3
f02
1b0
ea1
ec2
eb3
2d1
122
db3
201
d62
173
e92
e73
180
d21
122
5d3
01f
193
e50
231
de2
151
d72
110
e72
2c3
0f0
e52
1d3
01f
d81
1f2
de3
130
e12
1c2
e23
d61
dd2
e73
000
231
1c3
121
e83
161
ec2
ec3
401
de2
de1
ee3
f00
e31
3a2
213
1d1
e71
e42
01f
01f
ef3
f10
ee1
2f2
ed1
d81
332
123
01f
241
ee2
ef3
121
f01
e73
401
112
000
d52
eb0
e62
01f
f00
e72
e50
ed1
e52
3c0
f11
f02
1c3
1e0
322
ed3
da1
f13
bb0
271
412
1e3
01f
162
e83
320
f01
ee3
1a0
212
e50
f11
2c2
143
ec0
292
e83
01f
ed0
d62
223
ea2
ee3
0f0
251
d72
1a3
d10
ee1
000
280
e93
2e0
f11
130
eb1
d33
210
240
cd0
e41
ec3
100
ea1
e93
391
01f
01f
e23
ef0
ed1
ea3
1d0
ea3
d90
ee1
e43
01f
200
191
e41
ed3
ee0
1f1
223
100
e63
000
e41
232
d23
2c0
f01
01f
f01
273
ec0
142
340
2b2
d73
201
ef2
f03
ec3
e40
322
573
01f
e42
193
100
e91
e12
143
151
e83
171
2f2
2f3
1b1
d12
01f
ee1
322
eb2
140
152
ea3
dd0
f13
000
330
ed1
142
120
d72
01f
1d0
211
c12
f13
01f
120
181
122
1f3
512
203
01f
c42
01f
e90
f11
180
ed1
3d2
1a3
200
151
ec2
163
2c2
01f
180
1a1
d42
270
ef3
0f0
ee1
150
000
170
eb1
d92
3e3
190
172
3e2
ed3
dd1
d72
d93
f00
ee1
202
e93
d01
cc2
1f3
e21
e32
ed3
01f
181
d62
dc1
180
0f1
01f
f00
e82
342
401
c72
e93
663
ed0
ea3
ea0
f10
e62
000
01f
d80
122
ec1
df0
1f1
e63
01f
ee0
161
d13
d80
1d1
ec3
01f
ee0
133
281
9c3
da0
133
d80
2d3
e31
483
ef1
e12
df3
ef0
271
122
6a3
290
e21
a13
ef1
373
181
1d3
313
000
f13
180
f12
f10
f13
e70
dd0
ed3
01f
01f
140
d00
1c0
01f
280
01f
172
360
01f
de0
ea0
eb2
e82
000
e91
322
d23
150
de1
e41
f12
443
222
cf3
102
1b3
d30
272
bf3
111
2c2
e63
01f
120
192
ee3
db0
1f2
e23
1f0
de1
132
e63
193
2b0
202
eb0
d62
1d0
2b2
313
200
e51
f12
251
ce3
df0
e61
ef2
e80
e90
122
000
ec1
203
0f0
da1
262
1b3
3e0
f02
113
220
131
ee3
111
f02
2c0
0f1
01f
e70
111
ec3
360
131
ea1
112
173
01f
e52
e71
220
211
b72
c30
3a2
160
ea1
de2
220
01f
e70
000
f03
d33
143
ed0
3f3
1f3
211
2d3
223
01f
173
e90
111
4a3
ee1
e03
01f
01f
111
da3
e81
373
1c0
e71
e03
f00
311
e93
ed1
133
f13
000
442
133
3e0
1e2
2d0
213
e30
102
273
e63
e90
3b2
333
2d2
01f
de0
123
ea0
253
140
212
01f
ea0
143
1c3
e10
f12
2a0
173
d50
272
123
f12
152
000
331
392
1f1
262
eb0
01f
01f
161
262
1b1
1f2
f13
01f
df3
01f
211
202
f11
101
0f3
e92
120
ea2
ee0
162
1d0
e70
e92
ee0
e50
141
132
000
1f1
ea3
e03
dc1
ee2
e93
e50
01f
e90
241
f02
261
ef2
143
01f
01f
d40
e03
f01
140
01f
142
2a0
df1
e83
ed0
581
243
d61
102
e43
01f
161
000
190
db1
e02
313
e41
c82
133
171
de2
2c3
4c2
163
1a1
0f2
1b3
f01
122
283
242
1c3
01f
282
151
252
243
e21
e72
0f3
ef0
182
133
e41
1c2
e83
311
252
403
dd1
d03
e51
a92
482
2c2
0f3
000
e90
f12
101
ee2
d30
e12
ec1
ec1
e81
01f
01f
01f
dc1
ee2
e82
01f
0f0
f03
102
e21
c92
e20
491
e92
6a0
dc1
312
ce0
e52
ea0
0f2
000
e90
df1
d03
d42
1b0
d31
df2
e90
132
e53
f11
143
ea0
da1
d73
ef1
e83
01f
e20
ef1
132
e93
2a2
153
ea2
e33
0f3
d03
ef1
ec2
f03
151
2d2
143
e90
ef1
ec0
5c1
d41
122
f11
0f2
113
de1
000
ee0
ee0
321
1f0
e33
ef0
192
e81
da0
de1
1e2
e63
01f
121
ef3
cb0
df1
122
2b1
f13
140
131
1d0
1d2
293
dd1
ec2
1b0
5c1
d00
f11
e02
110
ed1
2b2
443
103
130
000
ec0
351
e60
391
e92
dd3
d80
142
f11
322
130
152
191
2d2
e63
110
142
01f
193
e30
352
e73
e80
241
e82
01f
1d3
310
c00
c71
202
183
271
dc2
263
2d0
e53
112
103
1a0
121
000
01f
2a0
db0
d91
190
ee0
f10
102
01f
01f
01f
180
e31
152
240
01f
01f
3f1
d01
ef2
132
f03
01f
3c1
111
cc0
171
000
e30
e21
5e2
e43
de1
2f2
d93
cf1
122
ce3
332
e42
0f3
f00
7c2
1d2
133
01f
181
ed0
261
412
e53
e11
1f2
e03
ec2
f13
d21
153
1c0
192
383
e63
211
be2
de0
f11
4b2
203
270
1d1
1d3
271
e82
143
213
000
d72
461
d72
e01
f00
193
ec1
192
ed0
e51
eb2
133
0f1
163
01f
01f
ed0
112
1d3
3c1
e12
f03
01f
0f1
ea3
eb1
e22
ec3
382
1d1
e02
e90
ee2
ed3
ec1
01f
d51
000
ee0
da2
123
e20
c62
2c1
d02
1d3
1d1
1d2
183
122
ea3
eb0
331
0f2
243
e50
232
01f
ea1
202
120
2f1
0f2
e00
e71
de2
01f
de0
1c2
163
ed0
0f1
212
193
140
141
102
c81
f02
233
2c1
152
101
152
172
ee1
1a2
000
370
111
163
3c0
1d1
d70
301
333
e40
e83
481
4a3
01f
01f
130
c30
281
473
320
01f
180
221
123
dc0
520
c73
271
153
ec0
163
01f
2f0
f03
000
3d0
ef1
132
1a0
e21
e41
332
d03
221
182
f10
e52
200
1f2
171
01f
1a1
1a2
0f0
161
ed2
e33
170
f11
0f2
132
ef3
342
0f3
1f2
423
161
c03
ec0
5a2
150
d91
f02
253
201
273
101
100
212
1b3
000
d60
4e1
d92
d62
460
ca0
ef1
172
1d3
132
ad0
291
193
e00
152
01f
112
233
c10
ed1
3a2
101
da2
210
ef1
1b0
161
e72
1f3
c02
1f0
2b2
183
3b0
123
c80
f00
181
e22
232
210
1b1
000
f02
01f
f02
d53
301
373
e10
411
de2
1d3
131
f02
133
100
f02
01f
01f
e92
163
01f
4b1
d32
363
102
dc3
181
f12
1d3
ef0
01f
150
c01
492
c43
172
01f
000
01f
01f
e90
3d1
132
280
102
2d3
390
2e1
3d3
d61
153
d80
103
01f
01f
ec3
01f
3b0
ee1
3a3
e60
ef2
733
01f
e32
e93
120
f03
01f
c40
ec1
df3
01f
e43
000
153
01f
01f
190
e52
110
2b0
01f
01f
f10
01f
290
01f
150
01f
f00
01f
f13
01f
01f
000
01f
01f
e93
e11
e52
da0
1c2
1b0
cf2
2a0
e41
1a2
e83
01f
01f
e63
01f
210
d91
dc2
160
e31
202
163
160
3c1
1a2
ed0
01f
502
333
103
ec3
000
01f
01f
4a2
da0
e11
1e2
c90
161
1b2
1c0
e11
e52
f03
01f
01f
01f
01f
01f
ed2
e33
dd0
e12
1f3
01f
d80
191
c82
100
01f
2b0
111
c62
323
f12
100
000
0f3
01f
ee1
e81
f12
cb3
0f0
e91
153
171
e63
0f0
01f
01f
01f
01f
01f
d61
01f
2b1
173
01f
01f
ee1
2b3
01f
01f
000
f02
01f
260
e83
220
1e3
303
e30
2d3
f00
1f3
01f
01f
ef0
123
01f
dc0
e22
663
dc3
01f
ce0
0f2
193
01f
230
352
ee3
1a3
000
01f
01f
192
01f
d80
150
f01
d32
f13
01f
01f
01f
01f
01f
da1
d62
1f1
f03
ee1
f13
f10
01f
e60
321
252
01f
01f
000
ee2
01f
e71
120
ee1
e43
1d0
01f
170
eb3
01f
01f
0f2
01f
1d0
cb1
df3
d71
e33
01f
5c1
393
01f
01f
0f1
ec2
01f
01f
000
01f
01f
262
e63
e31
c82
e43
122
de1
da3
01f
01f
01f
f01
01f
e70
eb1
ed2
d83
542
153
01f
161
01f
01f
221
1d2
7f3
0f1
0f2
163
01f
000
01f
01f
1b1
f12
f03
1c1
f12
c00
251
320
132
0f1
df2
01f
01f
01f
01f
e60
191
dc2
dc0
df2
01f
490
ea1
372
e50
ef2
01f
d40
ec1
ea2
01f
01f
000
01f
01f
1e3
171
3c2
263
eb0
271
e02
e03
e90
d43
01f
01f
ef0
122
f13
01f
e70
171
292
e51
272
111
0f2
f10
201
122
01f
1a0
bb1
e13
01f
01f
000
f03
01f
331
162
113
201
1f3
150
0f3
01f
231
e62
ea3
01f
01f
143
01f
140
1a1
0f3
300
1c2
3b3
161
e21
dd2
d23
01f
01f
e11
d13
01f
ef0
000
01f
01f
261
ea0
211
de2
ed0
313
210
e11
d90
133
01f
01f
01f
01f
cf0
dc1
263
e02
1e3
e90
370
d71
233
e80
01f
e40
1f2
01f
eb0
000
01f
01f
3b0
141
172
01f
d30
eb1
130
151
160
e61
01f
01f
01f
01f
f00
e41
320
311
ed1
d00
ee2
f13
f01
01f
e00
e21
f12
01f
01f
000
ee2
01f
140
2f1
ea2
123
211
d73
661
c12
e71
1b2
1b3
dc1
e73
01f
01f
121
142
01f
401
d33
2b0
c72
183
ec3
e00
f11
ee2
393
1e1
eb3
01f
ae1
352
01f
142
eb3
000
01f
01f
291
1c3
e62
dc1
192
103
da2
e53
221
ef3
01f
01f
f12
01f
f13
01f
0f1
eb0
e01
142
ed1
01f
142
112
01f
000
162
01f
f00
0f2
210
dc1
bb2
0f3
450
cb1
1a1
243
e60
1b3
01f
01f
01f
01f
3e0
db2
383
c81
162
e83
f01
472
160
01f
e70
181
01f
113
000
01f
01f
ec1
390
dc3
270
e21
d43
2b1
123
1d0
01f
01f
113
01f
0f0
2e1
103
100
c41
c33
01f
171
e23
01f
01f
120
f00
ec1
121
183
000
ed0
01f
e30
131
ed2
193
1e0
d41
212
312
ea3
352
1e3
352
e03
01f
01f
0f1
01f
170
632
d93
291
f12
1e3
112
ec3
f00
243
e83
01f
280
d73
ec2
102
f03
000
eb1
0f2
01f
e90
2e2
1b0
201
ee3
320
5b2
153
100
ee1
c02
100
e72
1e3
01f
01f
ed0
01f
270
d01
122
193
1a0
2e1
01f
170
e51
1f2
182
01f
1f0
203
01f
f00
000
e51
1b2
ef3
3d2
e23
100
ed1
482
123
01f
e93
e90
e83
150
213
1a1
1c3
d51
232
133
411
203
01f
130
402
111
1f3
172
103
1f2
ec3
100
1d1
d41
e12
e83
273
1b0
4b1
3f3
000
da0
d90
d31
3c3
d31
243
01f
ed0
181
ef0
f01
363
e81
193
1e0
f11
111
ba3
440
381
122
dc3
01f
ea0
e73
160
f11
01f
e80
131
112
373
dc0
2d1
ee0
f01
1b3
330
231
d03
260
1f1
df3
000
01f
210
e40
01f
01f
ef0
01f
01f
d00
ed0
01f
0f0
0f2
01f
01f
01f
170
122
01f
01f
d70
f02
330
102
000
1b0
152
113
170
e51
d22
4a3
e81
243
01f
242
ea0
df2
e71
232
01f
e30
1f1
e32
e30
e02
d83
01f
340
203
212
01f
120
eb1
ed2
1b3
2a0
e01
212
eb0
3b1
232
da3
ec1
d40
171
1d2
0f3
420
e01
f02
c03
000
ee0
300
e62
ec1
ea2
213
01f
ec0
131
160
ea1
de0
eb2
223
01f
300
112
d40
f11
552
ef3
01f
300
101
dd0
ed1
223
132
f11
232
de0
c50
1b1
280
131
e70
312
ea3
000
01f
120
e71
df3
01f
eb1
1f3
e33
e01
e73
01f
ef0
2f1
113
e93
01f
1b3
ec1
df3
01f
01f
c81
eb0
251
1b3
01f
ef0
283
df1
e73
000
ce3
330
2f3
250
102
c73
01f
01f
0f0
1a0
212
e93
01f
172
ee3
380
ef3
01f
ed3
220
232
df3
340
ed3
d03
e50
202
d73
253
ee3
eb2
000
112
db2
1b1
01f
122
f10
ec2
261
292
1b3
100
eb1
202
eb3
01f
1a0
e81
f02
251
2c2
01f
01f
101
112
100
102
f02
f00
190
f11
000
101
1d0
dc1
e82
e33
ea0
ef1
e83
01f
01f
eb1
e83
ed1
122
d50
2a1
1b3
ee0
132
01f
01f
01f
ea0
e91
e93
dd1
142
eb3
ef0
521
e52
353
df1
ed3
e40
141
173
ea1
152
eb3
000
151
122
173
0f1
c42
273
183
01f
222
143
1b2
100
f02
263
ef2
e82
f10
ed1
c62
d53
01f
191
1f3
dd2
223
01f
e02
4c2
0f2
162
191
0f2
133
e01
e12
ca3
000
170
ea0
191
dc2
e81
01f
01f
f10
e80
e92
01f
3c0
e71
262
0f0
151
01f
230
01f
180
ee2
da2
420
342
eb0
ed2
e30
ed1
2b0
111
e12
000
01f
1b0
d01
b12
e23
1c0
113
01f
192
eb1
ec1
ef3
121
102
160
261
ec2
183
3e1
453
01f
231
102
1d1
163
0f0
e32
121
312
e60
e73
0f0
161
302
363
e50
671
1f2
163
000
100
450
ee2
d63
130
e41
132
4c3
01f
ef3
1b0
1a2
2b3
193
173
db0
e31
d90
291
123
01f
f12
1f3
173
181
e92
ef3
1a0
201
152
3a3
ef0
dc3
150
ec0
f11
f02
133
e10
4d1
213
000
01f
e60
f01
122
111
e92
e93
01f
153
190
eb0
231
e82
e60
2e0
182
ce3
341
ee2
ed3
01f
ef1
142
eb0
261
e72
eb3
01f
e80
181
ea0
133
3e0
0f3
01f
ef0
152
cd0
121
e82
000
220
181
d70
ea1
ec2
1e0
261
01f
01f
2e1
01f
f11
f12
171
d91
01f
3c0
f11
e91
290
0f1
140
ea1
162
490
1c1
f10
181
172
140
e21
680
d01
122
f13
000
100
ee1
ec2
0f0
991
cc3
290
01f
01f
1c0
1c3
eb1
132
e73
151
e73
3c2
2b3
eb0
681
eb2
e73
01f
120
ec1
ea3
e60
182
e43
171
ea2
e73
210
311
c12
e21
4c3
182
401
ef2
eb0
3c1
ec2
c13
000
f10
191
122
e61
ec3
01f
f00
143
ef1
ef2
01f
f00
143
211
f12
153
01f
291
132
ed0
e72
171
181
163
251
ef1
233
01f
ec1
232
193
f00
511
e82
000
db0
ed1
162
e23
da0
271
b72
313
e22
d53
01f
e61
172
ea3
ed0
dd1
e12
ec3
1c0
ee1
e82
401
202
3b0
ec1
ed2
e43
01f
e70
151
ef3
110
d81
e32
ee3
df3
ec0
e12
c51
d63
d90
552
e73
171
ed2
1c3
330
132
e03
2a0
d41
d42
ee3
000
e31
e83
1a0
2d1
cd1
da3
01f
eb1
e43
01f
2b0
d61
de3
01f
ca0
211
283
130
01f
e40
300
dd1
d93
ed0
ec1
f13
130
ef1
e43
0f0
ad1
bf3
131
e43
1e1
1c3
f00
de1
120
e01
e23
000
e70
101
df2
1a3
cc1
6a2
e63
130
c22
263
01f
151
273
230
ee2
110
e83
d52
343
e81
db2
f03
01f
e42
f13
280
eb1
ec2
f03
f00
d12
123
e41
e93
231
d92
e50
e82
3d3
282
130
cb2
e83
e92
d53
000
01f
650
cb2
103
341
cc2
e63
01f
ee0
1e2
113
141
d72
f03
3a1
f02
01f
ce0
de1
ea3
ec0
ec1
452
e83
01f
ea1
1e1
ee0
102
210
191
132
dc0
1e2
120
e12
5d2
dc0
e71
292
000
ee2
de3
1b0
eb1
162
ed3
1d0
ef1
283
e31
382
bd3
171
de2
01f
101
f13
462
eb3
162
153
2b2
f11
1e2
ca3
01f
e30
1b1
e02
3b3
d22
1d3
01f
01f
e90
e81
2b2
e53
01f
161
4f3
ef1
e52
000
d80
253
cf0
e53
ef0
ed1
1f3
d80
1c1
d03
e21
1c3
01f
1b1
e10
db1
ee2
140
ee3
ee1
ee0
2c1
d73
01f
5b0
f01
ea2
2b3
130
ed1
da3
01f
0f3
121
01f
460
d71
f02
153
f00
381
000
1c0
ef3
290
122
112
f03
e00
01f
01f
01f
ec2
01f
01f
dc0
e92
01f
d80
ec0
01f
01f
e10
f02
01f
ec0
e30
df2
000
ec1
350
0f2
e63
100
e61
352
f03
df0
2b3
ea1
ef2
ef3
01f
ee1
ea2
ef3
693
01f
eb2
243
cf0
111
122
173
01f
d70
0f2
e93
ef0
dc1
ec2
c73
0f2
f13
e20
283
01f
e10
d10
271
382
000
170
111
d70
ef1
ed2
2c3
100
232
1b3
200
ed1
eb2
eb0
ef2
e41
372
4a0
d32
173
180
120
153
2e2
01f
e70
111
c52
f13
3c0
ec1
ee2
df3
01f
01f
2b0
142
01f
f01
df2
133
d90
131
1a2
000
0f0
123
01f
e61
e13
01f
ef3
01f
e63
120
0f1
01f
e73
01f
01f
163
ec0
0f1
143
01f
01f
01f
01f
e63
0f1
233
000
3e3
ea0
dc3
190
392
e33
430
d63
112
3f3
f10
300
350
3f3
113
200
ee3
3c0
112
d23
01f
bb0
e52
1c3
d60
5b3
01f
193
2f0
01f
132
203
1a0
222
df3
000
01f
1c0
351
392
192
143
01f
f12
ee3
172
ed0
eb2
01f
01f
e60
242
01f
e22
e82
0f2
123
01f
ea0
01f
141
e60
312
000
180
ea1
dd2
01f
0f1
e83
dc0
ea2
e11
e73
171
ef3
100
eb2
01f
01f
ed0
191
01f
f10
1c2
ee0
ce1
de3
131
01f
01f
01f
01f
311
243
000
f00
01f
170
ec1
f02
323
161
243
e71
162
ed2
ef1
dd2
ea3
201
c02
433
153
eb2
103
203
01f
f00
4b2
e01
153
01f
191
1e3
01f
ed1
ee2
101
0f2
1f3
000
e60
1e1
e52
360
f10
ec2
f10
ea0
f02
1f0
0f1
e70
01f
01f
e40
112
01f
e11
e40
e61
df2
01f
01f
e00
01f
f10
ee1
131
182
000
c01
d82
ca3
ed0
2d1
f02
de3
e61
db3
220
e81
e82
1e3
f03
ee0
141
ea2
e72
123
210
d51
de2
01f
130
0f1
113
140
e61
1f3
01f
e90
291
582
1c3
e20
f03
01f
01f
1f0
e01
213
01f
181
202
153
df1
152
000
121
d03
ee0
261
e62
103
dc3
192
103
eb2
ee3
ef0
281
390
f11
ed2
ae3
01f
0f0
ea3
01f
cd1
132
5a3
ea0
f01
212
113
01f
01f
0f0
ef1
162
01f
de1
162
463
de3
000
e70
102
163
01f
ee0
341
ea2
181
ed3
01f
100
f01
291
ed3
e81
1c3
ec0
ef3
241
01f
d11
112
1a3
e00
ee1
1e2
01f
113
101
01f
01f
130
211
132
000
e90
e51
470
170
01f
121
01f
170
f01
b40
c81
ec2
ea1
01f
f00
ef1
0f2
01f
231
ea2
f01
01f
01f
ed0
0f1
0f3
01f
e40
111
e92
d00
0f2
000
f00
ce1
1c2
d11
f12
f00
dd1
2a2
e93
01f
2d2
ef0
ef1
103
121
ef3
db0
c41
1d2
de3
112
eb3
01f
133
01f
180
661
d62
253
131
432
da3
0f2
103
1f0
122
01f
0f0
241
2b2
ee0
181
233
000
f12
341
e32
123
e92
e83
01f
271
e72
cd1
142
01f
01f
193
01f
d21
192
e82
f13
01f
01f
ef0
e61
122
1c3
01f
da1
e93
ed1
233
000
e10
141
3c3
d10
ee1
ef3
e90
da1
df2
ef3
ea0
131
e33
151
f02
2b3
102
e32
ee0
361
de2
353
0f0
ee2
e92
d73
01f
460
302
0f0
291
dd2
333
01f
0f2
143
211
01f
2c0
e82
103
352
000
1c0
321
153
01f
3f0
dd1
e93
eb1
2b1
233
ec3
250
0f3
250
381
0f3
113
01f
d71
d53
01f
d20
e50
3f1
403
01f
101
f00
133
01f
151
103
1b0
000
5c2
e23
e20
eb2
2d0
f02
d72
180
3b2
01f
ec1
e11
642
c93
ec3
e82
d72
01f
140
211
df2
233
1e0
302
de3
01f
142
ef2
01f
330
133
ee2
000
1d0
e62
253
e30
e82
551
e62
1b0
ea1
1d2
cd2
f01
01f
7f0
0f3
112
230
ee1
2e2
01f
d90
2c2
d70
e92
153
01f
133
162
01f
291
3c2
193
000
