1d42
1b43
1ca6
1bc7
1bc8
1c4b
1bcc
030e
0331
0512
0454
0355
1c60
1cc5
1d4a
1d30
1d0c
1c42
048c
048d
0551
05b2
0333
1d15
0577
02d8
1d2e
1cf0
1b73
0397
1d18
0560
0481
04c5
0426
1cad
1d2e
1c71
1d52
1cf6
1cb7
02c4
04c5
1b46
042a
1c6b
1d50
1cd3
1d35
02c1
1b63
03c5
04a6
1d28
03eb
02f7
0000
