1b60
19a1
1d02
0424
1ba5
0467
1b09
036a
03cb
1a8c
18cd
1b2e
1931
1b72
1c73
1af4
19f5
1ad6
1c77
1a40
1b05
1d06
1be7
1d28
0354
1b18
003f
1c60
1c81
0363
0364
1a45
1a07
02e8
0749
03cb
190c
046e
046f
0550
1bd1
03b3
03f4
03f8
1b80
0362
05c3
1b8a
178b
198c
1a6d
1c6e
1911
1d32
1cb3
1d36
1ba3
1d28
03a9
1c0b
034d
056e
0531
0552
04f4
09d5
0896
1a58
19e0
0702
03e3
09a6
0727
05eb
1d4f
1bf0
19b4
0456
1c78
1d01
1d02
0923
0804
0ae8
0629
030c
092d
03d0
0832
1cb3
0335
1b58
0000
