0049
1fca
1fcb
008d
004e
1fcf
1fb4
1f95
1fb6
1fc2
1fc3
1fc4
0046
1fa8
004a
008b
1fcd
004f
1fd1
1fd6
0040
0041
1fcb
1fcc
1fd0
1fb1
1fd3
1fd6
1fd7
1fb8
1fc2
1fa5
1fa6
1fc7
1fca
1fab
1f8c
1fcd
1fb0
1fb1
1fd2
1fd3
0047
1fd0
1fd6
1fc0
1fa5
004d
1fd6
1fd7
1fd8
1fa0
0042
00a3
0044
00a6
00a7
0068
1fc9
1fcd
1f6f
1f90
1f91
1fb2
1f96
1fc8
1f89
006b
004c
1fce
0070
1fd3
0057
0000
