0044
1fc6
1fc7
0048
0049
1fcb
1fc6
1fa7
1fa8
1fcb
1fcc
1fad
1fce
1fd2
0054
0075
1f81
0043
0044
1fa5
1f86
1fa7
1fa8
1fa9
1fca
1fab
1fac
1fad
1fce
0052
0075
0076
0077
1fc1
1fc6
0068
1fcb
1fce
1fb0
1f91
1f92
1fd5
1fd6
0058
0047
1fca
1fcd
1fcf
1fd1
1f92
1fd3
1fb7
1fb8
0041
0043
1fca
1fcb
004e
1fa2
1fa3
1fc4
1f88
1fa9
006a
004b
0051
0092
0053
0055
0056
0057
1fc2
1fc5
1fa6
1faa
1fab
008c
00ad
1faf
0050
0091
1fd3
1fd4
0055
0096
0000
