0045
1fc8
006a
00ab
006c
1fcd
1f92
1fb3
1fd6
1fb7
0061
1fc2
1fa3
1fc4
0046
1fa8
1fcb
1fcc
1fad
1faf
1fd0
0056
0061
0043
1fd5
1fc0
006a
1fcd
006f
0090
1fd3
0054
0095
0096
0077
0050
0071
0096
0057
1fd4
1fc1
1fc2
1fa6
1fc7
004a
1fac
006f
1fd1
1fc0
1fc1
1fc2
1fc3
1fa4
1fa5
1fc6
0049
1faa
004c
008d
00ae
1fcf
0052
0053
0055
0056
0057
0000
