fe0
031
fe3
fe1
022
01f
01f
fe1
fe0
fe1
022
043
021
fe0
fe1
032
020
fe1
fe2
fe3
fe1
fe2
033
fe0
052
023
050
fe2
fe3
01f
fe0
fd1
032
01f
fe1
fe2
fe1
023
fe1
042
fe0
021
fe2
fd3
000
01f
fe0
fe1
fe2
01f
01f
fd1
fe3
fd0
fd1
fe3
021
040
022
fd0
fe2
023
042
fe3
fe0
051
fe2
023
fe0
fe1
fe3
fe0
fe3
fe1
fd2
01f
fe0
fe1
fe3
01f
070
041
fe0
023
fe2
053
000
01f
050
fe1
01f
01f
041
030
fe1
fe0
fd1
fe0
fe0
01f
030
fe0
031
01f
050
fe1
01f
fd1
fe0
01f
01f
000
053
01f
040
041
fe3
061
fe3
043
01f
fd0
fd2
fe3
fe0
fe1
032
fe3
020
fe2
fe2
020
01f
01f
021
fe2
fe0
021
fd2
fc3
fe0
fe1
fe2
fd3
040
fe1
062
fe3
01f
01f
000
fe3
01f
fe1
022
fd3
01f
fe0
fe2
fe1
fe3
01f
020
fe1
fe2
033
030
fe2
043
01f
020
01f
fe0
fe2
fe3
fe1
fe3
040
fd3
021
fe3
fe0
051
022
fe2
fd3
022
fe3
000
fe0
01f
fe0
fe0
01f
fe0
01f
01f
fe0
fe1
01f
01f
fe1
fe0
021
021
fe1
030
fe1
01f
fe0
01f
01f
000
01f
fe0
023
01f
fe1
fe2
fe3
01f
fd1
031
021
fe3
fe0
fe0
fd2
053
fe0
fe0
033
01f
fe3
01f
fd0
fd1
fe2
fe3
fe0
031
052
fd3
01f
060
fd2
01f
000
01f
fd0
fd1
043
01f
fd2
fe3
01f
031
fd2
fd3
01f
01f
fe0
fe1
041
fd2
fe3
fe1
052
fe0
fe1
fe3
fe0
fe1
043
021
fd2
033
01f
01f
050
fd1
fe2
fe3
020
01f
fe0
fe2
01f
000
01f
fe0
fe0
060
01f
fd0
041
01f
01f
021
fe1
01f
051
fe1
fe0
01f
01f
fe0
071
fc0
fe1
01f
01f
01f
000
fe0
fe1
fe3
022
fe3
01f
fe1
fe1
033
fe1
fe2
033
01f
020
fe1
fe2
fe3
01f
01f
fe0
fe3
01f
061
fe2
fe0
fe1
022
fe3
fe0
021
fe2
023
fc2
fd3
030
021
fe2
020
fe2
033
01f
01f
000
053
fe1
032
fe3
01f
fe2
fd0
022
fe3
fe0
020
021
032
01f
01f
032
01f
fe0
020
fe0
021
022
fe3
fe1
fe3
01f
020
fe0
fe1
fe2
fd3
fe2
fe3
fe1
000
01f
fe0
fe1
01f
020
020
fe1
030
fe1
01f
fe0
01f
01f
01f
01f
01f
020
fe1
fe0
fe1
060
01f
01f
031
fe0
01f
000
