0049
1fca
1fcb
008d
004e
1fcf
1fb4
1f95
1fb6
1fc2
1fc3
1fc4
0046
1fa8
004a
008b
1fcd
004f
1fd1
1fd6
0040
0041
1fcb
1fcc
1fd0
1fb1
1fd3
1fd6
1fd7
1fb8
1fc2
1fa5
1fa6
1fc7
1fca
1fab
1f8c
1fcd
1fb0
1fb1
1fd2
1fd3
0047
1fd0
1fd6
1fc0
1fa5
004d
1fd6
1fd7
1fd8
1fa0
0042
00a3
0044
00a6
00a7
0068
1fc9
1fcd
1f6f
1f90
1f91
1fb2
1f96
1fc8
1f89
006b
004c
1fce
0070
1fd3
0057
0000
0045
1fc8
006a
00ab
006c
1fcd
1f92
1fb3
1fd6
1fb7
0061
1fc2
1fa3
1fc4
0046
1fa8
1fcb
1fcc
1fad
1faf
1fd0
0056
0061
0043
1fd5
1fc0
006a
1fcd
006f
0090
1fd3
0054
0095
0096
0077
0050
0071
0096
0057
1fd4
1fc1
1fc2
1fa6
1fc7
004a
1fac
006f
1fd1
1fc0
1fc1
1fc2
1fc3
1fa4
1fa5
1fc6
0049
1faa
004c
008d
00ae
1fcf
0052
0053
0055
0056
0057
0000
1fcd
1fce
1fd0
1fd1
1fb2
1fd3
1fd6
0042
0086
0087
004a
008b
004c
1fd5
1fd6
0045
1fd0
1fc6
003f
0042
1fca
1fc0
0041
0062
0063
0064
0046
0048
1fcc
1fcf
1fb0
1fd1
1fd2
0055
0040
0042
1fc4
1fc8
0052
0057
0000
1fcb
004d
004e
1fcf
1f90
1fb1
1fd3
0057
0058
0041
1fa3
1fa4
0045
1fc7
1fa8
1fcc
004e
0052
0053
0057
0078
0043
1fcb
1fce
1fcf
1fd1
1fd2
1fd3
1fd6
1fd7
1fd8
1fc1
1fc2
1fc6
1fc7
1fcc
1fad
1fce
0055
0056
0057
0058
0048
1fd1
1fc0
0066
1fc8
1f89
1fcd
1fd0
0054
1fc0
1fc1
1fc2
1fc3
1fa4
006b
00ac
008d
004e
0050
1fd6
0000
1fc0
1fa4
1fc9
006b
004c
0051
1fb4
1f95
1f96
0060
0045
1fc7
1fcc
004d
1fd0
1fd1
0053
0058
1fc1
0048
0048
0049
004d
006e
004f
1fd1
0074
0055
1fc7
0050
1fd2
1fd7
1fd8
0041
1fc3
1fc7
1fc8
1fd6
1fd7
0046
1fd0
1fd1
1f94
1fc5
1fc6
1f87
1fa8
1fca
1fab
1f8c
1fcd
1fd0
1fb1
0054
0000
1fc1
1fa2
1fc3
1fc5
1fc6
1fc9
006a
006f
00b0
00f1
00f2
1fd4
1fd8
1fc2
1fc3
1fc4
1fc5
1fa7
1f88
1fa9
1fca
1fab
1fac
1fad
1fae
1fcf
1fd0
1fd1
1fd2
0045
0066
0087
0068
0049
1fce
1fd1
1fc4
004d
004e
1fcb
0053
0055
1fa5
1fa6
1fc7
1fc8
1fca
1fcb
0052
0054
0055
0040
1fc6
1fc9
004a
00ab
00ac
004f
0050
1fd2
1fd3
1fd4
1fb5
1fd6
1fd7
1fc5
1fc6
0068
0069
1fca
004c
006d
004e
1fcf
0072
0053
1fd6
0000
