1fc1
1fc4
1fc6
0040
1fa1
1f82
1fa3
0045
00a6
1fc8
1fc9
004a
00eb
00ec
1fcd
0091
1fd4
1fd5
006b
004d
0050
0051
0056
1fc1
1fc6
0049
004a
1fcb
004d
0051
00b2
0053
00b7
0078
0042
0068
0049
1fca
1fcf
1fd2
0055
0056
1fc0
1fc1
1fa2
1fc4
1fc6
1fa7
008a
004b
006f
00b0
1fd5
1fd7
0041
0082
00c3
00a4
0047
00a8
00c9
1faa
1fab
1faf
1fb0
1f91
1f92
1fd4
1fd5
1fd6
1fa0
1f81
1fc5
1fc7
1fcb
1fcc
1f94
0000
