1fcd
1fce
1fd0
1fd1
1fb2
1fd3
1fd6
0042
0086
0087
004a
008b
004c
1fd5
1fd6
0045
1fd0
1fc6
003f
0042
1fca
1fc0
0041
0062
0063
0064
0046
0048
1fcc
1fcf
1fb0
1fd1
1fd2
0055
0040
0042
1fc4
1fc8
0052
0057
0000
