0044
1fc6
1fc7
0048
0049
1fcb
1fc6
1fa7
1fa8
1fcb
1fcc
1fad
1fce
1fd2
0054
0075
1f81
0043
0044
1fa5
1f86
1fa7
1fa8
1fa9
1fca
1fab
1fac
1fad
1fce
0052
0075
0076
0077
1fc1
1fc6
0068
1fcb
1fce
1fb0
1f91
1f92
1fd5
1fd6
0058
0047
1fca
1fcd
1fcf
1fd1
1f92
1fd3
1fb7
1fb8
0041
0043
1fca
1fcb
004e
1fa2
1fa3
1fc4
1f88
1fa9
006a
004b
0051
0092
0053
0055
0056
0057
1fc2
1fc5
1fa6
1faa
1fab
008c
00ad
1faf
0050
0091
1fd3
1fd4
0055
0096
0000
1fc1
1fc4
1fc6
0040
1fa1
1f82
1fa3
0045
00a6
1fc8
1fc9
004a
00eb
00ec
1fcd
0091
1fd4
1fd5
006b
004d
0050
0051
0056
1fc1
1fc6
0049
004a
1fcb
004d
0051
00b2
0053
00b7
0078
0042
0068
0049
1fca
1fcf
1fd2
0055
0056
1fc0
1fc1
1fa2
1fc4
1fc6
1fa7
008a
004b
006f
00b0
1fd5
1fd7
0041
0082
00c3
00a4
0047
00a8
00c9
1faa
1fab
1faf
1fb0
1f91
1f92
1fd4
1fd5
1fd6
1fa0
1f81
1fc5
1fc7
1fcb
1fcc
1f94
0000
1fc3
1fce
1fc2
1fc3
004b
004c
1fce
0050
00b1
0052
0056
0057
1fa1
1fc5
1fa6
1fc7
1fc8
1fca
1fcb
1fac
1fcd
1fcf
0042
0063
0068
006d
1fd5
1fd6
1fd7
1fa0
1fc5
004c
0050
0051
0061
0042
1fca
1fcf
1fd1
1fd6
1fc1
1fc2
1fc3
1fc4
1fc6
1fc7
1fc8
1fcc
006e
1fd4
1fa1
0044
1fc6
0048
006c
004d
0091
0075
00b6
0000
0064
1fc6
0049
1fc3
004c
1fd1
1fd2
0054
0055
1fd7
1fa1
1fc7
1f88
1f69
0051
0052
0053
0055
0056
0040
1fc3
0089
1f92
1fd3
1fd7
0040
0061
0065
1fcb
1f8c
1fad
1fce
1fcf
1fb0
1f71
1fb2
1fb3
1fd4
1fd5
1fb6
0052
1fd4
1fd5
1fd6
0064
1fcc
1fae
1fcf
1fd0
004d
004e
0051
0054
0055
1fd7
1fb8
0000
1fc5
0048
1fca
1fcb
1fd0
1fd1
1fd2
1fa0
1fa1
1fc2
1fc5
1fc6
1fc7
0049
006b
004e
0070
0051
0055
0042
0063
1fc5
1fc6
0048
1fca
1fcb
1fcc
1fcd
1fce
1fd1
1fd2
1fd3
0046
0047
1fc9
004a
004b
008c
004d
0070
00b1
0092
0076
0057
1fc1
0065
1fc7
006a
004b
00af
0070
00d4
0075
1fc3
1fc4
004b
1fd8
1fc4
0048
1fcf
1fb0
1fd1
1fc0
1fcd
1fd1
0055
0058
0000
008d
008e
1fd0
0042
0043
1fc5
0047
1fcb
1fcd
1fcf
1fb0
1f91
1fb2
1fd3
1fd5
1fb6
1fd7
1fd8
0047
0088
0069
004c
004d
004f
0050
1fc1
1fa2
1fc6
1f87
1fa8
1fcb
1f6c
1f6d
1fce
1f91
1f72
1fd3
0058
1fc0
1fa1
0045
006d
006e
1fb1
0053
1fd6
1fd7
1fc0
1fa5
1fa6
1fc7
1fc8
1faa
1fcb
006f
0050
0051
0052
0074
00d5
00f6
0077
0067
0088
0049
004c
1fae
1fd3
1fd5
1fd6
1fc4
1fab
1fac
1fb0
1fb1
1fd4
1f95
1f96
0000
