ff1
ff3
013
013
011
ff3
011
011
ff3
ff1
01f
051
ff3
021
fd1
01f
021
ff1
ff3
ff1
ff3
011
013
000
011
ff2
ff1
011
ff1
012
012
01f
011
fe1
011
011
012
01f
fe1
ff2
ff1
011
012
021
000
ff1
ff3
fe1
ff3
01f
021
ff1
01f
011
011
013
ff3
ff3
011
01f
ff1
011
011
ff3
01f
000
013
011
fe2
023
01f
ff2
023
012
023
fe1
ff3
ff1
012
ff3
031
012
033
021
012
fe1
022
fe3
011
012
021
ff2
013
ff1
012
022
013
000
ff0
ff1
ff0
ff3
011
010
ff3
ff0
011
013
ff0
ff1
013
ff1
013
010
ff0
011
ff0
010
ff1
020
ff3
01f
ff0
ff1
ff1
013
010
000
fe1
ff2
013
fe1
ff1
fe3
ff3
01f
011
fe3
ff3
011
012
011
ff2
012
ff3
012
ff1
ff2
013
ff1
012
013
01f
012
ff3
ff1
ff2
ff3
000
020
022
010
012
ff0
ff2
010
012
010
fe2
ff0
ff2
010
ff0
ff2
012
01f
012
010
012
032
020
012
010
ff2
01f
000
010
ff2
010
01f
012
010
012
01f
010
012
010
022
01f
ff0
fe2
010
012
022
01f
ff0
01f
000
ff0
fe2
013
ff0
fd2
023
ff2
022
ff3
ff2
ff2
020
ff3
010
032
ff3
010
fe2
010
fd2
ff3
012
ff0
ff0
fe3
010
ff3
013
012
fe3
000
020
012
ff3
010
012
fe3
ff1
012
ff1
ff2
023
012
ff3
ff1
022
ff3
ff0
ff1
fe2
011
012
023
ff1
012
ff3
ff0
ff1
012
010
013
010
ff1
ff2
013
ff0
013
fe3
ff1
013
000
01f
ff1
ff3
fe0
ff1
ff3
011
ff1
ff3
ff0
ff1
ff3
ff0
fe0
011
030
021
020
021
ff3
fd0
fe1
011
020
021
ff3
010
ff0
ff1
ff0
000
fe0
023
ff0
022
023
012
010
ff3
ff0
013
ff0
010
012
fe3
020
ff2
fe2
ff3
ff0
012
fe3
fe2
013
010
012
010
ff3
010
ff2
ff3
01f
ff3
000
ff2
013
ff2
ff3
ff3
011
ff2
013
01f
ff1
012
012
ff3
011
fe2
023
ff1
013
011
012
ff3
012
013
ff2
011
ff3
ff1
012
000
013
ff1
ff2
ff2
012
fe2
fe3
011
012
013
012
012
ff3
ff1
ff2
013
ff1
ff2
013
011
013
ff1
fc1
fe3
ff1
ff3
ff1
ff1
ff2
013
000
ff2
013
010
013
01f
ff0
012
ff3
ff3
010
012
ff0
012
fe3
ff0
ff3
010
ff2
fe0
012
013
010
023
020
013
01f
012
ff3
000
ff1
ff1
012
013
ff1
012
011
ff2
fe1
ff1
011
013
ff3
ff2
ff3
012
013
fe2
fd3
011
033
011
012
013
ff2
ff3
011
fe3
000
010
ff1
ff2
ff0
fe1
ff2
013
010
011
ff2
013
ff0
012
011
012
021
ff2
013
ff2
013
010
012
ff3
ff0
ff1
012
ff3
ff0
fe2
013
010
ff2
ff3
01f
010
011
012
010
012
010
011
013
ff3
000
fe0
ff2
ff0
012
ff2
010
ff2
ff0
ff2
ff0
010
012
010
012
ff0
012
012
010
fe2
ff2
010
010
012
010
fe2
000
011
021
012
011
022
ff1
ff2
011
021
fd1
ff1
031
fd2
031
ff1
011
ff2
041
ff2
ff1
ff2
ff1
011
012
000
ff1
ff3
021
012
011
ff1
ff3
01f
011
011
023
ff1
ff2
ff3
fe1
011
ff3
012
012
011
011
012
012
013
ff1
000
ff1
ff2
01f
01f
ff2
01f
ff1
ff2
ff2
ff1
012
011
012
ff1
fe2
ff1
012
011
ff2
01f
011
ff2
011
000
010
ff1
fe0
ff3
01f
ff0
011
ff2
013
ff0
ff1
ff2
010
012
ff3
011
010
ff2
013
ff0
011
ff2
ff0
ff3
010
011
013
ff0
ff3
ff0
ff1
ff3
ff2
ff3
020
010
fe2
ff3
000
010
011
011
012
010
021
01f
011
010
ff0
010
ff1
ff2
ff0
ff1
ff2
020
012
ff0
ff0
01f
010
021
fe2
000
ff2
ff3
ff1
011
ff2
fe0
011
012
ff3
011
023
010
021
ff2
023
010
011
fe0
013
ff0
012
020
011
ff2
020
021
012
013
010
012
ff0
fd1
022
ff0
ff1
010
011
023
010
011
012
033
000
011
ff2
ff0
ff2
ff2
ff3
ff1
ff2
fe3
010
ff2
010
ff1
ff2
013
011
ff2
ff3
010
ff1
022
010
fe1
020
011
fd2
010
ff0
fe1
022
ff3
fe1
010
fe1
fe2
013
010
ff2
000
ff0
012
013
01f
010
fe2
ff3
012
013
01f
010
ff2
ff3
012
ff2
ff3
fe0
012
013
01f
012
013
ff0
022
013
ff0
022
013
010
012
013
01f
ff2
ff3
000
010
021
ff3
021
023
010
013
010
011
010
fe0
ff1
013
ff3
ff0
ff3
fe0
010
021
ff0
fe0
011
013
ff1
ff0
ff1
ff0
ff3
000
fe0
011
fe0
01f
020
fe0
ff0
ff1
020
020
ff1
fe0
ff1
ff0
ff1
010
ff1
010
ff1
fe1
011
01f
fe1
000
ff0
ff1
010
ff1
010
013
010
021
ff3
ff0
ff1
013
fe1
023
010
011
ff0
011
fe3
fe0
010
ff1
023
ff0
ff3
013
01f
011
010
ff1
fe0
000
012
012
ff1
011
ff2
011
021
ff2
ff1
ff2
012
ff2
01f
011
ff1
ff2
fe1
ff2
01f
ff2
011
ff2
000
01f
031
013
ff1
011
fd3
ff1
023
fd1
013
ff1
fe3
041
011
013
021
023
061
ff3
011
fe3
011
013
023
01f
000
ff1
011
012
021
fe1
022
ff2
ff1
ff2
021
ff1
ff2
ff1
ff1
011
fe1
fd2
022
ff1
012
ff1
012
fe1
000
071
ff3
061
021
ff3
ff1
ff3
021
ff1
ff3
ff1
ff3
011
ff1
013
fd1
023
013
fe1
013
01f
013
013
011
000
011
ff2
ff3
043
032
023
021
ff2
fe3
ff2
fe3
fe2
ff3
fe1
ff1
fe2
011
fe2
fe3
011
ff2
ff3
ff1
fe2
013
021
fc2
043
ff2
ff3
fe2
ff3
ff1
fd2
ff3
000
011
010
fd1
ff0
fb1
fd0
fe1
013
011
010
fd1
013
ff0
ff1
ff0
031
020
011
ff3
ff3
020
021
ff0
021
ff3
010
ff1
023
01f
020
ff3
010
fe1
fd3
000
041
031
fd2
fe3
031
012
01f
ff2
013
fe2
ff1
fe2
ff3
ff2
fe3
ff1
ff1
ff2
ff1
ff2
ff3
ff1
ff2
ff3
ff2
ff3
ff3
01f
011
013
000
fe0
052
ff0
042
ff0
01f
010
032
012
ff2
020
ff2
01f
fd0
fd0
fb2
fc0
fc2
ff2
ff0
ff2
fc0
fb2
fc0
fd2
000
010
ff2
ff0
012
01f
ff0
ff2
01f
012
ff0
ff0
032
010
032
ff0
032
012
010
012
022
032
fe0
042
010
ff2
000
020
013
020
030
fb2
fb2
01f
012
013
010
ff2
013
ff2
022
ff0
022
013
022
fd0
012
023
010
012
020
012
ff3
ff0
022
ff3
013
000
010
011
fe2
ff0
011
012
023
ff0
ff1
012
011
022
fd3
010
011
fe2
011
013
fe0
ff1
022
ff3
fd0
ff1
ff2
fe3
010
011
ff2
ff3
020
011
022
023
012
013
ff0
ff2
fe3
ff0
fe3
ff0
ff1
013
022
023
030
011
ff2
000
fe0
fe1
ff0
011
010
031
010
fe1
ff3
ff0
ff1
ff0
011
011
010
021
fe0
011
031
010
011
ff3
ff1
020
ff3
020
031
010
021
000
ff0
ff2
fe3
010
fd2
fe3
ff0
013
fe0
ff2
013
ff0
ff3
fe2
ff0
ff3
012
fe3
010
fe2
fe3
ff2
023
012
013
012
063
fe2
ff3
ff3
033
012
073
000
ff1
012
ff3
011
fe3
fe2
013
ff1
fe2
013
ff1
012
fe3
ff1
012
fd3
ff2
ff3
ff2
fe3
012
ff1
022
ff3
01f
021
ff2
012
fe1
022
ff3
ff1
022
011
ff2
ff3
000
fe1
012
013
011
022
023
021
012
013
ff2
012
fe1
022
011
012
023
012
013
ff3
fe1
ff2
ff1
012
ff3
ff1
ff3
011
ff2
023
fe2
013
011
ff2
fe3
fe1
ff2
ff3
000
fb0
ff3
fd0
ff2
ff2
fe3
020
fe2
013
012
013
010
023
030
013
013
012
fe0
012
fe3
012
fe3
ff0
013
ff0
022
ff3
ff3
fd0
012
fd3
fd0
fd3
000
041
fc2
fe3
031
fd2
fe3
ff1
ff2
ff3
fd1
012
013
021
ff2
ff3
ff1
022
023
021
021
013
011
fd2
ff1
013
022
033
ff3
013
ff1
012
033
013
000
ff0
ff1
ff2
010
ff2
fd3
ff0
ff1
ff3
01f
ff0
ff1
ff2
010
011
ff3
010
ff1
fe0
fe1
fe2
023
fe0
ff1
010
ff1
fe2
ff3
010
011
013
fe0
ff1
042
01f
ff2
010
022
ff0
042
000
ff0
022
ff0
ff0
032
fd0
022
ff2
022
010
012
010
012
020
ff2
ff2
012
fd0
022
010
fe2
010
ff2
fe0
022
000
fe1
fd2
011
fd2
031
012
021
ff2
fe1
ff2
fd2
022
fd1
022
ff1
fe2
ff1
022
012
01f
011
ff2
011
ff1
012
022
000
011
012
ff1
022
ff2
ff2
013
011
013
ff3
011
ff3
01f
012
fe3
ff2
ff3
ff3
fe1
ff2
023
01f
fe1
ff2
fd3
ff1
fd3
000
fe1
ff2
011
012
ff1
012
ff1
ff2
011
021
012
ff1
011
011
ff2
011
ff1
011
011
012
ff1
fd1
012
000
fe0
041
012
023
020
021
023
040
012
ff3
ff1
012
ff3
ff0
021
ff3
010
ff1
012
ff3
030
ff3
011
fe3
fe0
ff1
012
013
021
012
013
fe0
013
030
ff2
ff3
ff1
ff3
fd0
023
fd0
013
000
ff0
fe1
020
ff1
fe2
020
022
010
022
ff0
010
012
020
ff0
011
fe0
010
011
fd0
fd2
ff1
ff2
ff0
ff1
010
fe2
ff0
ff1
000
ff0
ff1
072
ff3
010
fe1
062
ff3
030
011
022
023
020
011
ff3
ff0
ff1
022
fe3
010
fd1
013
010
ff1
ff2
013
012
fd3
ff0
ff1
fe3
010
ff1
ff2
ff3
fc2
013
fe0
ff1
fe2
fe3
020
021
ff2
fe3
020
fd2
fd0
fe2
ff3
fe0
ff2
013
000
ff2
013
ff0
ff2
ff0
fe1
022
ff0
fe1
022
fe0
ff1
fe2
013
ff1
ff2
013
fe0
ff1
ff3
fd0
fd1
ff0
ff1
ff2
013
011
ff3
ff0
fd0
011
032
ff1
023
011
012
013
fe0
021
042
ff0
021
042
fe3
000
fd0
022
023
fe0
032
013
fe0
012
013
01f
022
013
ff2
ff3
fe2
fe3
010
022
ff3
ff0
013
fd0
ff2
013
ff0
fe2
fd3
010
fb2
fc3
ff3
ff0
ff2
ff0
fd2
fd3
ff0
fd2
fe3
000
ff0
021
fd0
021
fc3
fe0
ff0
013
011
ff0
011
01f
010
ff1
033
ff0
ff3
020
021
020
013
030
ff1
ff1
fe3
ff0
ff1
040
ff1
ff3
040
021
000
ff0
fb1
fd1
fd0
fc0
031
010
010
021
010
030
020
030
010
020
ff1
030
011
020
011
ff0
011
000
01f
fd0
ff1
fe3
010
fd1
fd3
020
fd1
023
021
ff3
ff0
013
ff3
030
011
fe3
fe0
021
010
011
ff3
010
021
013
010
011
013
010
011
ff0
011
ff0
011
000
031
021
031
012
021
022
021
01f
011
011
ff2
ff1
ff1
012
011
ff2
fd1
ff2
011
ff2
ff2
01f
011
000
ff1
023
ff1
013
fe1
ff3
011
ff3
ff1
ff3
fe3
011
ff1
031
fe3
011
ff3
013
011
ff3
041
033
041
043
01f
011
ff3
000
011
fd2
fe1
ff2
ff2
ff1
fd2
031
012
011
fe2
011
ff2
011
fe2
ff1
022
ff1
012
021
012
011
ff2
fc1
022
fe1
022
ff1
fe2
011
ff2
000
fd1
fe1
ff1
013
011
013
011
01f
01f
ff1
013
ff1
ff1
fe1
ff3
fe1
01f
ff1
ff1
013
000
011
012
013
011
013
ff2
fe3
011
ff2
fe3
ff1
ff2
ff3
011
ff2
011
ff2
ff3
ff1
013
011
011
013
012
013
ff1
033
021
011
012
011
013
ff1
012
023
000
ff0
ff1
013
ff0
fe1
013
fe0
fe0
031
ff3
ff1
013
ff0
fe1
ff3
010
021
011
fe3
ff0
011
013
020
ff1
013
030
013
011
020
021
013
013
011
ff3
000
ff1
ff2
013
ff1
ff2
ff1
ff3
fe1
ff3
ff3
ff1
012
ff3
fe3
ff1
ff2
ff3
01f
ff1
ff1
ff1
ff2
ff1
ff2
ff3
fe1
013
ff1
ff2
013
fe1
ff2
fe3
000
ff0
012
010
012
020
012
020
022
010
012
010
022
01f
01f
01f
ff0
ff2
ff2
010
fe2
ff0
fe2
fd0
fc2
01f
fe0
fb2
000
010
010
022
012
012
012
010
022
01f
fe2
022
01f
ff0
ff2
fe2
ff0
022
fe0
012
ff0
ff2
ff0
012
000
ff0
ff2
01f
012
fe0
ff2
fe0
012
ff3
fc0
ff2
ff3
ff3
fe0
fe0
012
ff3
fd0
fe2
fe3
012
ff3
fe0
fe3
ff3
010
fe3
020
ff3
ff0
012
ff3
000
010
fd1
010
fe1
ff2
013
ff1
01f
031
032
010
021
032
012
013
fe0
ff1
ff2
021
032
011
012
ff3
ff1
013
ff0
023
fe1
012
013
013
010
031
ff0
021
022
000
ff3
010
011
ff3
010
010
ff3
fe0
fe1
fd1
010
ff3
021
010
011
ff3
fe0
021
011
ff3
030
021
020
051
020
011
01f
000
ff3
ff2
fe3
010
ff2
ff3
ff3
ff2
023
012
033
ff0
013
012
fe3
ff0
fe2
033
ff0
013
ff2
fe3
010
012
010
fe2
fe3
010
ff2
fd3
012
ff3
023
000
ff1
012
023
ff1
012
023
01f
01f
ff3
ff1
013
fe1
ff1
ff2
ff1
012
011
012
013
023
012
043
012
023
011
ff3
000
012
fe1
012
013
ff1
fe2
fe1
ff3
fe1
fd3
012
ff3
fe1
013
011
fd2
013
01f
011
012
fd1
ff2
ff1
fe2
ff3
fe1
ff2
ff3
fe2
ff3
ff1
fd2
000
023
010
033
033
ff0
023
ff0
ff2
ff3
ff0
ff2
ff2
023
ff3
01f
010
012
ff0
ff3
ff0
012
fd3
010
012
fb3
020
fe3
ff0
012
fc3
000
ff1
012
023
021
012
013
021
013
011
fe2
fe3
021
fe2
ff3
011
ff2
fe3
012
ff3
ff3
ff1
ff2
ff3
011
ff2
ff3
023
ff1
ff2
023
fe2
ff3
011
ff2
000
ff2
013
010
011
ff2
01f
ff0
ff1
030
011
ff2
fe3
010
ff2
ff3
010
011
fe2
ff3
010
011
fe2
023
fe2
fc3
fe0
ff2
013
ff2
011
022
013
ff2
fe3
020
ff1
013
030
ff1
012
010
022
000
ff0
fe2
010
ff2
020
012
010
01f
ff0
012
012
ff2
ff2
fe2
020
fe2
fe2
ff0
fe2
ff2
010
ff0
000
ff1
fe2
011
011
012
01f
021
012
011
022
031
011
011
ff2
011
022
041
fe2
031
fd2
fe1
032
000
013
013
ff1
012
ff1
012
ff3
ff1
012
ff1
012
ff3
fe1
ff3
011
fd1
fe3
011
013
011
ff2
013
01f
fe1
ff2
ff2
013
013
ff1
ff2
013
000
01f
011
012
011
012
021
ff1
ff2
ff2
011
021
fd1
012
ff1
ff2
021
fe1
012
022
ff1
012
011
000
010
011
013
030
011
012
020
ff1
013
ff0
ff2
013
010
ff2
fe0
ff1
ff2
ff0
ff1
ff2
ff3
010
ff3
fc0
fe1
fe2
013
ff2
013
020
ff1
ff3
020
fe1
ff2
ff3
fe0
ff1
013
fe1
ff2
ff3
020
ff2
020
ff1
000
ff0
ff2
ff0
012
010
012
01f
030
012
030
011
012
010
011
012
012
030
ff1
fe2
010
ff1
fe2
ff2
ff0
011
fe2
ff0
ff1
fd2
ff0
ff1
ff2
fd0
ff1
ff0
011
fd2
000
fe1
012
023
ff0
fe1
012
ff0
ff2
fe3
fd0
ff1
fd3
ff0
011
012
023
fd0
ff1
022
fe0
ff1
012
013
ff0
011
fe2
031
012
013
011
ff2
ff3
011
ff2
013
ff0
fe2
013
ff1
ff2
ff3
fd2
ff0
fe1
010
011
fd2
013
000
010
ff2
013
010
011
ff3
ff0
022
ff3
ff2
ff3
ff3
011
012
ff3
ff1
fe2
010
051
fe2
ff3
010
021
ff2
013
ff1
fe2
013
fe1
013
ff0
042
ff3
fe1
042
010
ff1
013
012
000
010
013
012
013
012
013
022
013
fe0
ff0
012
010
ff3
ff2
ff3
ff0
ff3
ff0
fe2
fe3
ff2
fe3
ff0
ff2
fe3
ff0
fe2
ff3
fb2
fd3
ff0
fe2
ff0
fd2
fd3
000
fe0
011
fe0
011
011
020
011
013
fe0
ff3
011
ff0
ff3
020
023
020
021
fc3
013
fd0
ff1
ff0
fe1
013
010
fe1
ff3
fd1
01f
010
fc1
000
ff0
fe1
ff1
011
011
01f
011
011
010
fe1
ff0
021
011
020
010
ff1
01f
010
011
021
01f
000
ff0
fe1
013
ff0
fd1
013
ff1
020
031
ff3
fd0
fe1
ff3
ff0
020
021
fa0
ff3
011
013
010
020
011
fe0
021
013
021
023
010
ff1
ff3
01f
000
fd2
ff1
fe2
ff1
ff2
fe1
031
022
011
012
01f
fe1
ff2
fe1
022
fe1
012
011
ff2
ff2
ff1
fe2
ff1
032
ff1
012
000
ff1
ff1
053
011
ff3
ff1
01f
011
033
011
013
ff3
ff3
ff1
043
033
01f
011
fc3
fd1
013
fc1
013
fd1
013
000
ff1
012
01f
011
012
ff1
012
fd1
fe1
ff2
01f
022
011
fe1
fe2
ff1
021
012
031
ff2
011
ff2
011
022
031
012
000
041
013
031
051
ff3
011
ff1
013
021
021
011
ff3
011
011
ff3
ff3
011
ff3
fe1
013
fe1
ff3
ff3
011
fe3
000
fd1
ff2
fc3
fe1
fe3
012
013
ff1
fd1
fe2
fd3
011
fe2
ff3
021
012
ff2
fe3
ff1
fe2
023
ff2
fe3
fd3
ff1
ff3
033
011
032
ff3
fd3
fe1
012
000
030
021
fd3
011
fe3
ff0
fd1
013
ff0
fe1
023
010
ff3
ff0
fd3
ff0
fd1
010
fd1
033
fe0
fd1
ff3
fe0
011
fe3
fe3
013
011
fd0
011
ff3
fe0
ff1
fe3
ff0
fe1
000
021
ff2
ff3
021
012
031
012
031
ff1
fe2
011
ff2
013
011
ff2
013
011
ff3
ff1
ff2
011
012
013
ff2
023
011
fe3
ff1
ff3
012
ff1
013
012
fe3
000
020
010
ff2
012
010
ff2
032
ff0
052
01f
fc0
fb0
fe2
fd0
012
fe2
fd0
fe2
ff0
fe2
012
fe2
000
fe0
fe2
ff0
010
022
ff2
ff0
01f
010
022
ff0
ff0
012
032
01f
ff0
ff2
012
010
ff2
ff0
fd2
000
020
042
040
012
030
012
ff3
010
fe2
020
012
013
010
01f
01f
030
010
ff2
013
030
013
010
012
fe0
012
023
fd2
023
020
fd2
ff3
020
ff2
013
000
ff0
031
fe2
013
ff0
041
ff3
ff0
010
ff2
ff1
ff2
023
010
031
ff3
ff2
ff1
ff1
ff3
ff1
ff3
020
ff1
fe2
fe3
ff3
011
022
fe3
ff1
fe3
ff1
012
fe3
ff1
ff3
000
ff0
ff0
01f
ff0
ff0
010
ff3
010
011
01f
fe0
fe1
ff3
011
011
01f
fe0
fe1
fe0
fc1
fe1
021
000
ff0
fe2
fe3
023
ff0
ff2
ff0
ff2
023
ff2
013
ff0
ff2
ff3
ff0
fe2
ff3
ff0
012
fe3
ff0
fe2
fe3
ff0
ff2
fe0
022
033
fe0
013
ff0
fe2
ff3
ff0
ff2
ff3
000
fc3
ff2
ff3
ff1
012
ff3
ff1
012
ff3
012
fd3
ff1
fe2
ff3
012
ff3
022
ff3
fe3
011
ff2
013
ff1
012
ff3
fe2
ff3
011
ff2
013
ff1
ff2
fe3
ff1
ff2
ff3
000
fe2
011
ff2
021
022
ff3
021
061
fe2
013
021
012
013
ff1
012
023
012
013
042
fe3
fe1
032
fe1
031
022
fe1
ff2
023
fe1
fe2
033
021
ff2
031
052
013
000
ff3
ff3
fe0
fe3
fe0
fe3
020
010
013
01f
ff0
012
020
013
ff0
fd3
020
01f
ff0
ff2
fd3
fe0
ff2
fe3
030
ff2
033
030
023
000
011
fe2
fe3
021
ff2
ff3
011
ff2
ff3
011
fe2
ff3
ff1
022
013
01f
021
ff2
ff3
011
ff2
ff1
013
fe1
012
033
01f
012
fe1
fd2
fb3
fe1
fe3
ff1
032
ff1
022
013
000
ff1
fd3
fe1
fe3
ff0
ff3
ff0
ff1
013
010
fe1
fe3
010
fe1
fe2
ff3
ff0
ff1
ff2
ff3
012
013
020
fe2
ff0
ff3
ff2
fe3
01f
010
011
022
033
fe0
ff1
012
ff3
ff0
fd2
fd3
fe0
ff1
fe2
fd3
000
040
012
020
042
012
012
020
fe2
010
ff2
020
ff2
010
ff0
fe2
fd0
022
012
010
012
fc0
012
fc0
022
012
020
022
000
fd1
fc1
fe2
fe1
fe2
fd1
012
012
011
fd2
ff1
fe2
022
012
fe1
fe2
ff1
ff2
011
042
011
032
012
ff1
ff2
000
ff1
fe3
012
013
011
ff2
013
ff1
fe3
fe3
011
013
011
023
021
ff3
021
ff2
fd3
011
ff2
ff3
01f
ff2
011
ff2
fd3
ff1
ff2
fe3
fd3
000
01f
01f
01f
ff1
ff1
012
012
ff1
ff2
011
ff2
01f
fe1
012
fd1
031
ff2
ff2
fe1
fc1
012
000
fe0
013
ff0
011
012
010
011
012
ff3
010
021
033
023
ff0
021
013
020
011
012
fe3
030
011
012
013
020
031
012
023
011
012
013
ff3
ff0
011
040
ff1
022
013
020
fe1
012
fc0
ff1
fd3
fd0
021
000
ff2
010
012
ff2
fe0
012
ff0
010
ff1
fe2
ff1
ff0
011
ff2
fd0
011
ff0
ff1
012
01f
020
012
010
ff1
012
030
ff2
01f
000
ff0
022
013
ff0
ff1
012
033
020
fe1
042
ff3
010
012
ff3
fe1
ff2
fe3
ff0
fe1
022
ff3
030
ff1
032
030
021
012
ff3
010
fd1
ff3
010
fd1
fe2
023
023
010
021
040
fe2
020
021
fe2
023
fe0
031
023
ff0
031
ff2
013
000
010
ff2
fe3
fe0
031
ff2
ff0
013
010
023
fe0
041
ff3
fe0
041
ff2
ff3
ff1
ff2
fe1
012
023
fe0
ff0
ff1
042
ff3
ff1
ff3
ff1
012
fd2
010
fe1
ff3
ff1
fd2
fe3
ff0
ff1
ff2
ff3
000
fd0
022
013
ff0
022
013
012
013
020
ff3
020
012
fe0
012
013
012
013
020
fe2
ff3
010
fe2
ff0
fe2
020
fe0
fe2
fe3
ff0
ff2
013
012
030
012
013
000
030
ff3
01f
fc0
ff1
fe3
ff0
ff1
013
040
ff3
010
021
fc0
011
ff3
fd0
ff1
013
010
ff1
023
010
ff1
033
fe0
021
ff0
fe1
013
020
011
013
010
011
023
ff3
fe0
ff1
ff3
000
020
011
010
021
010
ff1
ff0
ff1
020
031
021
010
ff1
fe1
01f
010
01f
fe1
011
fe0
fe0
011
fd0
000
ff0
021
fe3
021
fe3
fe0
fd1
ff3
fe1
013
011
fd3
011
fd3
ff0
fe1
ff3
010
fd1
013
030
011
020
011
ff3
fe0
ff3
ff3
030
023
030
ff1
fe0
ff3
ff0
ff1
ff3
000
011
032
011
032
041
011
fd1
012
021
ff2
011
ff2
01f
ff2
011
ff2
011
fe1
012
fe1
ff2
01f
011
ff2
000
ff1
fe3
ff1
ff3
011
033
011
ff3
fd1
ff3
fd1
011
023
011
ff3
fc1
ff1
ff3
ff1
013
ff3
ff3
ff3
fc1
ff3
fe1
000
fe2
011
fe2
011
022
fd2
fe2
fe1
fe2
fe1
012
ff1
fe1
012
022
011
022
01f
ff2
ff1
000
021
011
ff1
ff1
fe1
fe1
fe1
01f
011
fe1
011
021
01f
021
013
ff3
01f
000
ff3
012
ff3
011
032
ff3
ff1
fe3
ff1
012
ff3
011
022
023
022
ff1
fc2
ff3
ff2
013
012
013
ff2
fe3
ff1
ff2
013
032
013
011
022
fe3
021
fe2
fe3
000
ff0
011
ff3
030
ff3
011
010
ff1
ff0
013
fe1
ff0
021
ff3
ff0
ff3
fe1
013
ff0
ff3
ff0
ff3
ff0
011
ff3
ff1
023
ff0
023
fd0
ff1
ff3
ff0
011
ff3
000
ff2
01f
ff1
013
021
fe1
013
fe1
ff2
012
023
011
012
023
011
ff2
ff1
ff2
011
012
013
01f
011
ff3
011
011
012
013
ff2
000
020
012
012
fc0
012
fe0
012
fd0
022
ff0
fe0
022
012
010
012
020
012
010
fe2
fd0
ff2
010
010
042
032
000
fd2
ff0
fd2
010
022
010
012
010
fe2
ff0
012
020
012
010
012
fe2
ff2
020
012
ff0
ff2
ff0
ff0
ff2
010
ff2
010
000
ff2
ff0
fe0
012
022
fd0
ff2
013
ff0
013
010
012
040
022
010
ff2
013
010
030
030
ff2
ff3
ff0
013
ff0
030
fd2
ff3
fd2
000
011
fe2
fe2
013
fe2
ff3
010
fe1
fe2
ff3
010
ff1
fe2
010
012
013
020
021
013
020
fe2
013
010
ff3
021
013
021
012
ff0
011
ff0
011
012
013
01f
fe1
ff2
fe3
fe1
ff2
fe3
000
010
013
ff0
011
011
ff0
ff0
ff1
fe0
ff3
011
ff0
fe1
ff1
ff3
010
ff1
010
011
fe0
ff1
fe1
fd1
ff1
000
ff0
022
ff3
ff0
ff2
fe3
01f
fe0
012
ff2
013
010
013
ff2
023
010
ff2
01f
012
ff3
ff0
ff2
023
ff0
ff2
fe3
010
fe2
013
013
ff0
fe3
ff0
fe2
fc3
000
ff2
013
ff1
ff3
023
fe1
ff3
ff1
032
ff1
022
ff3
011
012
033
013
ff1
022
ff3
ff3
011
023
fe1
ff2
011
ff1
fe1
ff2
013
fd1
ff2
fe3
000
021
013
022
023
fe1
012
013
ff1
022
013
ff2
023
fd1
012
033
fe1
ff2
ff3
ff1
012
021
012
ff3
ff3
031
fd2
fe3
021
012
fe3
ff1
012
ff1
ff2
ff3
021
022
ff3
011
032
fe3
000
01f
020
ff2
010
012
ff3
ff0
fe3
010
013
023
010
01f
01f
ff0
010
ff3
030
ff0
ff2
fe3
fd0
ff2
010
ff2
043
020
ff2
043
000
ff1
012
fe3
011
ff1
ff2
ff3
021
012
021
01f
011
ff2
011
fe3
ff1
fd2
fe3
fc1
012
023
fe1
012
011
ff2
ff3
fd2
fd3
fe1
012
011
fe3
000
fe0
fe1
012
013
fe0
fe1
fe2
ff3
fe0
ff1
013
fe0
021
ff2
fe0
ff1
012
023
010
ff1
fe2
ff3
ff1
012
fe0
ff1
ff3
020
fe1
013
010
ff1
ff2
ff3
ff1
012
fe3
ff0
ff1
ff2
ff3
020
021
012
010
021
ff2
ff1
fc2
ff3
ff0
fc2
fe3
000
010
020
022
ff0
fe0
ff2
010
ff2
010
010
022
020
012
010
ff2
012
010
022
020
022
012
ff0
012
01f
010
000
012
01f
ff1
ff2
011
fd1
012
ff1
022
fe1
ff2
ff1
fb2
fd1
ff1
012
011
01f
01f
011
012
031
ff2
ff2
000
ff2
ff3
011
ff2
ff3
ff2
013
021
ff2
023
011
013
011
ff3
ff2
013
011
012
fe3
fd1
ff2
013
ff2
fe3
ff2
013
ff1
013
ff3
fe3
000
fe1
ff1
ff1
fe1
ff2
01f
ff1
ff2
ff1
012
fe1
ff2
01f
ff1
011
012
021
ff2
031
ff2
ff2
01f
000
fe0
021
ff2
013
ff0
fe3
ff0
fe1
012
ff3
ff0
011
012
ff3
020
ff2
013
030
fe1
012
fe1
ff3
ff0
011
020
021
012
01f
ff0
fe1
fc0
ff3
020
ff3
020
ff1
012
ff3
fe0
031
fc0
021
fd3
000
ff0
ff2
010
011
012
ff0
012
010
ff2
ff1
ff2
020
012
fd0
ff1
032
ff0
fe1
012
ff0
fe0
fe2
ff0
ff1
012
01f
010
011
012
010
011
012
012
011
ff2
000
011
ff2
fd3
010
ff3
010
ff1
fe2
023
020
021
022
fe3
020
ff1
022
ff0
fe1
fe2
023
010
012
010
022
fc3
fe0
ff1
012
ff3
fe0
fe1
013
fe0
ff1
ff2
021
ff2
013
ff0
ff1
033
fe0
ff1
022
013
fd0
022
000
01f
ff1
ff2
010
ff1
ff2
013
ff2
013
021
ff2
ff0
011
fe2
013
010
fe1
fd2
ff3
fe0
fe1
013
ff0
fe1
ff2
ff3
ff0
011
012
ff0
011
ff2
fe3
fe1
ff2
013
010
ff1
fe2
013
ff0
011
fe2
ff0
ff1
fd2
ff3
000
010
010
ff2
ff3
010
013
ff0
fe2
ff3
010
fe2
ff3
ff2
022
023
fe0
012
023
01f
ff0
022
023
022
013
020
ff3
ff0
ff2
ff3
022
023
010
042
043
010
032
013
000
020
023
010
011
023
011
fe0
013
021
013
010
041
013
010
011
ff0
021
ff3
fe1
010
020
ff1
ff3
ff0
fe1
ff3
fe0
ff1
ff3
011
ff0
031
013
fe0
013
000
ff0
011
020
020
030
fe1
ff0
011
010
ff1
010
021
020
ff1
01f
011
ff0
011
021
01f
ff1
fe0
ff1
ff0
000
020
021
020
021
ff3
ff0
021
011
023
020
013
020
ff1
fe3
011
ff3
ff0
020
ff1
ff3
010
ff3
ff0
ff1
ff3
fe0
011
ff1
01f
ff0
fe1
fe3
ff0
000
ff1
012
01f
ff1
ff2
031
fe2
fb1
fd1
ff2
ff1
012
011
031
011
012
022
011
012
031
012
01f
ff2
011
ff2
000
011
ff1
fe1
ff3
ff1
ff1
ff3
011
ff3
011
fe3
01f
ff3
021
fd3
fc3
ff1
023
011
023
023
fd1
033
000
011
fe2
012
011
ff2
01f
012
ff1
012
ff1
012
fe1
ff1
012
fe1
012
011
012
ff1
012
021
ff2
011
fe2
051
022
000
ff1
fe1
fc1
fd1
013
ff1
ff3
011
011
013
011
011
021
01f
ff3
021
01f
041
000
021
023
012
ff1
fd3
ff1
ff2
fe3
ff1
fe3
011
031
fd2
013
011
fe2
023
ff2
ff3
011
fe2
023
011
ff2
ff1
ff3
ff1
012
ff3
032
ff3
fe1
042
000
011
ff3
010
010
fe1
010
fe1
010
011
ff1
ff3
fe1
fe3
010
ff1
ff3
ff0
011
023
010
ff1
023
010
ff1
010
fe1
ff3
ff0
011
013
031
013
ff0
011
013
fe0
013
000
ff1
013
ff1
ff2
fe1
fe2
ff1
ff2
011
013
011
fe2
ff3
fe2
013
011
012
013
011
013
fe2
ff2
013
ff1
ff3
012
ff1
012
013
011
013
000
ff0
012
012
010
012
ff0
ff2
010
ff2
030
ff2
030
032
032
ff2
01f
010
022
ff0
022
ff0
fd2
fd0
fd2
fe0
fd2
fe0
fd2
000
020
ff2
010
ff2
010
010
032
020
ff2
010
fe2
010
ff2
020
012
010
ff2
010
fe2
fd2
010
fc2
ff0
012
012
fd2
000
fd0
012
013
fd0
ff0
022
ff0
052
010
022
ff3
020
ff2
ff3
010
ff2
fe0
012
ff2
020
fe3
ff0
ff2
ff3
ff0
ff2
ff3
ff0
012
01f
010
ff2
ff3
000
020
012
010
ff1
012
fe1
010
011
012
013
010
ff2
ff2
fe2
013
011
ff2
023
ff1
ff2
013
010
011
012
020
013
ff0
011
012
fe3
021
022
fe3
011
ff3
fe1
012
fe3
000
010
01f
021
fe0
ff0
ff1
010
ff1
020
ff3
01f
ff0
ff3
ff3
020
011
ff3
ff0
ff3
ff0
ff1
fe0
ff0
fc0
fc1
ff3
000
ff0
ff2
013
fe0
ff2
ff3
ff2
010
fe2
033
010
ff2
010
ff3
ff3
012
010
ff2
013
010
fe2
ff2
ff0
013
012
013
012
023
ff3
ff0
ff2
013
000
011
ff2
013
013
012
ff1
012
ff3
011
ff2
01f
012
ff3
011
022
ff3
011
013
01f
011
ff2
fe3
011
ff3
013
023
011
012
013
ff2
ff3
000
ff1
ff3
ff1
ff2
fe3
011
013
011
031
fe3
031
fd2
fe3
fd2
ff3
ff1
ff2
031
fd3
041
032
fb3
012
fc3
ff1
012
ff3
021
012
fe3
011
ff1
fe2
013
ff1
023
000
fe0
ff2
013
010
023
fe0
012
012
ff3
020
ff0
013
ff0
ff3
020
013
013
fe0
ff2
fe3
010
012
fe3
ff0
fd3
ff2
fd3
fd0
ff2
fd3
000
fd1
ff1
012
023
021
012
023
021
ff1
fe3
ff1
fe3
011
ff2
fe3
ff2
ff3
ff1
012
013
012
013
ff2
ff1
ff2
fe3
021
012
ff3
ff2
fd3
ff1
ff2
fd3
fe1
fc3
000
022
ff3
010
011
012
ff0
012
ff3
010
ff1
012
fe3
ff0
ff1
012
fe3
ff1
ff3
ff0
ff1
012
012
023
ff0
012
013
011
012
ff3
010
022
011
022
ff3
020
fd2
023
020
ff2
023
ff0
012
013
011
fe2
000
ff0
fe2
fd2
030
fd2
020
010
020
ff2
020
fe2
fd2
012
020
ff2
fe2
fe0
fe2
ff0
ff2
ff0
fe0
fc0
ff2
000
011
021
031
01f
fe1
ff1
ff2
fe1
ff2
012
fd1
ff2
fe1
fe2
011
021
012
fe1
ff2
01f
011
031
012
000
ff2
ff3
ff3
ff1
012
fe1
ff1
ff3
ff1
fe3
fe3
011
012
011
ff2
013
ff2
012
ff3
ff1
fe3
011
ff2
023
ff2
013
ff2
ff1
ff2
ff3
000
011
01f
01f
ff1
fe2
ff1
01f
011
021
fe1
ff1
ff2
011
01f
ff2
011
01f
ff1
ff2
000
ff1
ff2
ff0
fd1
ff2
fc1
ff2
ff3
010
fc1
ff2
013
fe0
013
fe0
ff1
ff2
ff0
ff2
010
011
ff2
013
ff0
021
ff2
013
ff0
021
ff2
010
011
fe2
013
011
fd2
013
020
011
010
011
013
020
ff1
012
01f
000
ff2
fe2
010
fe2
020
ff1
ff1
ff2
ff1
ff2
ff0
ff1
fd2
011
fc2
fe0
012
ff0
ff2
fe2
010
011
fc2
fe0
ff1
022
010
012
ff1
ff2
040
011
fc2
000
ff1
ff0
013
011
ff2
ff3
ff0
011
ff2
fe3
ff0
021
012
ff0
021
012
032
fe3
ff0
fe1
022
fe3
ff0
ff1
ff2
fd0
ff1
ff0
ff1
032
fd3
022
013
fc2
010
fd2
013
020
011
fd2
023
030
051
ff2
053
000
010
012
010
012
ff3
012
fe0
031
012
013
010
ff1
ff3
020
012
ff3
ff3
fe0
ff0
fe1
ff2
013
ff1
ff2
ff0
021
022
ff1
012
ff3
010
fe1
ff2
013
010
fd2
020
fe1
013
030
fd1
fe2
000
ff0
ff2
012
010
012
013
ff3
010
012
ff0
012
fe0
ff2
020
012
023
030
012
013
022
fe0
013
020
fe2
fc2
ff3
ff0
fe2
ff3
ff2
ff3
000
ff0
011
fe3
021
ff3
ff0
031
ff3
030
021
fe3
010
fe1
ff3
fc1
ff3
ff3
010
021
fe1
ff0
fd1
ff1
011
ff3
ff0
fc1
023
010
fe1
013
010
ff1
013
fe1
ff3
000
ff0
ff1
ff0
ff1
010
040
020
011
021
ff0
010
ff1
01f
01f
ff0
011
ff0
021
ff0
011
011
010
011
fe0
fd1
000
fe0
fe1
fe0
fe1
013
fe1
013
ff0
021
fe3
fe0
ff0
fe3
010
ff1
fe3
013
fd0
ff0
ff3
ff0
ff1
023
ff0
023
020
013
ff1
013
000
ff1
ff2
ff1
ff2
ff1
fe2
ff2
01f
012
ff1
012
ff1
012
ff1
ff2
011
011
012
021
012
022
022
012
041
ff2
000
021
013
01f
ff3
ff3
ff3
fd1
fe1
fe3
fd1
013
fe1
fe3
ff1
ff3
031
fd3
011
013
fe1
021
021
011
013
000
ff2
021
fe2
011
012
021
012
ff1
ff2
021
fc2
ff1
ff2
ff1
ff2
041
022
01f
fe1
012
fc1
fe1
022
012
031
022
000
031
ff3
ff3
fd1
ff3
fe1
ff3
021
ff1
ff3
fd1
ff3
fb1
ff3
01f
011
ff3
ff1
013
011
01f
01f
013
011
000
021
012
043
021
012
043
012
023
011
ff3
ff2
013
ff1
022
ff3
fe1
fe3
fe1
ff3
ff1
fe2
ff3
ff1
fd2
013
011
fc2
043
011
ff2
013
011
fe2
fe3
021
ff2
013
fe2
012
013
000
fe3
ff0
fe1
fe0
fe1
fe0
fd1
013
010
ff1
010
ff1
ff3
010
fe1
013
fd1
033
ff0
fe1
ff1
010
041
013
020
011
013
fe0
ff1
013
020
013
020
ff1
ff1
ff3
000
021
fe2
013
ff1
013
ff1
012
011
011
fe2
ff3
ff1
012
fe1
ff3
fd1
fe2
ff3
011
ff2
fe3
fe1
fe3
011
ff2
011
ff2
023
011
ff2
021
ff2
ff3
011
ff2
ff3
000
012
032
012
ff0
ff0
022
010
032
020
022
fe2
010
fe2
040
fe2
010
012
010
012
020
012
ff0
ff2
fe0
fc2
fd0
fb2
000
01f
ff2
ff0
012
ff0
010
01f
fe0
012
fe0
020
fe2
fe2
ff0
022
010
012
020
012
01f
ff0
fc2
ff0
fe2
000
010
fe2
013
ff0
fe2
013
ff0
fe2
fe0
fc2
fe0
022
013
fe0
ff2
fe0
fd2
fe0
fe2
013
030
fe2
fd0
022
ff3
fe0
012
020
013
010
ff2
fe0
022
022
000
fe1
013
010
ff1
022
ff1
022
ff3
ff1
032
ff3
041
012
013
011
ff1
fe3
ff0
ff1
ff2
ff3
020
011
013
012
fd0
011
ff0
011
013
020
fe1
fc2
fd1
013
ff1
013
ff0
032
013
000
011
ff3
010
021
010
ff1
ff3
ff0
ff1
01f
010
021
ff3
ff0
ff3
fe0
fd1
010
ff1
010
011
010
011
ff0
fe1
ff3
010
021
ff3
020
031
ff0
011
000
012
fe3
022
013
ff0
012
013
ff0
013
ff0
fd2
023
fe0
013
013
010
ff2
ff3
ff0
fe2
053
ff2
010
012
ff3
ff2
023
01f
033
ff0
033
000
ff2
023
ff2
013
ff1
013
fd1
ff2
013
021
ff3
011
ff1
ff2
fe3
fe1
012
fe3
011
fe3
ff1
ff3
011
012
ff3
022
01f
013
012
013
011
013
000
ff1
012
023
ff1
012
023
ff1
ff2
011
012
023
fd1
013
fd1
ff2
023
023
011
fe2
013
041
ff2
fe3
031
fe2
ff1
ff2
ff3
fe2
041
012
fe3
ff1
012
fe3
ff3
011
012
000
fd0
ff3
01f
030
ff2
013
ff2
fe3
fd0
ff2
ff3
ff0
013
023
012
ff3
020
ff0
023
fe0
ff0
013
fe0
ff3
fd0
ff2
fd3
fe0
fc3
000
fd2
ff3
ff1
ff2
fe1
022
033
ff1
011
fe2
011
023
021
022
023
021
012
013
ff1
fc3
011
012
ff3
021
012
013
021
fe2
ff3
fe1
ff3
ff1
ff2
013
ff2
013
fd1
ff3
000
fe0
fe1
ff2
ff2
fe2
013
010
011
ff2
013
020
042
fd3
fe0
fe1
012
ff3
ff0
010
011
fe2
023
ff0
ff1
022
fe3
ff2
ff3
ff0
ff1
012
013
022
023
fd0
fe1
ff2
ff0
011
012
021
032
ff3
020
021
022
ff3
000
fe0
fe0
fe0
012
fd0
ff2
fe0
012
01f
01f
fe2
ff0
022
010
012
010
fe2
ff2
ff2
012
ff0
022
ff0
ff2
000
021
ff2
041
031
012
031
022
fe2
031
012
021
012
fe1
012
fb1
012
fd1
ff2
fd1
fe2
fe1
ff2
fd1
fe2
031
ff2
011
ff2
011
012
000
011
ff3
01f
01f
011
ff2
013
fe1
012
013
012
012
013
033
01f
ff1
ff3
012
013
011
012
011
ff2
fe1
ff1
ff3
000
01f
012
ff1
01f
ff2
ff1
ff1
ff2
011
ff2
ff1
011
01f
011
ff2
fe1
ff2
01f
012
01f
000
ff0
011
010
ff1
fe0
fe1
012
fe3
020
012
020
ff2
ff3
010
fe1
ff3
010
fd1
ff2
ff3
050
fd1
ff3
ff0
ff1
ff2
013
ff0
ff2
ff3
fe0
fe1
ff2
010
031
023
fe0
021
ff3
ff0
ff1
ff2
011
013
000
ff0
011
010
011
020
011
012
030
ff1
ff1
010
012
020
022
010
fe1
032
020
ff1
020
ff2
010
ff2
ff0
011
fd0
ff2
ff0
011
fe2
ff0
fe2
020
011
fd2
000
fe1
012
010
ff1
fe2
011
ff2
013
020
021
012
013
fd1
012
fe3
020
ff1
012
fe0
021
012
ff3
010
021
fe2
fe3
ff0
ff1
ff0
011
012
ff3
fd0
fc3
fe1
012
fd1
ff3
010
012
ff3
ff0
011
013
011
fd2
023
000
fe1
ff2
ff3
fd1
010
fe1
010
011
ff2
011
012
fe1
022
010
fd1
032
013
010
011
012
023
061
ff2
ff3
ff0
021
fe2
ff3
fd0
ff2
013
fe0
ff1
013
ff0
011
ff2
fe1
022
ff0
042
012
ff3
000
ff0
022
023
01f
010
ff2
ff2
ff3
fd0
012
ff0
022
023
010
012
013
010
ff2
fd3
01f
012
ff3
012
ff0
ff3
020
032
033
012
ff0
fd2
fe3
fc2
fe3
000
ff0
011
ff0
021
ff0
011
fe0
fe0
031
fc3
fe0
031
ff3
ff0
021
ff1
013
030
011
ff3
fe0
fe1
fe3
ff1
ff1
013
020
011
013
fe0
ff1
ff0
ff1
ff3
010
fe1
000
ff0
fc1
ff0
ff1
ff0
fe0
ff1
fe0
01f
ff0
01f
fd0
051
ff0
021
020
020
011
01f
ff1
ff1
01f
000
011
ff0
ff1
fe3
fe1
023
fd1
023
fc0
fe1
ff3
ff0
ff1
ff3
ff0
ff1
010
033
fe0
fe1
fe3
ff0
fe1
ff0
ff3
010
010
fe3
ff1
023
ff0
013
ff1
000
021
fe2
011
ff1
ff1
011
032
ff1
ff2
fe1
ff2
022
021
012
fd1
01f
fe2
021
fd2
021
ff2
021
000
fd1
fd1
013
fd1
fe3
01f
fd1
013
ff1
fe3
fe1
fe1
fb3
fc1
ff3
fd1
fc3
01f
fe1
fe3
ff1
ff3
ff1
011
ff3
021
000
011
ff1
012
ff1
012
fd1
fe2
ff1
fe2
ff2
022
011
ff2
031
022
042
011
ff1
012
011
032
fe1
000
fe1
011
031
013
061
ff1
01f
011
011
ff3
021
021
ff3
fe1
ff3
fe3
011
ff3
021
ff3
ff1
fe1
ff3
000
fe1
ff3
fb1
fc3
fe1
022
011
012
fe1
fe2
023
fc1
ff1
022
fe3
fd1
ff2
013
fd1
013
ff1
012
023
ff1
023
ff1
022
ff3
012
043
ff1
012
023
021
ff2
013
000
011
010
fe1
fe0
031
ff3
fe0
021
ff1
013
fe1
013
fe0
051
ff3
fd0
fe1
ff1
010
fe1
ff0
fe3
ff1
023
011
fe3
fe0
011
fe3
020
011
ff3
010
000
ff2
013
011
fe2
011
022
013
031
022
011
fe2
013
ff3
ff1
022
013
011
012
021
fe3
011
fe3
ff1
ff3
011
ff2
ff3
011
012
ff3
fe3
011
fe3
011
000
ff0
ff2
fe0
032
010
012
042
ff0
ff2
fd0
ff0
012
032
fe0
010
ff2
010
ff2
020
022
020
012
050
012
020
fe2
022
000
010
fe2
ff0
ff2
ff2
020
010
ff2
012
ff0
010
012
ff0
ff2
01f
fe0
012
ff2
ff0
fe2
ff0
ff2
fe0
fe2
020
000
fe0
fe2
010
020
012
ff3
020
fe2
fd2
013
012
fe0
ff2
ff0
fe2
013
ff2
012
ff2
fe0
ff2
013
030
010
ff2
013
012
013
013
000
010
ff1
ff2
fd1
fe2
013
010
ff1
ff2
ff3
020
fe1
fe2
010
ff2
ff2
013
ff0
020
fe1
ff3
fe0
021
012
ff3
ff0
031
022
013
ff0
ff1
ff2
fe3
fe1
ff2
fd3
ff1
fe0
fd2
ff0
011
ff2
ff3
000
01f
fd0
fe1
ff3
fe1
ff0
ff1
ff3
ff0
fe1
ff3
fe0
ff1
ff3
ff3
ff0
fd1
ff3
fd0
fc1
fe1
01f
fe1
ff1
ff3
020
fe1
031
01f
000
ff0
012
023
010
022
ff3
010
022
ff3
fe3
012
033
010
012
ff0
012
013
ff2
013
ff0
012
043
ff0
033
01f
ff2
fe3
ff3
012
fd3
ff2
fd3
fe2
ff3
000
012
ff3
ff1
fd3
fe2
011
033
012
ff3
ff2
fe3
ff1
023
011
ff2
ff2
ff3
011
fe3
ff1
fd2
ff3
011
ff2
fd3
01f
fe2
fe2
ff3
012
000
031
ff2
021
012
053
011
013
ff1
012
ff3
031
011
032
033
fe1
ff2
012
012
011
ff2
ff3
011
ff2
013
012
013
ff1
013
fd2
01f
fe1
ff3
000
020
012
020
013
fd0
ff2
fe3
ff0
ff3
010
013
ff2
ff0
ff2
ff3
fe0
ff2
fe3
ff2
ff3
010
010
023
010
ff2
030
023
01f
012
023
000
ff1
022
023
021
013
011
012
011
fe2
fe3
ff1
012
023
021
012
ff1
022
033
011
ff3
011
fe3
ff2
ff3
022
023
011
ff2
ff3
011
ff3
012
033
ff1
011
fe2
000
fe0
fe1
012
013
ff0
ff1
ff2
013
021
fe2
023
fe0
ff1
013
ff1
023
012
013
ff0
011
ff0
011
020
023
ff0
021
022
013
fe0
ff0
ff2
013
fe0
011
ff2
fd0
fe0
fe1
ff3
ff0
fe1
012
ff3
000
fd2
fd2
010
022
fd0
032
fe0
ff2
012
ff0
032
fe0
012
fc0
022
ff0
032
01f
01f
022
010
012
010
012
ff0
012
000
fe1
022
ff1
fe1
022
ff1
fc2
fd1
fe1
021
022
011
fe2
fe1
012
ff1
032
ff1
012
ff1
ff2
01f
021
fe2
fd1
ff2
ff1
fe2
000
01f
031
01f
011
012
011
ff2
013
011
013
ff1
ff2
013
011
013
ff1
013
01f
011
ff1
012
fe1
ff2
ff3
013
000
ff1
012
fe1
ff2
ff1
fe1
ff2
ff1
01f
011
ff2
ff2
ff2
011
ff2
ff2
fe1
ff2
ff1
fe2
ff1
ff1
000
ff0
ff1
023
041
013
ff0
021
fd0
041
063
010
031
013
030
ff3
fe0
fe1
ff2
ff3
043
020
021
030
fe1
ff3
fe1
010
ff1
012
013
ff0
ff2
ff3
fc0
ff1
fe1
010
fe1
012
fe3
000
fe2
010
ff0
032
fd0
ff1
fe0
022
020
012
010
ff1
012
022
020
012
010
012
010
022
ff1
012
ff0
ff1
012
fe0
ff1
000
010
012
fe3
020
021
032
011
013
fe0
fc1
042
013
ff0
ff1
fe3
010
ff2
fe0
011
fe2
023
020
011
022
010
010
011
013
010
011
ff2
040
021
022
ff3
010
011
023
ff0
012
023
010
021
010
ff1
032
000
ff0
ff1
012
010
011
010
fe2
ff3
010
fe2
fe3
012
013
ff2
ff3
020
011
022
fe3
010
012
ff3
010
ff1
fe2
010
021
ff2
010
ff2
ff3
010
ff1
020
fe2
ff2
ff0
ff1
ff2
ff1
013
000
010
ff2
ff3
013
020
022
023
fe0
032
043
020
ff2
010
ff2
ff2
013
012
013
ff0
012
ff3
010
032
ff0
022
013
010
042
023
010
012
ff3
fe0
022
013
000
030
020
023
030
011
023
021
013
010
ff1
013
021
013
010
021
ff0
011
ff3
010
013
011
ff3
ff0
011
ff3
fd0
ff1
013
ff0
011
ff3
ff0
fe3
fe0
fe1
ff3
fd0
ff1
ff3
000
021
020
fc1
020
ff1
fe0
fe1
fe0
fe1
010
ff1
010
fc0
ff1
fe0
031
ff0
011
ff0
ff1
ff0
ff1
ff0
010
01f
000
020
011
010
031
030
031
010
011
013
010
011
ff3
010
021
fe0
ff1
013
010
ff1
01f
ff0
010
fe1
013
ff0
013
021
ff0
011
ff0
fe1
000
fd1
021
ff2
ff2
ff1
011
011
fe1
fe1
ff2
021
022
011
022
ff1
ff2
fe2
01f
ff2
ff1
ff2
011
000
031
023
011
023
011
ff3
01f
021
023
011
ff3
021
011
023
021
ff3
021
fe3
ff3
ff1
021
023
011
013
013
013
000
011
fe2
011
ff2
ff2
011
ff2
011
ff2
ff1
032
ff1
012
01f
fc1
012
fc1
032
fd1
012
022
ff1
011
fe2
021
ff2
000
fe1
ff3
fe1
fd1
fe1
023
011
013
ff1
fe1
013
011
01f
ff1
013
011
013
021
013
031
013
031
013
000
031
ff2
023
fd3
ff2
fc3
fe1
ff2
fc3
011
042
011
ff3
031
ff2
ff3
ff1
fe3
fe2
ff3
011
fe2
013
011
022
ff1
fe3
ff1
012
ff1
022
ff1
022
013
000
ff0
011
010
011
013
030
ff3
020
010
041
fd3
010
ff0
ff1
030
010
011
023
013
ff1
010
fe1
ff0
021
013
fe0
031
013
fe0
021
013
031
000
fd1
fe2
013
ff1
fe2
013
fe2
013
fe1
ff2
ff3
011
013
01f
ff1
ff2
ff3
012
ff3
021
013
011
ff2
ff2
ff2
fe1
013
fe1
013
fe1
013
ff1
ff2
013
000
022
010
032
012
fd2
012
030
fe2
010
ff0
012
030
ff2
020
ff2
01f
ff0
012
fd0
ff2
fc0
fd2
ff0
fe2
01f
000
020
ff2
020
01f
fe0
020
012
010
012
01f
022
010
ff2
010
fd2
ff0
fd2
fe2
ff0
ff0
012
ff2
ff0
fe2
000
fd0
ff2
fc0
fd0
032
ff0
052
ff3
fe0
042
010
ff3
010
ff2
010
032
ff3
010
022
010
ff3
010
012
fe3
012
ff3
ff0
012
fd3
fe0
012
fd3
ff0
012
fe3
ff0
fe3
000
010
ff1
012
010
ff1
012
fe1
013
ff0
011
ff2
013
010
011
ff3
ff0
ff1
ff2
fe3
ff2
ff2
033
ff0
fc1
ff2
023
ff0
ff1
012
013
021
032
013
011
012
023
fe0
021
ff0
021
012
ff3
010
011
012
ff3
fe1
012
000
030
021
ff3
011
ff0
011
fd0
ff0
031
010
021
020
011
ff3
ff0
021
ff3
020
011
020
011
010
ff3
ff0
011
ff0
021
fe0
ff1
fd0
ff1
ff3
000
fe0
ff2
ff3
fe0
fe2
ff2
fe3
010
ff2
ff3
fd2
013
fd2
fd3
ff2
fe3
010
012
fe3
010
fe2
ff3
010
fe2
ff3
ff3
fe3
010
fe3
012
ff3
ff3
fe3
000
011
ff2
023
023
ff1
012
023
fe1
012
fd3
011
023
011
011
012
ff3
ff1
032
013
011
011
ff2
013
ff2
012
ff1
013
ff1
ff2
013
01f
ff1
013
000
fd1
012
ff3
ff1
012
fd3
012
ff3
011
022
ff3
fe1
fd2
ff3
021
fd2
fc3
ff1
fe2
ff3
fe1
031
fd2
013
041
ff2
fe3
011
ff2
fe3
fe1
ff3
011
042
fb3
032
fd3
fe1
ff3
fc1
ff2
013
000
fe0
ff2
fd0
fe2
fe0
ff3
022
fc0
013
010
013
012
01f
020
013
ff0
ff3
fc0
fe3
030
013
020
ff3
ff0
ff2
fe3
fd0
ff2
ff3
000
fd1
ff3
fe1
ff2
013
011
ff3
ff1
fe2
ff2
021
013
011
fe2
ff3
ff1
01f
ff2
fe3
fe1
fe2
fd3
022
033
ff1
022
023
fe3
fe1
ff2
fd3
000
022
ff3
ff3
fe0
ff1
ff2
fe3
ff1
fe2
fe3
fc3
011
ff2
fe3
ff0
ff1
ff3
ff0
ff2
fe0
022
ff3
010
011
022
ff3
030
011
012
ff3
020
011
ff2
ff3
020
021
ff2
013
030
021
ff2
013
010
011
013
010
011
fe2
013
000
fe0
fc2
ff0
fc2
010
ff2
030
ff2
ff2
030
fe2
010
ff2
030
012
020
ff2
020
fe2
ff2
fe0
fe2
010
fd2
fb2
ff0
fd2
fd0
fd2
000
021
ff2
041
ff2
031
ff2
fd1
041
ff2
fe2
ff1
fe2
ff1
fe2
ff1
fd2
fd2
ff1
ff2
021
012
ff1
011
022
012
021
022
000
ff1
ff2
ff3
fe1
012
ff3
fe1
012
fe3
ff1
fd1
fd3
fe1
ff3
012
011
fe1
ff2
013
fd1
ff2
fe1
ff3
ff1
ff3
031
ff2
013
021
ff2
013
012
01f
000
012
ff1
ff1
ff2
fe1
ff2
01f
011
011
011
ff2
ff1
01f
011
021
021
051
031
021
ff2
000
010
fd1
ff2
fe3
ff0
fc1
ff2
ff3
fd0
fe1
ff2
fe0
ff1
ff2
ff3
fc0
fc1
ff2
ff0
fc1
ff2
010
fd1
012
ff3
022
fd0
011
ff0
ff2
ff3
020
010
011
013
ff0
021
ff3
021
ff2
013
010
011
ff2
013
020
011
ff2
013
000
ff0
fd2
011
fe2
ff2
010
ff1
ff2
010
ff1
fe2
ff0
fe2
ff0
fe2
ff0
011
fe0
ff1
ff2
ff0
ff2
010
012
020
011
ff2
ff0
011
ff2
ff0
021
fe2
fe2
020
011
ff2
000
fe1
fe2
fe3
ff0
ff2
fe0
fe3
fd0
021
fe2
fe3
ff0
021
032
043
021
012
013
010
011
fe3
012
ff0
ff1
ff0
ff1
fe3
ff0
ff1
012
ff3
ff0
023
fd0
ff1
fe0
fe1
fe2
ff1
fe2
013
011
033
000
ff1
013
ff1
ff2
ff0
fe0
011
fe2
013
030
ff2
fe3
020
ff0
021
022
ff0
fe2
ff0
fe1
012
ff3
fe0
fe1
022
ff3
ff0
ff1
012
ff3
fe1
ff2
ff3
ff2
021
012
010
021
010
ff1
fe2
000
fd0
fe0
022
023
012
013
020
ff2
fe3
fc0
012
013
ff0
012
ff0
ff3
ff0
012
013
020
022
013
030
012
ff3
01f
fe0
013
030
fe2
ff3
020
fc2
fd3
ff0
ff2
fd0
ff2
000
fd0
011
fd3
fe0
021
fe3
021
fe3
030
ff1
010
fc3
fb1
fd3
fe0
ff1
ff1
013
fe0
fd1
ff3
fe0
fc1
fe3
ff1
ff3
ff1
ff0
fe1
023
010
fd1
023
010
ff1
013
ff1
013
000
fd0
ff1
fe1
020
fe1
060
010
ff1
021
ff0
011
040
fe1
020
fe1
021
021
ff1
ff1
ff0
011
fe1
000
fe0
fd1
023
fe0
fe1
023
ff0
ff0
041
ff3
fa0
ff3
fc0
013
010
021
ff3
fe0
011
013
fc0
011
013
fe0
ff3
ff0
ff3
fd0
ff1
fe0
011
010
021
ff3
020
011
ff3
000
ff1
fe2
011
ff2
011
fe2
ff2
ff1
ff1
fd1
ff1
ff2
ff1
fd2
ff2
011
022
011
012
012
021
012
011
031
ff2
000
fe1
023
ff1
ff3
021
023
041
ff3
01f
011
fe3
ff1
011
fd3
ff1
013
ff3
fe1
ff3
021
ff3
013
011
ff3
013
051
fc3
000
ff1
012
ff1
012
fe1
fe2
01f
ff1
ff2
ff1
012
fe1
022
fe2
fe1
ff2
011
ff1
012
011
ff2
ff1
ff2
01f
fd1
000
021
041
041
031
031
041
011
fe1
ff3
031
01f
01f
ff1
ff3
ff1
013
01f
fd1
013
000
fe1
fd3
012
021
012
043
031
012
053
fe3
ff1
023
ff1
032
013
011
012
ff2
ff3
fe1
022
ff3
ff3
011
012
023
011
012
ff1
ff3
fd2
000
010
011
fe0
031
ff3
fd0
031
ff3
ff0
011
fd3
010
011
ff3
010
031
ff3
fe0
011
ff3
fd0
fd1
ff3
021
ff3
010
ff3
ff0
ff0
ff0
021
ff3
031
ff3
010
011
ff3
010
021
ff3
000
011
012
021
022
ff3
011
012
023
011
023
011
012
011
012
ff3
022
013
013
021
022
013
012
ff1
ff3
011
012
ff1
012
013
01f
ff1
ff3
000
ff0
ff2
ff0
01f
ff0
032
010
fd0
ff2
ff0
012
ff0
012
ff0
062
020
fd2
fe2
012
012
010
fe0
ff2
000
012
fe2
010
ff2
020
ff2
ff0
fe0
ff2
fe2
01f
ff2
010
022
ff2
ff0
032
010
012
032
022
032
000
020
012
020
ff2
ff3
fc2
010
ff2
ff3
020
ff3
ff2
010
fe2
010
fe2
010
ff2
ff3
fe0
012
023
020
012
020
ff0
ff2
013
022
023
012
fe0
022
013
000
ff1
ff2
ff1
ff2
ff3
fe1
ff2
010
012
013
ff0
ff1
ff2
ff3
ff0
ff2
013
ff0
ff1
ff2
ff3
010
011
022
fe3
010
ff2
ff3
020
fe2
ff2
fe1
ff2
ff3
010
011
011
ff2
013
011
012
ff3
011
ff2
ff3
000
ff0
ff1
ff3
ff0
fd1
ff3
010
021
ff3
020
011
ff1
ff3
fe0
011
011
010
fe1
ff0
fe0
ff1
01f
ff0
ff3
010
021
01f
ff0
011
000
010
012
ff3
ff0
012
fd3
022
ff3
012
fd3
ff3
012
ff3
ff0
ff2
043
fe0
ff3
fe3
ff2
fe3
010
ff3
ff0
ff2
013
010
013
012
010
033
000
ff1
ff2
ff2
011
023
011
012
013
ff1
012
fe2
013
ff2
022
013
01f
011
012
fd2
011
013
011
012
013
fe1
011
fe2
ff3
000
013
fe1
fe3
ff1
ff2
fe3
ff1
012
013
fe3
011
011
ff2
013
fe1
012
ff3
fd1
012
023
011
011
012
013
fe1
ff2
013
fe1
fe2
013
011
013
022
013
000
ff0
ff3
fe0
ff2
fe3
fd0
ff2
fd3
01f
013
ff0
fe3
010
ff3
010
ff2
ff0
010
023
030
010
fe0
ff2
ff3
01f
010
010
013
000
011
ff2
ff2
ff3
ff1
fe2
fe3
fe1
ff3
021
ff1
012
013
ff1
012
012
013
ff1
013
031
ff2
012
023
011
012
033
011
ff2
021
ff2
013
012
013
012
023
000
ff2
013
021
fe2
ff0
fe1
012
023
ff0
012
fe2
013
ff0
ff3
ff0
013
011
032
fe3
ff0
ff1
ff2
013
ff0
ff1
011
ff0
011
013
ff0
012
ff3
ff3
010
ff2
013
fe0
fe1
022
013
000
022
ff0
032
fe0
012
ff0
ff2
022
012
012
ff0
012
fd0
022
ff2
020
012
010
fe0
012
010
022
020
010
012
000
ff1
ff1
022
ff1
011
ff2
ff1
ff1
012
012
021
012
ff1
ff2
01f
ff1
ff2
011
ff2
fe1
ff2
012
fe1
fe2
000
011
013
ff2
011
ff2
ff3
fd3
011
ff2
ff3
011
ff2
ff1
013
021
013
011
013
ff2
011
ff2
013
ff1
ff1
012
011
023
011
ff2
000
01f
ff2
011
012
ff1
012
ff2
011
ff2
022
ff1
011
ff2
ff1
ff2
011
ff2
011
ff2
fe1
011
ff2
01f
000
ff0
021
012
fe0
021
012
023
ff0
031
ff2
033
fb0
011
013
ff0
021
012
fe0
021
ff2
ff0
011
012
013
ff1
fe3
fe0
011
012
ff1
012
ff1
012
fe3
010
ff1
012
ff3
ff0
fe1
fe1
012
ff3
010
ff1
013
010
ff1
012
023
000
012
fe0
011
012
fd0
fe2
ff0
011
fd2
ff0
022
ff2
fe0
022
020
012
fe0
012
fe0
ff1
022
ff0
022
010
032
012
fe0
ff1
012
012
ff0
ff1
022
000
021
012
013
fe0
022
013
ff0
fd1
022
013
ff0
ff1
032
023
ff0
ff1
012
013
fe1
012
ff3
010
ff1
ff2
023
010
011
012
013
ff0
fe1
013
010
fd1
032
ff3
010
011
ff2
023
010
011
ff2
ff3
ff0
012
013
ff0
ff1
013
010
ff3
020
fe1
ff2
fb3
000
01f
010
fe1
ff2
fe3
010
ff1
fe2
ff3
ff2
ff3
ff0
ff1
ff2
ff3
ff0
ff1
012
ff3
010
fe1
ff3
010
011
032
ff3
ff0
ff0
fd1
fe2
010
ff1
ff1
fe3
01f
fe1
fe2
ff3
fe0
031
ff3
fe0
021
ff2
ff3
000
010
012
013
ff0
012
ff0
022
023
012
013
ff2
ff3
010
012
013
ff0
ff2
013
fe0
012
013
020
022
023
020
ff2
fe0
013
fd0
012
013
010
fe2
fe3
000
010
023
020
023
010
013
ff0
ff3
023
010
ff1
010
ff1
023
fe0
011
fd3
011
013
ff0
041
013
fe0
fe1
fe0
013
ff0
011
ff3
010
021
ff3
010
011
013
010
013
000
020
fe1
fe1
fb0
fe1
fe0
ff1
010
ff1
fe1
fe0
021
fc0
031
ff0
ff1
010
fd1
010
021
010
ff1
ff0
ff1
020
011
020
ff1
020
021
000
020
021
030
021
013
020
fe3
fe0
ff1
020
021
ff3
021
010
fd0
fd1
013
011
01f
ff0
ff1
013
01f
ff0
ff3
011
ff3
020
011
020
011
000
011
ff2
01f
fe1
ff2
011
ff2
ff1
ff1
ff2
021
022
021
ff2
011
ff2
021
fd1
01f
fe1
000
ff1
ff3
ff3
023
01f
013
fe1
013
ff1
ff1
ff3
ff1
01f
031
013
fd1
fe3
fe1
ff3
fe1
011
ff3
000
021
021
021
012
ff1
ff2
011
ff2
011
012
011
fe2
011
fe2
012
fe1
012
ff1
022
ff1
022
fe1
022
ff1
012
000
01f
ff1
013
ff3
01f
011
ff1
fe1
ff1
013
ff1
011
ff3
01f
031
ff1
ff3
011
ff3
011
021
000
011
023
011
013
ff1
fe3
ff1
ff3
011
012
fe3
ff1
012
ff1
013
011
ff2
013
021
fe2
021
fe2
013
ff1
012
ff1
ff1
ff1
fe3
013
000
ff1
ff3
020
ff3
020
ff1
013
010
011
ff3
010
011
ff3
020
020
ff1
021
fe3
010
010
011
ff3
ff3
ff0
ff1
023
ff1
023
ff0
023
011
000
fe1
ff2
fe1
fe2
013
011
fd2
ff3
013
01f
ff1
013
ff1
fe2
013
ff1
013
ff3
ff2
ff3
fe3
011
012
ff3
011
011
ff3
011
021
ff2
000
010
012
020
012
010
fe2
fe0
012
ff0
012
ff0
032
ff0
032
ff0
012
010
012
020
020
012
010
010
ff2
030
ff2
020
022
000
ff2
010
ff2
ff2
ff0
ff2
010
ff2
010
fd2
ff0
012
012
010
01f
010
022
ff0
010
fe2
fd2
ff0
012
000
fe0
ff2
ff3
fe0
012
ff3
010
012
012
ff3
ff0
ff2
013
fd0
012
fd0
022
fe0
032
ff3
ff0
ff2
013
030
ff2
ff3
020
012
030
012
ff3
ff0
fe2
010
ff2
030
012
fe3
010
ff3
000
ff1
012
013
fe1
013
ff0
fe1
ff2
013
ff0
011
ff2
ff3
010
fe1
fe2
013
010
ff1
013
010
021
010
ff2
011
ff3
011
013
ff0
012
023
fe1
ff0
fe1
012
013
ff0
ff2
013
ff1
000
010
ff3
010
011
ff0
021
ff0
ff0
ff0
ff0
ff0
ff3
01f
020
011
010
021
010
021
ff3
ff1
ff1
010
011
ff3
000
fe0
022
ff0
032
fe3
ff0
fe3
012
ff3
ff0
012
013
ff0
ff2
ff3
ff3
010
023
ff2
ff0
fe2
fd3
010
ff2
ff3
ff3
01f
ff0
ff2
ff3
ff2
fb3
ff0
012
fe3
000
ff1
ff1
012
ff1
022
013
ff1
012
013
fe1
012
ff1
022
fe3
011
012
ff3
011
012
01f
012
023
fe1
012
013
011
fe3
011
ff2
ff3
fe1
ff1
ff2
013
000
ff1
012
023
ff1
012
013
ff1
012
013
ff1
012
ff3
011
012
013
012
023
fe1
012
013
ff1
ff2
013
011
ff3
021
ff2
fe3
ff1
fe2
fe3
021
011
ff2
ff3
021
ff3
ff2
000
ff2
013
010
013
010
ff2
ff0
ff3
fe0
ff3
ff0
012
013
ff0
012
013
ff0
012
023
013
010
013
012
013
010
ff3
ff2
013
ff0
ff2
010
fe0
ff3
000
ff1
013
fe1
022
013
ff3
011
ff2
fe3
ff1
ff3
012
011
ff2
011
013
011
013
012
013
011
013
ff1
013
ff1
ff3
ff2
fe3
ff1
ff2
ff3
ff1
fe2
ff3
000
011
ff2
ff3
ff0
ff2
ff2
011
ff2
ff0
ff1
012
ff3
fe0
fe1
012
013
011
ff2
01f
fe1
ff3
010
fe1
ff2
ff3
ff1
ff3
ff2
ff3
021
010
031
010
021
fd2
013
020
021
fd2
013
000
ff0
fe2
010
fd2
010
ff2
01f
fe0
010
fe2
020
fd2
020
ff2
01f
010
020
012
020
012
010
010
022
020
ff0
fe2
000
031
022
031
fe2
01f
012
ff1
012
012
ff1
012
01f
fe1
ff2
ff1
ff2
011
fe1
012
01f
ff1
ff2
021
000
fe1
ff2
ff3
ff1
ff2
fe3
011
ff3
ff1
ff2
ff3
011
ff2
ff2
ff1
011
012
ff3
ff1
013
ff1
ff1
013
ff2
ff1
ff2
ff1
023
01f
000
021
ff2
01f
fe1
ff1
ff2
ff2
ff2
ff1
011
012
ff1
012
01f
021
021
011
012
031
ff2
000
010
fe1
ff2
ff3
fe0
fe2
01f
fe0
011
fe3
ff0
011
013
ff1
ff2
ff0
ff1
ff2
ff3
fd1
ff3
ff1
ff2
ff3
ff0
fd1
fe2
ff3
013
010
ff3
010
fe3
030
ff2
fe3
020
021
023
000
010
021
ff2
010
011
fe2
01f
ff0
011
01f
ff1
ff2
010
ff2
ff2
01f
fe0
ff1
fe0
012
01f
011
011
012
011
012
000
010
fe2
013
011
ff2
020
011
012
023
ff0
ff1
013
ff1
fe2
ff3
012
fe3
011
022
ff3
fe0
011
ff2
ff3
ff1
012
fe0
ff1
012
ff3
fd0
013
023
010
011
013
023
fe0
ff1
ff2
013
ff0
fe1
012
000
011
011
010
013
010
ff1
ff3
010
ff2
ff2
ff1
ff2
ff2
011
ff2
ff3
ff0
011
ff2
ff0
ff1
010
011
ff3
ff0
fe1
ff2
fc1
ff2
ff1
ff2
ff0
021
fe2
ff3
000
ff0
012
010
012
010
ff0
012
013
ff0
ff2
01f
ff0
ff0
01f
012
ff3
ff0
012
013
010
010
012
012
010
022
013
ff0
022
013
000
ff0
fe3
ff3
fd0
fe1
010
ff1
ff0
011
ff3
ff0
021
013
021
030
011
ff1
ff0
fe1
ff1
ff1
ff0
fe1
013
fe0
fe1
fe0
ff1
011
000
ff0
fe1
ff1
020
ff1
020
ff1
ff0
020
fe1
030
fc1
030
ff0
021
ff0
021
010
011
010
ff1
ff0
ff0
01f
ff0
fe1
000
ff1
011
ff1
023
ff0
021
ff3
ff0
013
011
011
ff3
ff0
031
ff3
ff0
fe1
ff0
fe1
ff0
011
ff3
011
013
010
ff1
fe1
013
ff0
013
010
013
000
011
fe2
011
fe2
031
ff2
01f
01f
ff1
fe2
011
fe2
ff1
012
012
011
012
ff1
011
011
fe2
021
fe2
011
ff2
000
023
011
013
fd1
013
fd1
ff3
031
ff3
021
fd3
011
013
011
041
013
011
ff1
013
01f
031
033
021
013
011
ff3
ff1
000
fe2
011
ff2
021
021
ff2
ff1
022
011
012
021
ff2
ff2
fe1
012
ff1
022
01f
011
fe1
ff2
ff1
011
031
022
000
011
01f
01f
01f
013
013
ff1
fe1
013
ff3
01f
ff1
013
011
fe1
ff3
ff1
013
013
000
011
012
ff3
021
ff2
013
ff1
ff1
ff3
011
011
013
ff1
ff2
013
021
ff3
011
ff3
ff1
012
ff1
ff2
013
021
ff2
013
fe2
012
013
ff1
012
ff3
000
ff0
ff0
ff1
ff0
fe1
ff1
011
01f
010
013
030
021
ff3
ff0
011
ff0
ff1
013
020
013
020
ff3
ff0
020
011
013
ff0
011
000
012
fe3
ff1
ff2
fe3
ff1
ff3
011
022
ff3
ff3
fe2
ff3
ff1
ff2
011
ff1
ff2
013
fe1
012
013
ff1
ff2
ff1
013
fe1
ff2
01f
ff1
ff3
000
ff0
042
ff0
032
010
012
020
010
ff2
010
ff2
ff0
fe2
ff0
012
ff0
012
ff0
ff2
fd2
fe2
ff0
ff2
fe0
fc2
000
010
022
012
ff0
fe0
ff0
032
012
010
ff2
ff2
022
01f
012
fe2
ff0
032
ff0
012
01f
fe0
012
000
013
ff0
ff0
ff2
ff0
fd2
012
ff3
012
fe3
ff0
ff0
012
01f
ff0
ff2
ff3
fe0
022
ff3
ff0
020
ff2
ff3
020
012
ff3
010
ff3
ff0
ff3
000
010
010
ff1
012
013
fe1
022
013
fe0
ff1
022
ff0
011
022
ff1
012
013
ff1
fe0
ff1
fe2
013
012
ff3
fe3
010
011
023
ff2
013
012
ff3
ff1
ff2
012
fe0
ff1
022
000
fe0
ff1
ff0
ff1
011
ff3
01f
ff0
ff3
ff1
ff0
011
ff0
011
010
011
010
011
ff0
011
021
ff3
020
021
010
031
010
ff3
01f
000
010
ff2
013
ff2
012
013
ff0
012
ff2
ff3
ff0
ff3
013
012
ff3
fe2
ff3
fd3
010
ff2
013
012
013
ff2
ff3
010
012
fd3
012
ff3
010
ff2
000
ff1
012
013
ff1
012
012
fe3
fe1
fe3
ff2
fe1
012
ff3
012
ff3
01f
ff1
033
ff1
012
011
032
011
023
fe1
022
013
011
012
ff1
fe3
000
fc1
fe1
ff3
011
ff2
013
ff2
023
ff1
ff2
fe3
ff1
ff3
fe1
013
ff1
ff1
013
ff1
fd1
ff2
fe1
ff2
012
fe3
ff1
fe2
ff3
ff1
fd2
013
ff1
fe2
033
000
fc0
013
fd0
012
023
020
023
010
013
ff0
fe3
ff0
fe3
ff0
013
ff0
012
ff3
020
013
ff0
012
ff3
ff3
010
012
fe3
020
022
fd3
fd3
ff0
fe3
000
021
fe2
ff3
021
ff2
ff3
021
012
013
011
ff2
ff2
ff3
ff1
ff3
011
023
ff1
ff1
ff2
01f
ff1
012
043
ff2
fe2
012
013
000
010
ff2
010
011
ff3
010
011
012
fe2
013
011
fe2
ff3
fe2
ff3
010
011
ff2
ff0
011
ff2
013
fe0
fe1
fe2
fe3
ff0
011
fe2
023
010
022
013
012
013
020
ff1
ff2
ff3
010
fe2
013
ff1
ff3
000
fe0
022
ff0
012
020
012
020
012
022
ff0
ff2
ff0
022
012
01f
010
fd2
010
012
010
fe2
010
fe2
010
ff2
010
ff2
000
ff2
031
021
022
011
042
011
ff2
021
012
011
ff1
012
041
fd2
031
012
022
021
ff2
01f
011
022
021
022
000
012
012
012
ff3
ff1
ff3
ff1
ff3
ff2
fe3
ff1
ff2
011
ff2
013
013
ff1
ff2
fe3
ff2
ff2
013
ff2
013
fe1
ff2
000
011
ff2
031
041
012
031
011
ff2
021
ff2
021
ff2
011
ff1
021
021
ff2
012
011
011
012
01f
ff1
ff2
000
012
ff3
01f
030
fd1
013
020
fe1
fe3
fe0
ff1
ff3
ff0
011
ff3
010
fe1
012
ff0
ff2
ff3
fe0
011
011
ff3
020
ff1
ff2
010
ff3
020
ff3
010
ff2
010
fe1
ff2
ff3
000
010
012
020
ff2
030
011
020
011
01f
010
011
fe2
010
ff2
ff0
fd2
ff0
ff1
ff2
fc2
011
ff0
fd2
fd0
012
fe0
ff0
fe2
030
fc2
000
fe0
ff1
032
013
fe0
fe1
022
013
010
011
ff2
ff3
ff0
011
023
012
010
011
ff2
013
fe0
011
ff2
ff3
010
ff3
010
ff2
ff0
ff2
013
fc1
ff2
ff3
ff1
fd2
ff3
010
011
020
031
023
000
ff2
ff1
ff2
ff3
fe0
012
ff3
fe0
fe1
022
ff0
ff2
ff3
ff0
ff1
010
fc1
ff2
ff3
ff0
012
010
fe1
013
ff1
013
fe1
012
fd0
ff1
032
ff0
fe1
013
fe1
013
ff1
012
013
000
fe0
012
023
01f
ff2
ff3
012
ff3
01f
ff3
fe2
ff3
ff0
fe2
ff3
ff0
013
ff0
fe2
ff3
ff0
fe2
013
ff0
fe2
fe3
010
ff2
ff0
fe2
ff3
fd0
ff2
ff0
fe2
fd3
000
031
ff0
011
021
010
ff1
013
ff0
ff1
ff3
ff1
011
013
010
013
011
ff3
ff0
013
01f
010
fd1
010
fe1
013
010
ff1
013
fe1
ff3
000
fd1
fd1
011
ff0
011
010
020
010
020
ff1
ff1
020
ff1
020
ff1
011
020
011
01f
ff1
000
fe0
ff0
010
ff1
ff3
030
ff3
fe0
010
011
020
011
020
021
ff3
ff0
011
013
020
011
023
010
011
013
013
020
011
013
020
013
ff0
033
000
021
011
ff2
ff1
ff2
011
011
011
fe2
ff1
ff2
fe1
fe2
ff2
ff2
ff1
012
01f
ff1
ff2
fe1
ff2
ff1
01f
000
fe1
ff1
ff3
ff1
01f
013
ff1
011
011
ff1
ff3
fe3
ff3
ff1
ff1
fe3
ff1
fd3
fd3
ff1
000
01f
01f
011
01f
ff1
ff1
012
ff1
fe1
ff2
011
011
ff1
ff2
01f
011
021
021
012
011
012
000
013
ff1
ff3
ff1
ff3
fe1
013
ff3
011
013
01f
011
01f
ff1
01f
ff1
013
ff1
013
000
fe1
fe3
ff1
ff2
ff3
ff2
013
ff1
fe1
fe3
ff2
011
fe2
023
011
ff2
013
ff1
fe2
013
013
011
fe2
01f
ff1
ff2
ff1
013
012
013
011
000
011
ff3
ff1
ff3
fe0
ff1
023
013
fe1
ff0
011
ff1
ff0
ff0
ff1
ff1
ff3
ff0
ff1
ff3
ff1
010
ff3
ff0
011
000
ff2
ff3
ff1
ff2
ff3
ff3
ff1
ff2
013
011
ff2
ff1
012
ff2
ff3
ff2
ff3
ff1
ff2
013
012
fe3
012
ff3
fe1
fe3
ff1
ff2
ff3
000
010
ff2
010
ff2
010
ff2
fd2
ff0
ff2
010
ff0
ff2
010
ff2
ff0
ff2
01f
01f
ff0
fd2
ff2
fe2
01f
000
fe2
ff2
ff0
012
ff0
022
ff0
012
010
010
010
012
01f
012
010
012
ff2
ff0
01f
ff0
ff0
ff2
000
012
013
013
020
012
010
013
010
013
010
013
ff2
010
ff2
ff3
fe0
ff2
ff2
013
013
ff0
013
ff0
ff2
ff2
ff3
000
011
ff2
021
012
ff3
ff0
011
012
ff3
ff0
fe1
fe2
ff1
ff2
013
010
012
ff2
ff3
ff0
011
ff2
013
012
ff3
ff1
012
010
012
ff2
ff3
ff0
011
012
fe3
010
012
ff3
fe0
fe1
012
ff0
ff1
012
ff3
000
ff0
ff1
ff1
ff0
011
ff0
011
ff0
ff1
ff3
010
ff3
010
011
ff0
ff1
010
ff3
010
ff3
ff0
ff1
ff0
ff1
ff1
ff3
ff1
000
ff0
ff0
ff2
013
ff0
013
fe3
010
ff2
013
fe2
023
010
ff2
012
ff3
010
ff2
013
013
ff0
012
023
ff0
012
013
012
ff3
01f
000
ff3
011
fe3
ff3
ff1
012
ff3
012
ff3
ff3
011
ff2
ff3
011
012
013
ff1
ff2
ff3
011
ff2
ff3
021
ff3
ff2
ff2
ff3
011
fe3
021
012
fd3
ff1
fe3
000
021
ff3
ff2
013
012
031
ff2
ff3
021
012
ff1
013
01f
011
022
ff3
022
ff3
ff1
ff2
fe3
ff1
ff2
013
021
ff2
013
ff1
fe2
023
ff1
ff2
013
000
010
010
01f
012
010
ff0
012
ff3
01f
ff0
ff3
013
ff2
ff3
ff3
ff0
ff3
fe3
ff0
ff2
fe3
ff2
ff3
01f
000
fe1
ff3
ff1
ff3
012
013
011
ff2
ff1
012
ff1
ff3
011
013
01f
ff1
fe1
013
012
023
ff2
012
fe3
fe2
fd3
ff3
ff3
000
ff1
010
012
ff3
010
012
ff0
fe2
023
ff0
010
ff1
fe3
012
012
010
013
011
013
ff1
022
013
01f
020
011
ff2
013
012
ff0
013
011
ff2
000
010
012
012
ff0
020
020
ff0
01f
012
ff2
ff2
fe0
ff0
012
fe0
012
012
ff2
ff2
000
fe1
ff1
ff1
012
ff1
ff2
fc1
ff1
ff1
ff1
ff2
ff1
012
011
012
012
012
fe1
022
ff1
032
011
022
011
012
000
ff3
ff1
fe3
01f
011
ff2
023
ff2
fe3
01f
011
012
013
011
ff2
011
ff3
fe3
01f
011
013
ff1
ff2
ff1
ff2
ff2
000
ff1
ff2
ff2
ff2
01f
ff1
01f
ff1
ff2
011
011
ff2
011
ff2
011
ff2
011
ff2
011
ff2
000
ff0
013
ff1
ff3
010
ff1
ff3
010
ff1
012
fe3
010
ff1
012
013
010
013
010
012
010
010
021
013
011
013
ff1
ff1
ff2
ff3
030
fe1
012
010
ff1
012
013
010
ff1
012
ff3
000
ff1
ff2
020
010
ff2
fe0
012
ff0
ff1
020
ff2
ff0
ff2
fe0
ff1
ff2
011
011
fe2
ff2
012
010
012
010
012
020
ff1
fe2
020
011
ff2
000
011
ff3
01f
ff2
010
ff3
fe2
011
012
010
ff3
010
ff1
ff2
ff2
ff3
01f
ff1
ff2
010
011
ff2
013
020
011
fe2
010
011
020
021
fe2
021
ff2
013
000
010
ff2
011
ff3
ff0
011
ff0
fe1
ff2
013
ff0
ff2
031
ff3
012
012
013
ff0
ff2
ff1
012
ff3
022
012
ff3
021
ff2
010
011
ff2
010
fd1
012
ff0
ff1
ff2
000
013
01f
010
ff2
ff3
010
012
020
ff2
ff3
010
ff2
ff3
01f
ff2
013
020
010
ff2
01f
ff0
ff2
010
fe2
fe3
ff0
ff3
ff0
fe2
fe3
012
ff3
000
020
ff3
ff3
fe0
fe1
013
010
ff1
ff3
010
011
ff3
010
ff3
ff0
ff1
fe1
013
fe1
013
020
010
ff1
020
ff1
013
010
ff1
000
021
ff0
021
011
020
010
021
ff0
ff0
01f
01f
01f
ff0
011
ff0
ff0
021
01f
01f
ff1
000
ff3
fe0
ff1
ff1
010
013
011
ff3
ff0
ff1
ff3
ff1
fe1
010
013
010
013
ff1
010
010
fe1
010
011
010
011
010
011
000
022
022
012
011
fe2
fe1
011
012
01f
fe1
012
011
011
ff1
01f
ff1
012
012
fe1
ff2
01f
000
013
013
01f
011
013
fe1
023
01f
011
ff3
011
ff3
fe1
ff3
ff1
ff3
ff1
ff1
ff3
fe1
013
ff1
ff3
021
033
011
000
011
ff2
011
ff2
fe1
ff2
011
ff2
01f
01f
01f
01f
ff1
ff2
012
022
011
ff1
fe2
ff1
fe2
000
ff1
ff1
fe1
ff3
011
ff3
011
011
013
013
011
011
011
013
01f
01f
ff3
011
011
ff3
fd1
013
000
012
011
012
01f
012
013
fd3
ff1
ff3
011
023
012
fd1
ff2
fe1
ff3
011
012
01f
fe1
012
ff3
ff1
022
022
013
ff2
013
000
ff0
011
010
011
ff3
ff0
011
010
013
020
011
01f
010
ff3
010
010
011
fe0
011
ff3
ff0
010
013
011
013
021
010
011
013
000
ff2
ff1
ff2
ff1
ff2
013
012
013
ff2
ff2
ff3
ff1
012
fe3
01f
012
ff3
013
ff2
012
ff3
011
012
ff3
021
012
013
fe1
fe2
013
000
012
010
ff2
010
ff2
010
ff2
01f
01f
ff0
022
020
fe0
ff2
01f
020
022
010
022
01f
ff0
ff2
ff0
ff0
000
010
fe2
ff0
01f
01f
01f
012
010
012
ff0
fe2
fe0
ff2
01f
01f
fe2
ff0
012
012
ff0
012
000
fe0
ff3
ff0
ff3
ff0
013
020
012
022
fe0
012
012
ff3
010
012
012
ff3
01f
ff0
01f
ff0
012
013
013
ff0
012
013
000
ff1
ff2
ff3
01f
011
ff2
010
ff1
fe2
ff1
fe2
013
010
011
013
ff0
023
010
011
012
013
ff0
011
012
013
011
ff2
ff3
ff0
ff2
fd1
ff2
010
ff2
013
ff0
011
ff2
ff3
000
ff0
011
ff3
010
ff1
ff3
01f
01f
011
010
021
021
ff0
ff1
01f
ff0
01f
fe0
ff1
ff3
fe0
021
01f
000
fe0
022
ff3
ff0
012
ff3
010
01f
ff3
010
ff3
010
013
012
ff3
023
01f
ff0
ff0
fe3
ff0
ff3
ff0
012
ff2
ff3
010
ff3
000
ff1
ff2
013
013
011
ff2
013
023
ff1
012
ff3
ff1
ff3
012
fd1
012
ff1
fe3
fe1
ff2
ff1
ff2
ff2
ff3
01f
01f
011
033
012
000
012
011
ff3
011
ff1
012
012
ff1
ff1
011
fe3
013
021
ff2
ff3
011
fe2
ff3
ff3
012
fe1
023
fe1
013
fe1
fe2
000
010
013
010
013
013
ff0
012
fe0
012
ff0
013
010
ff3
ff2
ff3
013
013
020
ff0
ff3
fe0
fe3
010
000
ff1
ff3
ff1
012
013
ff1
022
023
013
011
ff2
ff3
011
ff2
021
ff2
013
01f
012
011
ff2
ff3
ff1
ff2
fe3
011
012
011
ff2
fe3
fe2
ff3
ff2
000
ff0
ff1
013
ff0
ff2
01f
ff0
fe2
ff0
ff1
012
ff0
010
012
ff3
010
ff2
ff3
fe2
011
fd2
013
011
ff2
013
010
031
fe2
023
ff0
013
ff1
012
013
000
010
fe2
010
ff2
ff2
010
012
010
ff2
010
ff2
010
020
012
012
01f
010
fe2
01f
ff0
ff0
022
01f
000
011
012
012
01f
ff1
fe2
ff1
01f
011
012
01f
ff1
fe1
012
012
012
ff1
ff2
021
fd2
ff1
ff2
000
011
ff2
ff3
ff2
ff3
ff2
ff1
011
013
ff1
ff1
013
011
ff3
ff1
012
ff3
fe1
013
011
ff2
021
023
011
033
011
013
011
000
ff1
ff1
ff2
ff1
ff2
fd1
ff2
ff2
ff2
011
012
01f
ff1
ff1
011
ff2
021
ff2
ff1
011
ff2
01f
011
000
ff0
fe2
013
fe0
011
ff2
ff0
ff3
ff0
011
012
010
ff2
013
ff0
011
ff2
ff1
ff2
ff0
ff2
010
011
ff2
013
ff0
ff2
ff1
ff2
ff3
01f
010
012
010
ff1
012
013
ff1
012
013
020
ff1
022
fe3
000
ff2
ff2
ff0
fe0
ff1
012
ff0
ff2
010
012
01f
01f
012
012
011
ff1
022
010
022
fe0
ff1
022
fe0
012
000
ff0
012
ff0
ff2
fe1
ff2
ff0
011
012
013
fe0
021
ff0
011
012
ff0
ff1
013
01f
fe0
ff1
ff0
ff1
013
012
ff3
010
021
ff2
023
020
011
ff2
023
010
fe1
ff2
013
020
ff1
fe2
000
ff1
ff2
ff0
012
ff3
011
010
ff2
013
020
012
01f
010
fe3
ff0
ff1
ff3
ff2
011
fe2
fe2
ff3
020
ff1
ff2
ff3
010
ff1
ff2
013
ff2
013
ff1
013
000
01f
010
ff3
020
010
012
013
01f
ff0
ff0
010
ff2
ff3
01f
022
013
012
012
013
ff0
fe0
fe2
fe2
fe3
000
013
ff1
010
01f
01f
010
ff1
010
011
01f
ff3
010
ff3
010
ff3
ff1
ff0
013
023
ff0
011
013
ff0
ff1
013
000
01f
010
ff1
01f
020
ff1
020
fe1
ff1
010
010
010
ff0
011
ff0
011
fe1
010
ff1
010
000
01f
011
ff0
013
01f
ff0
021
011
011
ff3
021
ff3
ff0
011
ff3
013
fe1
013
010
023
010
013
020
000
fe1
ff2
ff2
ff1
01f
01f
011
fe2
ff1
ff1
011
012
012
01f
01f
021
fe2
011
fe1
000
011
fd3
fe1
033
011
023
011
ff1
033
011
ff3
021
ff3
021
021
ff3
021
ff3
021
fd3
011
ff3
011
fe3
021
011
fd3
000
021
021
01f
ff2
041
ff2
ff1
012
fd1
012
fe2
fe2
fd1
012
fe1
fe2
fe1
fd2
ff1
012
012
fe2
000
ff1
023
fd1
fe1
ff1
013
ff1
ff3
fe1
ff3
fe1
011
021
01f
01f
011
011
01f
021
013
011
000
021
013
fd3
fe1
012
fd3
ff1
012
fe3
021
012
033
011
012
013
021
ff2
053
fe2
013
022
ff1
012
033
021
013
021
ff2
ff3
ff1
fe1
012
ff1
013
011
ff2
023
000
011
ff3
010
011
013
020
031
ff3
030
031
ff3
fe0
ff0
011
010
ff1
013
020
021
ff3
010
011
fe0
fd0
fd1
ff3
020
011
ff3
021
013
ff0
011
013
fe0
011
013
000
ff1
ff2
fe1
fe2
fe1
012
ff1
012
ff1
fe2
ff2
013
ff1
ff2
ff2
031
ff2
01f
fe1
fe3
ff2
ff3
01f
ff1
012
ff3
ff1
fe3
fe1
fe2
ff3
000
012
020
012
010
fe2
ff0
fe2
010
010
010
ff0
032
01f
010
fc2
ff0
ff2
042
ff0
fd2
020
fd2
020
ff2
000
010
fe2
010
fe2
ff0
fd2
ff0
010
fd2
010
ff0
012
010
022
010
fe0
022
fc0
022
022
fe2
fe0
fe2
fd0
022
ff0
022
000
fe0
ff3
fd0
022
ff3
022
042
ff3
fe0
fd2
ff3
fe0
fe2
fe0
ff0
012
013
ff0
022
010
022
ff3
ff3
ff0
fe2
ff3
012
010
012
fe3
ff0
fd3
fe0
fe2
ff3
000
fe1
012
ff2
ff0
012
013
ff0
011
ff2
013
ff1
022
fd3
010
ff3
012
013
011
013
020
ff1
ff0
011
023
fd0
022
013
010
031
032
fe3
023
fc0
ff1
023
fe0
ff1
012
012
ff3
000
010
011
fe0
ff1
fe0
011
010
ff3
010
ff3
010
031
011
ff3
ff0
021
010
021
030
021
010
ff1
011
010
031
010
021
ff3
fe1
ff3
000
ff0
032
ff0
012
013
012
ff3
ff3
fe0
022
013
ff0
012
010
012
010
012
013
ff2
013
020
ff2
fe3
010
fe3
ff0
fe2
063
020
ff2
ff3
ff2
fd3
010
ff2
fe3
ff3
000
011
ff1
ff3
ff1
022
023
012
011
fd2
013
ff2
023
013
011
ff3
011
013
fe1
023
fe1
fe2
012
ff2
013
fe1
fe2
011
ff2
fe3
000
ff1
012
013
011
012
013
ff1
012
ff3
fe1
ff3
011
012
013
011
ff2
ff3
ff2
ff3
ff3
fd1
fe2
033
fe1
fd2
023
051
fe2
fe3
031
fd2
ff3
fd1
ff2
013
fe1
fe3
ff1
ff2
fe3
ff1
fc2
ff3
000
01f
020
012
023
020
013
01f
010
ff0
01f
ff0
fb0
012
ff3
010
013
040
fe2
fd0
ff2
fe3
013
020
ff3
012
fe0
000
ff1
ff3
ff1
032
013
ff1
013
fc1
012
013
fd1
ff3
ff1
ff2
011
013
011
fe2
ff3
021
fe2
ff3
022
023
012
013
011
013
ff1
033
021
013
011
ff3
000
ff0
012
01f
ff1
012
011
013
ff0
011
ff2
013
011
ff2
023
ff0
ff1
012
013
010
ff1
022
ff3
010
012
ff3
020
ff1
fe3
020
fe1
012
022
fe3
020
021
012
030
031
fe2
010
011
ff2
023
000
ff2
010
fd2
020
022
020
012
fe0
fc2
fc2
020
fd2
020
ff2
fe0
020
ff2
030
fb0
ff2
010
012
ff2
020
fe2
ff0
fc2
000
031
022
01f
011
fe1
031
032
011
012
021
022
011
ff2
031
fe2
021
fb2
021
012
011
032
ff1
fe2
01f
011
022
ff1
022
000
fe1
ff2
fe3
ff1
ff3
021
fe3
ff1
ff3
011
fe2
011
ff2
012
ff1
ff1
ff1
ff3
ff1
012
ff1
ff3
011
ff2
ff1
013
ff1
023
000
01f
ff1
ff1
ff2
ff1
ff2
012
fe1
ff1
fe1
01f
022
ff1
012
ff1
ff1
011
012
041
041
ff2
000
fe1
fe2
fe1
ff2
fc0
ff1
ff3
fe0
fe3
010
ff2
fe0
011
ff2
013
ff0
011
ff3
031
ff2
023
fe0
011
ff2
010
ff2
013
010
ff1
ff2
ff3
030
fe2
033
fd0
011
fe2
ff3
010
ff1
ff2
fe3
030
fe1
ff2
fe3
040
fe2
013
000
010
011
fe2
020
fd2
011
fe0
020
011
fd2
fd2
011
fe2
ff0
ff2
010
ff1
ff1
012
012
020
ff1
01f
012
022
012
000
011
ff2
fe3
021
fe2
fe3
ff0
fe2
033
ff0
011
fe2
013
010
011
ff0
011
022
013
ff0
011
fe0
ff1
fe3
ff0
011
042
013
ff0
011
ff0
fe1
fc2
013
fe0
fe1
ff0
011
022
013
011
ff2
023
fd0
ff2
013
ff0
fe1
ff2
ff3
000
011
fe3
011
ff3
fe2
fe3
ff0
011
ff2
010
012
020
ff1
ff2
ff0
ff2
011
020
022
ff3
020
fc1
010
022
071
032
ff3
ff1
020
fd1
012
ff3
010
ff0
021
013
000
010
ff3
fe2
fe3
013
ff0
013
010
fe2
fd3
010
012
01f
01f
fd0
fc0
ff2
013
020
ff2
ff3
010
fe2
ff3
fd0
032
023
012
010
fe3
ff3
000
010
ff3
010
011
ff3
010
013
020
ff1
ff0
ff1
010
011
013
010
011
013
020
011
021
ff3
ff0
011
ff3
fe1
ff3
030
021
fe3
fe0
021
ff3
ff0
fe1
013
fe1
ff3
010
ff1
000
ff1
010
021
020
040
fe1
fd0
fe0
ff1
020
ff1
010
010
fc1
010
031
fb0
011
010
fd1
fe1
fe0
fd0
021
000
011
013
011
021
013
fe0
031
ff3
fe1
023
ff0
013
013
ff0
011
023
fd0
ff3
fe0
011
ff3
011
fc0
fe1
013
fe0
ff1
fe0
011
013
fd0
011
013
010
ff1
013
000
fd2
ff1
ff1
ff1
fe1
ff2
ff1
01f
ff1
031
fe2
01f
fe1
012
fe1
022
011
fe1
ff2
ff1
ff2
ff1
022
000
011
fe3
ff1
ff3
01f
013
ff1
ff3
fe3
021
021
ff1
fe3
011
fd3
fe3
ff1
ff3
011
023
ff3
ff1
fe1
000
fe2
01f
fe1
012
fd1
fe2
031
012
031
fe2
011
fe2
011
022
031
012
011
ff2
011
012
fe1
012
011
021
ff2
031
000
fd1
f91
fa1
013
013
ff1
011
011
013
021
023
ff1
013
011
013
013
011
013
01f
01f
021
ff3
011
ff3
000
011
ff3
ff1
fe3
fe3
fe3
011
ff2
ff3
fe2
011
fe2
023
021
033
011
012
ff1
ff2
ff1
ff2
01f
022
fe3
012
022
ff1
022
013
000
fe1
013
fd1
ff0
fe0
021
013
fe1
023
01f
ff0
041
fe3
ff0
051
fd3
ff0
030
ff1
ff3
010
fe3
fe3
020
011
010
ff1
ff3
ff0
ff1
ff3
000
ff1
fe2
fe1
ff2
fe1
ff1
012
012
ff3
ff2
ff3
ff1
ff2
ff1
ff2
012
011
ff2
011
fe2
011
fe2
023
ff2
013
ff2
ff1
ff2
013
000
022
010
ff2
020
ff2
01f
01f
fe2
ff0
032
032
032
ff0
ff0
ff2
ff0
012
ff0
022
ff0
012
ff0
012
000
010
ff2
ff2
ff0
010
022
010
012
01f
020
fe2
020
ff2
010
012
ff0
010
ff2
010
fd2
010
ff2
fe2
ff0
fc2
010
fc2
000
fe0
012
01f
012
022
ff0
01f
fe0
fd0
022
fe3
fe0
012
ff3
fd0
032
ff3
fd0
ff3
ff0
012
fe3
fd0
ff2
ff3
ff0
fe2
ff3
000
010
ff1
ff2
ff3
011
fe3
010
fe2
ff3
010
ff1
022
013
fe1
012
ff1
ff2
010
011
012
023
011
022
ff3
ff0
012
ff0
fe1
fe2
010
ff1
010
011
013
011
012
ff1
ff2
01f
000
010
021
01f
ff1
ff3
ff0
ff1
ff3
ff1
01f
ff1
ff3
ff3
ff0
fe1
ff3
ff0
ff0
ff3
fe0
ff1
020
031
011
ff0
ff3
fe0
ff1
000
fe2
ff3
ff2
013
ff2
ff3
010
ff2
013
012
010
022
013
010
012
023
ff0
012
013
ff0
012
013
022
013
012
013
fd2
fe3
ff0
012
013
ff0
fe3
ff0
012
ff3
000
012
ff3
01f
012
013
ff1
ff1
ff2
011
ff3
011
012
fe3
fe1
ff2
ff1
ff2
fe3
ff2
fe3
fe2
ff3
ff1
023
011
011
021
ff2
000
021
012
013
021
012
013
01f
ff1
012
013
022
021
022
fd1
ff2
ff3
fd1
fd2
ff3
fe1
ff1
012
013
ff1
012
ff3
ff3
011
ff2
023
011
023
012
013
000
020
013
040
023
040
033
ff0
013
fb0
fd0
fd0
013
fe0
fe0
fc0
fd3
fd0
ff2
ff3
fd0
ff2
ff3
020
012
013
ff0
fe0
ff2
010
ff2
000
ff1
012
ff3
fe1
032
023
ff1
032
033
021
012
023
ff2
ff3
01f
011
ff2
011
ff2
ff3
fe2
fe3
ff2
fe3
012
013
ff1
ff2
fd3
01f
011
ff3
ff2
fd3
fd1
fe3
000
ff0
ff1
022
ff3
fe1
012
ff3
010
ff2
ff3
01f
030
011
ff2
010
ff2
013
ff0
ff1
012
023
ff0
ff1
032
013
010
011
fe2
fe3
011
ff2
013
fe0
012
023
011
ff0
ff2
fd3
ff1
ff0
ff1
fe2
ff2
ff3
000
010
fe2
010
ff2
01f
ff0
ff0
ff2
ff0
ff2
ff2
ff0
fe2
fe0
fc2
fe0
fd2
010
ff2
ff0
ff2
ff0
fd2
fe2
000
fe2
011
ff1
fe1
fe2
021
011
012
042
042
041
021
022
021
022
011
012
011
fc2
011
01f
021
012
000
ff1
ff2
ff3
ff2
012
013
ff1
013
ff3
011
ff3
ff1
fd3
fe1
012
fe3
ff1
fe3
011
ff3
011
fe3
011
01f
011
013
ff3
000
ff1
012
fe1
fe1
ff2
ff1
fe2
011
ff2
01f
021
031
ff2
ff1
ff2
ff1
ff2
ff2
fd1
012
fd1
fd1
ff1
000
fe1
010
fd1
fd1
012
fe3
010
013
020
011
010
031
013
fd0
011
ff2
023
fb0
011
fe2
013
fe0
ff2
ff0
021
fc0
031
013
fe0
031
012
023
fe0
ff2
ff2
010
021
013
ff0
011
ff3
000
ff1
ff2
010
ff1
012
010
fe1
032
ff0
fe1
022
020
011
010
011
ff2
011
fd2
020
011
fc2
040
011
ff2
020
011
fe2
011
fe2
020
011
fe2
ff0
fe1
fe2
010
fe1
fe2
fe2
010
011
fe2
000
010
fe3
020
021
fd2
ff3
ff0
011
fe2
fe0
ff2
fe0
021
fe0
011
ff2
fc0
012
ff3
fc0
ff1
012
041
022
013
010
031
012
ff3
fe0
011
012
ff3
ff0
011
012
ff0
011
010
021
020
011
022
013
011
012
023
000
ff0
013
ff0
021
012
031
013
021
ff2
013
ff0
ff0
ff3
ff3
ff0
011
ff3
010
fe2
fe3
ff3
ff0
ff1
012
ff3
011
ff2
fe3
020
011
012
ff3
010
010
fe1
ff2
013
020
ff1
fe2
ff3
000
01f
01f
020
ff3
010
012
013
010
ff2
010
ff2
ff3
ff0
ff0
013
fd0
012
013
fe0
fe3
ff0
ff2
ff3
ff0
013
ff0
013
ff2
ff3
ff0
ff2
000
fe0
021
fd3
011
ff3
010
010
011
011
ff3
ff1
013
040
ff1
033
050
fe1
021
fe3
011
030
033
030
013
ff0
011
ff3
01f
ff0
ff1
ff0
ff1
ff3
000
ff0
021
031
010
010
fe1
010
fd1
020
fd1
fc1
fe1
ff1
030
fe1
020
fd1
ff1
010
ff0
fe0
ff1
ff0
fe1
000
fd0
fd1
ff3
fd1
ff3
010
ff1
01f
fe0
013
020
011
013
030
041
051
fe3
fe0
ff1
010
011
020
031
011
013
fd0
013
013
010
ff1
013
ff0
000
fd1
ff2
fe1
012
ff1
012
fd1
031
fe2
021
fe2
fe1
ff2
fd1
012
011
021
ff1
fe2
011
ff2
012
01f
011
011
000
