1c65
1d86
04a8
0289
1c4a
1c4b
1c90
1cf1
1d72
1980
1921
1be2
1d25
1ca6
1d47
04c9
06cb
034e
05d0
0491
0375
0316
1d60
04e2
0583
1be5
1ca6
0448
1caa
1bab
1cac
1b4d
1cce
1d50
1bf1
1bb2
1cb3
0281
0285
0326
0327
1c29
036a
048b
08ec
038d
0630
0af1
07b2
0596
03f7
1c61
1c82
0645
1bc7
06ca
052b
0a6f
0590
0b94
06f5
1d78
1d23
1d24
1d25
1d48
038b
1d54
1cd8
1b24
04e8
02a9
1d6f
19d0
1b31
1db5
1ce0
1ccd
1c71
02f3
0315
1db6
0338
0000
