02e2
1d8c
1c6d
1cae
1cd0
1ad1
1a92
1c93
1c56
1cb7
04e2
1d63
07e6
0887
032a
07eb
038c
026f
1d11
1cf5
1c76
0385
038a
1c90
1ca6
1d48
1cad
1d95
1db6
1d57
0382
1c85
1c6a
1ca0
0401
04c2
0663
05a4
0526
0428
1d0b
1b0c
1dad
1d8e
1bef
1a30
1c31
1c32
03f5
0318
03c0
0342
1ca4
1ca8
1d0c
02f2
0477
0000
