1ce0
1a84
1bc9
02ea
058b
04ac
02ed
0350
0351
1d13
19d4
1855
1836
05a0
1da2
0465
0266
1d47
0328
1c0c
042d
02ae
1c50
1c31
04f3
0438
1ce1
02c3
0348
02a1
0267
0448
04e9
1d6a
02cd
05ae
03ef
1c11
1c92
06f4
0515
1d22
1ca7
1da8
1d8d
0350
1d32
1cd7
1bf8
02c0
03c1
1d63
1c67
1ce8
1ccc
1d51
1cb6
1d37
1d98
02e5
0406
02e7
1d6c
1d4d
1d8f
1c10
1c11
18f4
1d38
1cc2
1c65
1b86
18a7
19a8
1c4a
19ab
17ac
1bed
1d6e
1b90
1971
0434
1d16
0000
