17e0
623
784
1805
c27
ba8
bab
b8c
188e
530
1912
1593
1a76
1837
1b18
1443
12e4
786
a87
1349
fec
ead
af2
1af5
502
526
6e7
1889
9eb
64c
1aed
16ae
990
1a92
1a13
555
1840
1561
1862
1705
62a
b4b
90c
98f
650
6c3
944
7c8
929
19ea
5ed
8ee
198f
1ad0
7b3
19f4
1a15
18b6
518
720
c81
d22
be3
ac4
15aa
144b
13cc
15cd
1aae
1870
16b1
18d2
594
000
