01f
f00
eb1
0e2
f13
01f
260
c51
133
01f
191
142
eb3
e20
f03
01f
01f
270
163
01f
01f
01f
e30
eb1
170
221
f02
f20
c71
172
370
f31
0e3
01f
01f
000
01f
371
1e2
f33
01f
f00
b61
312
01f
0d1
162
130
201
113
f03
01f
f00
f32
693
01f
01f
01f
ef0
161
f10
f01
152
e23
751
e52
e30
c91
292
e43
e30
131
102
1d3
01f
01f
000
01f
e91
192
343
01f
df0
dc3
01f
260
d91
132
d73
2a0
e31
f03
01f
01f
211
e52
f13
01f
0e1
102
01f
140
1b3
200
e41
d13
230
191
c12
403
100
482
d43
df0
291
192
143
01f
120
0d1
000
01f
1b0
d91
ec3
01f
d20
131
bc3
01f
570
e61
303
5c0
193
01f
01f
120
01f
01f
01f
ed0
e91
e93
250
400
d51
363
290
ea1
cb3
be1
01f
3a1
000
01f
4f2
d23
01f
f01
de3
01f
0f1
423
191
3b3
01f
01f
731
01f
112
f13
01f
132
ea1
e32
263
d71
1e3
d91
412
2a3
ec0
282
cb3
01f
171
000
01f
d90
531
e23
01f
350
ee1
01f
db0
dc1
ec2
d00
f32
103
01f
01f
e00
163
01f
f00
01f
310
261
270
e11
331
ed2
113
170
f33
181
01f
e70
f21
102
243
000
01f
ed0
ec1
412
01f
470
661
ee2
01f
1e0
da2
1d3
e41
01f
01f
3b0
0e1
e42
01f
ea1
01f
e70
e71
222
3e0
521
e32
ea0
e11
342
db3
f22
103
1e0
1d1
0d2
01f
01f
000
01f
d90
e31
da2
01f
2d0
dd1
01f
f00
481
ef2
e13
f10
391
ec2
01f
01f
371
01f
01f
01f
1c0
ee1
2a2
0f0
1c1
e10
f03
101
dc0
d71
d82
01f
121
113
000
01f
ec1
132
01f
01f
01f
de1
1c2
e61
01f
01f
2a0
121
d52
ed3
01f
01f
01f
f23
f31
e30
e50
df3
01f
191
0e3
000
01f
112
d73
01f
160
dc3
01f
553
f01
573
01f
01f
500
381
01f
181
1a2
01f
e90
d81
ef2
d63
f31
de2
2c3
cd0
c01
d52
eb0
3a2
1f3
341
362
b63
01f
140
e52
423
000
01f
e60
213
01f
121
01f
f30
171
de3
f30
e03
01f
01f
190
1f1
cc3
01f
01f
01f
e80
ee1
443
ef0
143
1e0
ce1
3a3
01f
180
01f
f00
0f1
e73
000
01f
170
0e2
4b3
01f
e21
01f
ed2
2a3
01f
01f
140
db1
e43
01f
131
01f
0f0
0d0
dc1
240
102
ea3
e31
343
1c0
171
01f
f20
000
01f
e91
172
7f3
01f
310
331
f13
01f
e62
ea3
ea0
01f
01f
0d0
ca2
e33
01f
ee1
123
01f
ef0
242
303
200
2f1
db3
e60
dd1
212
1e3
0f1
f22
323
130
f22
483
01f
0d1
f22
e53
000
01f
db0
f31
282
253
01f
eb1
ea2
01f
ea0
d52
eb0
121
da2
01f
01f
290
c11
c92
e63
01f
01f
01f
e90
f01
4b2
2b3
e10
2a0
ef1
342
ef3
343
310
d01
01f
e40
df2
000
01f
e12
e63
01f
eb2
2b3
01f
282
5d3
352
4a3
01f
01f
0f2
6b3
01f
ee3
01f
f30
e82
cc3
f22
5a3
d12
df2
163
170
b52
01f
f10
1a2
193
000
01f
ea1
cd3
01f
151
01f
e60
c51
e72
f13
e11
e02
f33
01f
01f
e51
d13
01f
01f
01f
333
ee1
f02
e71
153
e11
c83
01f
321
000
01f
d80
273
01f
e70
111
e22
d73
01f
250
ed2
ed3
230
ef2
01f
01f
4d0
161
f22
113
01f
01f
01f
e60
123
ee2
de3
2a0
4b3
de2
e83
0f0
0f1
303
01f
f13
000
01f
260
f23
01f
e20
01f
c60
ea2
1e3
e30
163
01f
01f
e90
351
202
01f
152
01f
2e0
e82
ee3
dc0
e12
370
d82
0d3
e10
e41
1c2
213
1e0
0f1
2c2
ec3
01f
ee0
162
000
01f
f11
173
01f
f21
663
01f
ec1
f13
cf3
01f
01f
1b1
103
01f
0d1
01f
f11
e51
393
131
01f
311
323
01f
ec1
e83
000
01f
e40
491
e22
ed3
01f
cd0
221
e12
133
01f
390
ed1
d42
e13
210
e81
df2
e93
f32
01f
330
1c1
242
01f
0d2
01f
e90
141
ee2
f33
d02
200
131
e93
d70
2e1
c02
f10
601
0f2
ee3
01f
e51
1d3
000
01f
f30
321
112
01f
113
01f
eb0
e31
132
01f
01f
1b0
cd1
01f
01f
01f
171
f30
e81
dc0
2c1
e80
f11
e13
ec0
01f
250
000
01f
161
ef2
160
01f
ee0
be1
01f
ee1
01f
2a1
ee3
01f
f00
122
01f
e11
01f
0e0
172
191
151
361
db3
321
ed2
ed0
e31
142
000
01f
291
f02
203
ed0
142
d73
0f0
e31
230
bd1
0e2
143
01f
dd0
df1
e82
113
01f
01f
01f
e80
251
132
d83
01f
2e0
d31
152
213
01f
f20
e71
1d2
e43
01f
ee0
223
2a0
291
e53
130
531
f03
e60
ea1
1f2
000
01f
dd1
dd2
153
f01
0d2
f20
ec1
e41
e53
01f
2c0
292
cf3
01f
ee0
e71
0e3
01f
1a0
101
3b2
213
01f
e50
e21
01f
e60
592
f13
0e1
132
103
ec0
c31
2b3
130
e51
da2
2b3
140
f21
382
e93
000
01f
1e0
101
1c3
e80
c70
d50
211
bc3
01f
f20
e21
01f
cb0
233
01f
f23
01f
e60
451
de3
01f
d31
151
113
d30
d91
153
3e3
2f0
e61
3d3
250
e63
000
01f
331
eb2
d91
eb2
130
101
01f
e10
161
f22
3a3
01f
131
e62
01f
d41
552
ef3
01f
351
ed2
e43
01f
d11
452
f21
ed2
e30
241
ef1
df1
ee2
1a3
392
133
000
01f
01f
1a0
ef1
eb3
2d0
ee1
e43
2f0
eb2
c53
01f
5d0
dd1
f12
01f
270
df1
f33
01f
361
01f
dc1
ec3
01f
ee1
e03
e71
142
173
260
f01
e73
eb0
c93
1a1
f33
000
01f
1b0
111
ee3
140
2a1
ef2
0e1
ef2
0d0
0d2
01f
130
de2
0e3
01f
dc2
01f
e60
222
01f
2f0
2d1
f02
01f
f20
ef1
e22
103
ea2
eb2
eb0
182
01f
000
01f
0d0
1f1
f33
de1
183
2c0
f11
192
420
202
01f
3a0
201
552
01f
230
222
01f
e50
e61
243
01f
330
0d1
01f
e10
ec1
103
210
2b2
01f
141
ed3
eb0
161
103
000
01f
130
e91
f12
e80
f01
122
de1
0d2
1d3
01f
ef1
c72
d43
01f
0e0
0d2
01f
ee0
121
f33
01f
130
f11
0d2
173
01f
de0
f01
232
f33
121
1d0
dd3
f30
d31
342
0d3
ec0
eb1
f31
000
01f
330
1f1
e52
113
171
e93
d43
e81
c93
01f
e02
f03
01f
0e0
1b1
e03
01f
ef0
141
222
01f
3d0
261
f23
01f
e30
441
722
e33
103
0e0
1e1
0f2
d73
231
162
e93
eb0
d62
123
262
1c3
000
01f
ed0
151
f03
f10
0e3
ed0
153
283
01f
3f3
01f
e60
01f
f00
01f
ec0
281
ed3
01f
d83
f33
01f
d70
f23
ea1
193
ef0
0f1
000
01f
e83
01f
161
ed1
373
01f
d91
ae3
01f
ea0
3c1
e03
01f
121
132
253
01f
f20
eb2
1d3
01f
ea0
3d1
383
f00
0e1
f12
eb3
ea0
221
dc3
e90
571
233
110
1b1
ea3
f31
2e3
000
01f
f22
150
191
152
282
e43
01f
111
0e2
c83
01f
eb3
01f
773
01f
170
141
e43
01f
ec1
e92
483
ee3
0d3
ee1
0d2
213
152
0f3
323
000
01f
e60
e41
f32
f03
ec0
f11
eb0
132
143
e70
311
172
2c3
01f
be1
4f2
393
01f
e10
e81
0f2
01f
e30
e31
292
243
01f
de0
231
d32
01f
f21
e82
253
f23
d31
1d2
143
d10
131
0d3
122
f33
e70
253
000
01f
ed0
122
323
d52
ef0
e93
702
01f
ee2
0d3
01f
e80
ee2
e73
01f
c32
dd3
01f
7d2
363
01f
120
d82
eb3
f02
f13
db2
ef3
f10
182
e33
ec0
183
e72
183
000
01f
01f
2b1
f30
132
1a3
2c3
01f
ea0
d51
713
01f
243
01f
120
421
01f
181
e83
01f
eb1
0d0
1e1
283
0f1
01f
0f2
000
01f
110
e10
e50
ec3
e33
01f
102
ed3
01f
ec0
2c2
01f
d60
223
01f
0d0
d93
01f
01f
0d2
1a2
e80
1f2
0f0
102
223
ea2
f33
000
01f
101
da2
0f3
e31
f22
e53
ec2
f03
01f
01f
0d0
01f
1f0
eb2
ef3
01f
2d0
e61
2c2
01f
d80
121
01f
ea1
262
0f2
220
1b1
1e0
de2
1c0
f21
ce2
ec0
142
163
000
01f
ed1
f32
153
293
ef1
0e2
0d3
ed1
ed3
01f
ed1
eb3
01f
01f
01f
f21
01f
e71
2d3
01f
161
f03
01f
01f
f13
01f
e91
113
000
01f
240
322
e40
131
132
183
01f
ef1
d92
01f
0d0
e61
ee2
f33
01f
190
e71
3f2
01f
e10
2e1
1c3
01f
1f2
153
01f
241
eb3
202
113
1e0
212
ef3
250
ee1
3f2
260
142
ef3
f10
181
d72
1c3
000
01f
0d0
ec1
ef0
ed1
113
231
1a2
01f
bd1
d72
de3
01f
100
e61
f32
143
01f
0d1
f13
01f
130
121
0f2
1a3
01f
e80
eb1
0f0
f31
100
e31
ec2
121
162
1d3
e40
151
113
f13
000
e40
d71
cc1
01f
01f
e10
01f
e91
143
1f0
521
01f
1a1
f03
e31
102
1d0
ed1
01f
391
ea3
e00
dd1
112
211
f22
01f
01f
ef0
0d1
ec3
000
153
f31
352
da3
01f
0d0
e83
01f
113
4d1
ef2
ee3
01f
140
1d1
da0
cf1
112
e70
0f1
0f2
e03
01f
4f0
1e1
1c3
270
d01
162
1b3
d00
221
eb2
df3
3a0
f11
da3
01f
01f
250
f21
dc3
000
ef1
103
d71
242
01f
01f
140
f11
1f2
01f
351
e92
e33
293
01f
f10
eb1
203
100
151
322
e23
f32
103
01f
e00
de1
e92
253
182
d83
4c0
181
122
01f
01f
01f
130
dd1
000
111
d43
1b0
cb3
01f
01f
01f
01f
f23
120
da1
5c3
01f
1b3
ec0
181
d93
ee0
f31
e83
01f
ec0
231
3c3
291
e03
330
1c3
361
f23
01f
01f
ed0
1b1
000
141
1a2
e83
dc1
372
f03
01f
01f
f01
132
01f
ed1
103
e70
d51
1c3
01f
ed3
232
d21
f13
01f
2c1
e62
f03
351
eb0
d41
443
120
c81
ef2
01f
01f
d31
e22
1e3
000
281
231
e63
01f
01f
110
01f
273
f21
153
01f
ee0
f13
130
f01
152
1a3
370
1c1
f03
01f
de0
e41
db3
180
e11
160
2f3
230
01f
0e2
3e0
e41
ed3
000
e41
2a2
f03
110
1d1
222
01f
01f
ed0
ef1
01f
01f
ee2
01f
ec0
f33
ef2
103
240
3e1
1b2
ed3
01f
ee0
cc1
150
ef2
123
151
ea2
01f
01f
01f
01f
000
0e0
ea1
eb2
f13
01f
01f
103
01f
01f
e50
01f
f01
f22
162
263
170
e11
01f
140
ef3
390
221
152
1b1
192
113
260
df1
01f
f12
350
252
000
0e0
ec0
e11
1c2
01f
01f
0f2
01f
ee0
191
103
f20
132
e23
01f
202
0e0
1a1
f02
e70
ef2
01f
0f0
e91
292
1d3
150
0d2
123
ea0
181
db2
da3
e90
2a2
263
f21
f00
f00
ef1
142
103
000
dc1
e83
f30
ea1
182
ef3
01f
01f
ea0
01f
ea0
e41
361
282
153
01f
f13
1b2
183
f10
ea1
e12
d83
01f
150
2c1
202
e03
190
eb1
133
e31
e32
473
de0
e11
01f
01f
dd0
e51
000
e80
263
d40
0e1
263
01f
01f
e40
0d3
01f
200
ed1
133
ea1
01f
f20
0f1
423
01f
ef0
0d1
de3
191
183
ea1
193
3c3
01f
01f
d80
393
000
130
e61
293
5a3
01f
0e3
101
01f
d21
421
c33
01f
231
01f
200
eb1
0f2
01f
df0
591
263
ee0
df1
f22
363
e21
ac3
ee0
363
01f
01f
1b1
000
f21
182
2d3
130
161
162
503
01f
01f
ee0
01f
122
de3
f32
0d3
01f
eb1
183
141
f32
1b0
1f1
1b2
01f
d70
e01
f23
142
191
ec3
0d1
382
e03
01f
01f
252
ce3
000
e20
0e1
1c2
153
c20
1d1
293
01f
01f
dc0
173
01f
360
141
160
d21
f13
01f
f00
e71
213
292
01f
e60
2e1
cd2
ea0
211
2f3
cc1
222
521
153
01f
0f1
c90
261
202
1b3
000
312
232
01f
01f
f00
f23
01f
01f
982
01f
ec0
e53
da2
f13
f30
ce2
01f
7b2
7f2
203
b12
223
652
e13
f20
0d2
e30
402
000
150
e61
ec2
f23
01f
01f
1e1
112
0f3
01f
f21
1c1
01f
0e2
ed3
321
132
103
f02
01f
f33
f20
ed1
193
1b1
2d3
121
203
01f
130
403
000
ea2
d20
db2
01f
01f
e60
01f
290
ed2
0d3
130
1e2
323
01f
f20
0f2
103
ef2
ec3
ed0
113
01f
0d0
1e2
eb2
da3
01f
ee0
01f
01f
ea0
0d2
000
01f
ee0
e81
01f
01f
f21
01f
e40
232
320
ef1
133
01f
120
eb2
ef0
332
190
e51
e72
01f
0d1
ec2
d10
161
e61
0e3
eb0
ef1
f32
01f
f01
e42
000
ec1
de1
303
01f
01f
e81
ed3
01f
1e1
ea3
241
f32
01f
01f
01f
473
01f
be3
eb1
f03
f31
f33
0f2
01f
de1
eb3
000
f10
151
da2
c50
321
c32
01f
01f
f00
f21
103
01f
df2
380
542
01f
1e2
e60
ec2
213
e30
221
01f
2f0
d81
452
e63
e91
d62
0e3
dc0
f21
01f
f23
d21
000
0d0
241
0f2
e50
2c1
262
01f
01f
01f
01f
01f
ed0
ec1
db2
0d3
01f
121
122
183
210
e71
e83
e20
121
01f
131
142
203
120
102
cc1
d62
eb3
f10
351
1b2
1b3
01f
f30
0f1
143
000
01f
122
191
ec3
f03
0f0
471
113
1e1
f13
e01
1b3
d50
dd1
0d2
e93
01f
470
153
01f
01f
ed2
1e0
301
ee2
123
01f
01f
e41
132
123
000
01f
d60
df1
270
331
d03
110
2b1
1b2
bb3
3d1
f22
e33
f20
0f2
2a1
ea3
ef1
f12
1e3
170
c11
1b2
01f
f30
1a2
f03
01f
01f
de0
421
dc3
441
e42
01f
01f
160
eb1
0d3
01f
e91
f02
000
01f
150
0d1
4b2
e21
213
eb1
112
2b3
170
1b3
150
161
ed3
e60
e71
1d2
353
4b1
df2
0e0
e51
452
d73
01f
dc0
f02
01f
01f
380
f11
ec2
110
3a1
cd2
173
01f
01f
211
e82
1b2
1e1
ed2
000
01f
d50
f13
160
243
01f
210
463
1b0
1e1
ee1
263
eb0
2b1
d53
251
d73
01f
cd0
2a1
01f
01f
410
bc1
133
2b0
dc1
3e3
01f
01f
e10
291
de3
01f
df0
3c1
e53
000
01f
0d1
172
0f3
c31
ad1
2e2
f13
dd1
183
0d0
112
e61
2d2
da3
ec3
0d0
0e1
202
153
01f
f31
e62
d23
01f
01f
e50
c51
363
cf1
f12
203
01f
01f
0d0
e73
f10
172
120
0f1
df3
000
01f
440
ec1
121
e82
eb3
321
e33
e50
ec0
0e2
283
e70
171
ed3
ee0
161
463
1a0
e21
e73
01f
1d0
e21
0d2
f23
01f
01f
280
291
173
d20
f21
f22
323
01f
01f
183
f13
f30
172
273
000
01f
e92
1f3
142
372
f32
200
1e1
d10
e91
172
1e2
f13
de1
01f
3d0
661
e72
01f
01f
1a0
121
232
e61
f22
f33
01f
01f
122
0d3
f30
f03
000
01f
1d0
3d2
253
f21
ef3
d91
f22
d10
e62
e80
0f1
e62
103
e50
dc1
ea2
0d3
270
101
192
01f
130
d41
eb2
193
01f
01f
201
1f2
e43
d10
e02
01f
01f
1d0
f31
01f
133
000
01f
eb2
ea3
e60
e51
232
d90
f11
212
ef0
1b1
f22
ed1
212
311
e82
123
f11
142
133
01f
01f
01f
01f
e30
f11
de2
d53
e40
161
01f
01f
161
183
01f
251
193
000
01f
191
ea3
db0
cc0
172
dd3
e60
0f1
303
3f3
141
342
db3
e71
ed2
1a3
2d2
01f
470
551
d63
01f
01f
c30
cf1
d72
1e3
d50
161
1c2
223
01f
01f
eb1
131
f33
0e0
ee1
e12
1d3
000
01f
f01
253
243
ef0
373
eb1
e83
eb3
f30
190
0e3
e50
141
01f
261
01f
01f
df1
513
270
e11
e03
01f
01f
163
01f
01f
000
01f
0f1
e13
201
103
130
293
2c1
e73
e71
3c1
113
100
c81
112
e70
0e1
4b3
01f
100
141
ea3
01f
01f
210
cd1
0e2
cd3
d03
01f
01f
db1
103
01f
01f
000
01f
01f
202
103
2c2
513
e92
ed3
160
151
ea2
e31
543
e83
e00
0f2
01f
340
311
ec2
e73
01f
01f
0f1
1e2
233
e90
eb1
eb2
df3
01f
01f
162
f33
01f
ee3
000
01f
cf1
3d2
383
2a1
0f2
e60
221
292
183
e81
eb2
e93
f11
e02
f23
f10
f21
123
2e0
f13
d50
211
3c3
01f
eb1
e82
e83
01f
01f
c81
472
133
4d0
e61
e22
d23
01f
01f
150
191
153
f32
000
01f
d22
df3
292
122
dd3
ef0
c02
113
e72
333
d52
bc3
01f
4d2
01f
e22
283
01f
01f
c02
2d3
130
c82
113
01f
01f
3c2
e43
01f
142
ee3
000
01f
2f1
122
453
e81
f32
01f
261
1d2
ef3
241
0d2
e43
100
122
dc3
211
e93
0d1
f12
253
01f
431
e13
01f
01f
c21
eb2
2f3
ee1
e33
01f
01f
01f
142
0d3
1b0
381
242
f03
000
01f
f10
112
f00
1e3
d80
263
172
193
ee2
e50
0f2
253
1c0
e82
0f3
f32
d63
01f
f10
171
01f
01f
140
1d3
380
0d2
413
01f
01f
ef2
f21
01f
000
01f
210
282
0f0
e71
d42
1f0
d71
100
ee1
183
e80
1d2
2d0
ec1
111
3a2
de0
1d2
01f
f33
01f
01f
1c0
e31
d32
110
192
01f
01f
162
f33
113
212
ef3
000
01f
ef3
01f
f22
01f
1c3
01f
161
e71
d03
01f
6c3
01f
01f
0f3
3b1
ed2
de3
01f
01f
01f
01f
f31
000
01f
f20
142
153
eb3
dc0
231
e42
260
f01
372
163
211
272
f10
111
ee2
123
eb1
d72
01f
2c1
612
353
01f
01f
171
c42
dd3
200
181
1c2
01f
01f
f30
01f
ee1
122
203
000
01f
1b0
d21
e52
eb3
da0
261
153
e00
3a1
102
f11
f02
123
f33
121
180
121
f13
120
1f2
01f
e71
f22
1c3
01f
01f
d00
e72
e63
ea0
e32
01f
01f
0d0
161
01f
280
000
01f
191
102
0e3
f11
1a3
01f
ee0
521
e71
01f
101
411
ee2
f13
01f
1f0
143
01f
e20
1c1
01f
dc0
f21
ed3
240
f12
110
ee1
ef2
0f3
501
ed3
f30
01f
000
01f
dc0
281
eb3
1b0
f21
132
01f
261
ea2
ea3
220
e91
513
e93
f00
443
150
371
ec2
df3
113
e11
132
c23
01f
d53
163
f20
e32
363
150
192
f03
d11
f23
350
3b1
3f1
f13
01f
000
01f
380
311
1e2
ea0
01f
2c0
1d1
f22
283
d30
2d1
f12
ec0
141
310
d81
0d3
100
101
e43
281
112
01f
3d0
2a0
142
d53
1d0
e91
1a2
0e3
150
e31
f32
e43
0d0
cf3
eb0
d11
3d3
f32
413
101
000
01f
3c0
153
f10
0f1
f03
01f
561
333
d90
0d1
e93
e40
211
d40
ed1
3c0
ef1
4c3
160
c50
481
e93
01f
1c0
551
500
da1
133
f11
1f0
0e1
0e3
e53
f20
4e3
01f
191
f03
000
01f
cf1
2a2
273
0d0
ee3
01f
0e0
0d3
5f1
d53
0e0
ea1
ee3
f30
4e1
e43
d61
ec2
443
133
b11
e43
01f
180
e01
1f3
f10
131
0f2
433
f30
4d1
0d2
1b3
e81
ce2
263
0f0
f21
dd2
0d3
191
ee3
f31
322
d73
01f
000
01f
e90
3a3
0d0
01f
d40
132
493
d10
f01
0f3
01f
ea0
e21
01f
f20
0f3
250
e31
1b3
01f
f00
142
403
e90
ee1
143
320
181
e43
2d0
d51
240
e71
152
153
d50
d53
cd0
481
112
173
000
01f
163
120
0d1
01f
de0
e41
d31
141
dc1
da2
f01
ef1
421
f32
01f
0f1
1b0
eb2
163
d61
172
410
561
dd2
310
361
e72
e80
df1
da0
cd1
452
01f
000
01f
c40
ef2
1c0
f21
f23
01f
dd0
ef2
1f3
1b0
161
0e0
e01
191
1e2
2a1
112
141
bd1
1f3
01f
ec0
0f1
1c3
491
f23
360
261
432
280
101
180
0e1
f13
de0
ee1
d82
0e3
000
01f
e90
1f1
f02
142
113
01f
291
113
1e0
131
f30
193
250
ea2
eb3
ea0
e31
01f
de0
211
0d3
01f
ec0
1f1
163
0e0
f31
1a0
f11
d72
e93
ee1
152
0e1
ef2
0d0
e61
222
01f
161
000
01f
c30
f01
0d2
473
ef1
ef3
01f
e02
683
300
201
1a2
e53
01f
2f0
3d1
122
e63
e30
363
153
0e1
102
01f
cd1
dd2
6b3
172
4e3
210
d72
e43
e62
1e3
e51
e42
1a3
361
112
e83
eb0
e43
f12
133
000
01f
0f0
dd1
01f
01f
ef0
db3
170
171
d53
133
121
c93
eb0
ef1
01f
113
01f
e30
111
e03
ec0
373
1c3
0d3
e70
cc3
1b3
01f
000
01f
1b0
163
01f
221
de3
f11
f21
f10
191
f12
e13
2c1
e93
e31
0e3
0d1
01f
df1
f00
e71
0e3
e71
142
d43
01f
d61
ee3
ec0
671
133
1b0
142
01f
000
01f
f12
0f0
102
01f
ee0
e82
ef3
f30
e81
0d0
0e1
132
ec0
f01
d12
f00
ee3
ec0
f11
1b0
221
102
01f
1b1
e32
ef3
e30
0f2
0f3
200
291
152
c63
190
281
ca3
ed0
e61
f22
1d3
e10
e21
242
683
01f
000
01f
1c0
da1
171
01f
df0
e71
ec2
e93
2a0
c42
141
cf1
ee2
e10
110
0d1
01f
cf0
ef2
de2
e20
cc1
482
383
161
ec2
01f
d80
f02
f33
1f2
01f
000
01f
a12
103
252
01f
ee0
e62
f13
0f0
5d2
103
eb3
01f
d80
263
193
f02
db3
01f
e80
0d3
140
102
5e3
f10
132
132
5b3
3b3
272
e93
d13
01f
000
01f
141
f01
ef2
01f
120
781
1d2
e93
e11
de3
1e1
152
01f
f21
273
e52
100
681
01f
0e0
571
0f2
f00
d01
f22
ea1
503
e60
113
0f1
ed3
0d0
c73
0e0
181
232
000
01f
110
f12
263
0e1
f23
01f
ea0
0d2
300
0d1
01f
180
0f2
1a2
0e3
170
e72
da0
01f
dc0
f32
ea3
2a0
ef2
f23
110
0d2
130
e33
f02
d93
ed0
272
1c3
f20
f22
303
01f
000
01f
f01
2f2
1b3
ee0
01f
120
232
e60
291
312
f01
0e0
251
1f2
ec3
e81
cf2
e90
0d1
102
123
dc1
272
01f
e30
e51
122
d00
0e1
133
2d0
1a1
ef2
e70
d92
de0
260
df2
2b0
f31
122
000
01f
111
f23
0f2
153
01f
e41
d93
1e1
d73
133
0f1
df3
db3
f22
ea3
373
01f
d01
dd3
e31
d23
3c3
f31
112
213
dc3
f03
01f
000
01f
171
e32
e90
f02
01f
180
d71
452
323
1d0
102
f13
f00
0e2
103
2d0
342
280
e31
1c2
da2
cc0
181
352
303
01f
e61
2c3
250
cd2
ed3
230
ee1
ee3
ec2
db2
0d3
370
e21
572
ef3
eb0
261
ee2
ef3
153
000
01f
e43
101
122
133
01f
330
f02
170
f31
121
0f3
1f0
d21
ef2
f33
e90
f21
e93
01f
01f
220
eb1
1a0
eb1
e92
ea3
f10
173
0d0
e71
f03
0d1
1e3
ed0
361
160
000
0f1
f12
01f
c01
df1
340
151
0f3
2b1
01f
df1
153
cc1
102
221
ee3
01f
01f
170
f21
ed2
253
1c0
e51
01f
e31
f02
173
01f
01f
2b1
ec3
01f
000
3c0
1a1
01f
c41
1f3
d11
122
120
103
db0
101
f22
ef3
01f
150
ea1
173
b11
1e2
450
171
01f
01f
ef1
ec2
0d3
ea0
d51
0d2
253
01f
01f
01f
373
2e0
1b1
01f
000
e60
d62
213
01f
e71
df3
dc1
222
e33
d60
301
140
222
01f
421
e32
f30
281
482
ca3
de0
d11
e02
2d3
01f
01f
0f0
611
c02
eb0
2e1
2f2
d33
01f
120
211
d72
01f
ed1
ea3
f20
cc1
f02
243
01f
000
f30
221
01f
d00
151
c33
d80
141
dc3
d60
df1
223
ed0
e31
263
01f
dc0
291
db3
ef0
d23
ed0
381
203
01f
01f
2e1
e43
cf1
f13
01f
291
d83
01f
250
113
1d1
2d3
01f
000
0d0
ea2
e43
01f
251
ef2
141
f21
e93
e70
f11
213
01f
0d0
e33
e91
372
140
ee2
e43
01f
01f
e51
ed2
0e1
202
01f
0f0
f22
01f
e50
541
113
120
0d1
e42
01f
000
e50
f22
01f
490
f31
e92
cd3
3f0
dd1
dc3
c11
310
f21
01f
303
e41
163
ee0
ee3
01f
01f
ea0
eb1
5b3
d91
0d3
01f
161
273
01f
e00
e03
01f
000
e01
192
f03
01f
2c0
201
280
311
f02
c62
e42
0d3
01f
112
ef0
e31
e12
0f3
0f2
01f
01f
ef2
eb3
f11
d12
113
01f
200
191
192
f13
01f
2c0
f30
01f
000
110
ed2
eb3
01f
4b0
0f1
2b2
390
262
eb1
120
342
0e3
01f
130
ed1
ef2
ef1
100
e91
ed2
01f
01f
e60
ec1
d62
0f3
ec0
01f
0d1
01f
3c1
f32
100
01f
000
222
1f3
01f
e11
ea2
e71
0d1
122
e72
d83
01f
251
1a3
151
e61
362
263
01f
01f
f10
3b1
e52
183
0e1
ec3
01f
1f1
f02
123
01f
230
df2
de3
e41
282
1b3
01f
000
ef3
01f
1c0
e82
c03
1d0
1b1
da3
551
502
c93
2b1
122
01f
01f
ea0
241
622
111
e93
01f
01f
f01
293
461
572
dd3
01f
c41
c72
2b3
01f
3e0
151
e02
2d3
121
f03
01f
000
01f
01f
141
333
ea0
141
223
200
cc3
173
01f
1d0
0e3
0f0
0d1
e83
d70
121
01f
01f
290
f33
1d0
c23
01f
143
01f
261
d93
de0
01f
000
1c1
2b3
01f
100
dc1
01f
f30
331
e52
1d1
ad3
01f
d61
103
dc0
f02
383
ee0
401
393
01f
01f
c01
dd3
f20
eb2
1d3
01f
150
be1
01f
e51
e13
e70
3f1
173
01f
000
e80
e81
1a2
01f
0e0
151
1c2
d73
130
1b1
112
ec3
e62
ee3
f12
01f
112
e73
f00
1d3
1e2
01f
01f
c83
d42
01f
0f0
151
f13
01f
e32
162
01f
000
371
e42
f33
01f
272
273
d90
182
223
460
d32
f30
b91
342
133
01f
350
171
f02
180
e82
253
d20
391
e22
01f
01f
4b0
e02
d53
390
e11
da2
153
01f
0d1
f03
01f
ea0
c91
d62
d70
1d1
01f
000
622
01f
462
1c3
242
183
1c0
ef2
f13
b32
01f
312
ee3
1e0
e73
ed0
5c2
dc3
01f
01f
100
e22
240
ea2
0e3
01f
ee0
1c2
243
01f
172
5c3
ed0
372
eb3
01f
000
e93
01f
f12
373
f20
2a3
f00
e71
423
01f
111
e73
113
0d0
1c1
ea3
01f
01f
2b1
d43
f30
d51
01f
121
01f
f31
e13
191
172
01f
000
103
01f
120
0e1
e33
f30
db3
250
142
1d3
e70
1c2
01f
1a0
f12
ee2
eb3
ea0
152
01f
01f
310
ef2
1d3
2e0
01f
0e1
e72
01f
240
0f1
f22
ee0
1d2
01f
000
f22
01f
111
ef2
f33
f22
f33
2e2
220
01f
f10
322
d70
502
e52
01f
01f
ee0
422
e60
171
432
01f
01f
01f
df0
231
163
0e0
d92
01f
000
0d1
dd3
01f
ee1
183
de1
243
441
01f
01f
1f1
1a1
e23
01f
01f
01f
281
341
e83
01f
183
01f
ef1
f21
f23
01f
000
182
f03
01f
01f
01f
140
1f1
452
160
342
0e3
01f
eb0
141
e40
1f1
d62
f01
3d2
01f
01f
e80
191
1a3
2b1
ed3
01f
da2
103
01f
330
1d0
da1
3b2
01f
000
2a1
162
193
01f
01f
ef1
f00
e51
123
c31
db2
f33
01f
0d0
151
112
371
1e2
273
01f
01f
100
f12
d21
f03
01f
130
191
01f
150
d31
e22
171
142
223
01f
000
