0329
1cea
1c4b
048d
044e
1b8f
1890
1a31
1c72
1bf3
0316
03b7
03f8
0340
0361
1ae3
1b84
0505
1cc7
1b08
1bcc
032e
1d30
03d2
04b3
0296
03d7
0558
02e0
0282
04a3
1d25
1da6
1d69
1daa
1d0b
1d0d
1d4e
1caf
1db0
1d31
1bb2
1bb3
1cb6
1bd7
1af8
1ae1
1b22
1be6
1c27
02ea
1c8c
19ad
1b0e
02cf
0310
02f1
0375
03b6
0337
0498
02a4
0388
1d10
1d91
1db4
1d76
1d51
1ca0
0666
02e7
1c08
1949
1c10
0414
1c40
1ca1
1cc2
1ca3
1ae4
0267
02ca
072b
09ec
088d
040e
0410
1db4
1c76
0000
