02e1
1d24
1d27
1d4b
084d
07ae
1daf
1cb0
0482
0343
1be5
1d46
02c7
02c8
1cab
1c8c
1c0d
1b8f
1a10
1891
1ad2
1b13
1c75
1a96
1b17
1bd8
1d82
04c7
0808
0609
032c
03cd
05cf
04b0
03b1
02b7
1ba1
18a2
1d23
1be6
16c7
1a48
1b6b
160c
158d
1c6e
026f
1db0
1771
1632
1c53
0578
1ae0
1981
1c62
1da3
0425
030a
1d8c
056d
066e
1cf0
1a11
0413
1c56
1c17
1c80
1d81
1da2
1ac5
1b06
1b27
1c68
1a6a
1bcb
04ef
04f0
04f1
0392
05f4
0d55
0ef6
05d7
0321
0344
0687
0848
03e9
026b
030c
1ace
1c91
1c33
1b95
1cd6
1c04
19eb
19ac
18d0
1991
1d14
1815
17f6
0000
