1d27
1d6d
1cee
1c92
1db7
1d01
1c42
1b83
1d45
03cb
050c
1c0e
04f0
0a31
0452
1d34
0436
0477
1b21
1ce5
1a66
1ba7
1be8
1b2a
1acb
1aec
1b6d
1bcf
0402
0583
0325
0768
072d
0272
1b95
1b76
1c77
1d78
1ac0
1c05
03ec
1dad
1d0e
0490
0391
1cb3
0274
0336
1d78
05e1
03e2
02a6
1b6a
1dac
1b8f
1b71
1b76
1da0
1cc1
1c02
1b63
1c44
1cc6
1ae7
1c48
1ccc
058e
02d2
1c74
19a1
0464
1ac6
0408
1d4b
056c
032d
1d6e
1d6f
0831
1db3
0675
0af6
0000
