1d21
1ae2
1be3
1c65
1be6
1c49
04ea
026e
04cf
0ad0
0ff1
0e32
0333
1cb4
1b78
1c42
1ba3
1b84
1ca5
1d66
1aa7
1948
1a09
1c6a
1b2b
19ac
1bad
1ace
1c0f
1b10
1cd1
1d72
1d56
1d97
0282
0263
0465
0566
0727
0688
0409
1d8d
1cae
1bf1
1d97
1d18
1d23
1c04
1da7
040d
046e
1cf1
1d2a
1d0b
1d90
0272
0313
0395
0316
1d41
1d02
1ac5
1ac6
1b07
1ca8
1bca
1c8b
0312
0434
0455
0296
0540
1d82
1d24
1ca6
1d09
04ea
09cb
0a4c
050f
03b0
1d52
1c13
1bd4
19b5
1b16
1bb7
1cd8
1ac5
1b26
0488
0569
1baa
048c
070d
050e
1b2f
0572
0473
1d14
1d75
1c36
0000
