1c81
1d62
1b84
1ca6
1d0c
0420
1a81
1822
1a23
0525
0a06
0347
1b48
1c49
032a
0f4b
0eac
1cad
1d8e
1d2f
07b1
1d73
1b54
1d15
0289
056b
036c
034d
04f0
0451
0313
03d6
1c01
1d24
1ba6
03e9
03aa
1c8b
03cd
0311
0b72
04b3
0336
0b37
0758
0442
0528
0329
1d8a
02ae
1caf
0391
1d52
02b4
0395
0516
1c00
1b61
1922
1ba4
1cc6
1a07
1da9
082a
046b
06ef
0a30
0311
1d74
1cb5
1d76
1d37
1da0
0361
07c2
0c23
09c4
0447
09c8
0c69
1b4a
1a4b
030e
1a2f
1b50
1711
18b2
1cb4
1c35
1b96
1a60
1941
1ce5
1ce6
1ce7
1c2b
1b8c
1d91
17b4
0000
