1d62
0484
1c46
03e9
02cf
02b0
02d1
0261
1cc3
1d64
0367
032c
02af
1c31
1c72
02d4
03f5
1c17
1ce0
1a41
1d42
1d86
1ba7
18c8
1689
03f1
0472
0473
02d4
0535
0576
02d7
0420
1c43
02e5
1d46
1d27
08a9
1d4b
1dad
1d6f
1d30
1cd1
1832
1c93
02b4
1b57
0340
0681
0322
0525
1ce7
1bab
18ec
19ad
1cce
1caf
1b30
16b1
19d2
1ad3
1cf4
1b75
1ab6
1d40
02e3
0265
02ce
0372
0273
1bb4
1cf5
1cb6
0343
0544
1d09
1b0c
1ccd
1a4e
1bef
1c50
02b2
0276
1d61
1d26
048d
03ae
0290
0491
0474
0455
1a57
19b8
0000
