03a4
1c46
1ca7
04c8
0489
1cea
1b6b
1d52
0274
1cc0
1b46
1927
1b88
1beb
1bcc
194d
1b6e
1c92
0454
0635
18c1
0423
03e4
1985
1826
1a27
1ae8
1989
1c0a
1a8b
19ac
19cd
1bce
1cef
1db0
0332
0293
06d5
05b6
06b7
1d21
1ba6
05a8
1c6b
1d6c
1cae
1a10
1691
1792
1c75
1b96
03f8
0262
0286
03c7
1c6a
1bed
1c8f
1b71
1952
1c33
1d96
1a57
18d8
03c1
0382
0403
1d44
1d69
1c2a
1d2b
034e
0340
1d81
1a82
1b23
1b64
0346
17a8
18e9
054a
04cb
0511
0832
03b3
1d94
0335
04f6
03f7
1c61
1c82
1b65
1906
0308
192a
1a4b
08ac
0a6d
196f
0470
0951
1c13
1bd4
0475
07b6
0000
