ed0
2c1
e33
da1
252
01f
01f
ea0
e91
ea0
df1
2d2
4b3
e90
181
e51
170
362
260
e11
e62
e73
de1
e82
3a3
dd0
5a2
1c3
4b0
d62
e23
01f
e80
d61
322
01f
e21
eb2
e83
e41
203
e31
492
ed3
e50
1f1
e62
de3
000
1c2
df0
e31
e92
01f
01f
e11
e93
cd0
d31
e93
1c1
ed2
490
242
e10
e32
1b3
4c2
df3
e70
541
ea2
213
e91
ed2
e93
e50
ec3
e51
db2
01f
e20
e91
eb3
01f
6d0
e00
451
223
e02
573
000
01f
570
ea1
01f
01f
140
411
3e0
e31
e70
db1
ea0
e91
e00
01f
380
ec0
ea1
eb0
371
01f
5c0
ed1
01f
da1
e40
01f
ed0
000
4a3
01f
410
3c1
d73
5f1
d63
433
01f
d50
df2
e53
e90
e91
382
e70
e93
1a0
e43
270
ea0
01f
201
e92
e10
191
d92
c83
ea0
e71
d72
de3
440
e41
5d2
ea3
01f
01f
000
ea3
01f
e21
262
d83
180
eb1
eb0
e62
01f
01f
230
e11
e82
2e3
2c0
130
3f3
01f
240
1b2
e83
eb0
eb2
e93
ed1
ea3
400
ed1
dd3
140
291
142
db3
e40
541
252
ec3
e32
d93
2a2
d33
180
eb3
000
e90
01f
e00
dd0
01f
ea0
01f
1e1
e80
e81
01f
01f
01f
e60
180
2c1
2a1
ec1
330
ed1
01f
e00
01f
01f
000
01f
df0
2b3
141
1a3
e80
dc1
ec2
ec3
01f
ec0
d91
291
291
df3
e90
1a3
df0
ed1
d62
5a3
eb1
e60
ed0
313
e50
01f
01f
ce0
d61
e02
eb3
e60
381
4c2
d83
01f
5d0
ce2
ec3
01f
000
01f
de0
d71
bd2
473
01f
1e1
d72
01f
3a1
d32
da3
01f
ec2
ea1
d62
173
dc0
4a1
dd2
e13
e71
562
d13
ec0
ed1
eb2
ec3
e80
eb1
e22
483
281
db2
2c3
162
01f
510
da1
e82
2a0
e91
01f
db0
e42
01f
000
01f
df0
e80
ed1
610
141
01f
d30
481
01f
ed0
281
01f
01f
581
e51
e20
01f
01f
e20
7f1
cc0
e21
01f
01f
e61
000
e40
ea1
e23
202
ed3
01f
ed1
e41
2d3
e41
e42
313
e93
270
e11
dc2
e83
01f
01f
ed0
e53
01f
5f1
e32
e30
df1
282
e73
e70
211
e02
203
131
cb2
d83
290
141
e52
ed3
240
e22
ed3
2e3
01f
01f
000
dc2
5c3
180
eb1
342
ec3
01f
01f
dc0
1e2
e23
133
260
251
392
01f
01f
3a2
eb3
01f
ea0
ec2
260
e30
201
232
ea3
e51
e43
01f
1b0
eb0
e82
e13
eb2
eb3
ed1
000
01f
ea1
01f
260
1f0
e41
2c0
e41
01f
df0
01f
01f
01f
01f
01f
2b0
e31
ed0
e81
690
01f
01f
3c1
eb0
1f1
150
1a1
000
