04e5
1c28
058a
0a2b
072c
1ccd
1d8e
1912
1953
1cf6
1b17
06c1
1b03
1c84
0326
1a28
1cea
1b0b
1cec
1a2d
19af
1c30
1d54
0356
0300
0501
0262
03e3
02e4
1d8f
1d70
1cf5
1d96
1c60
05aa
1d8d
056f
0830
0351
1d33
0434
0915
0776
0657
028e
0510
06b1
0295
0836
04f7
1d18
1d6f
1bd4
1c01
1be2
1966
1ac7
1d88
042a
1a4c
05ef
1c71
0294
1c40
1c01
1ca2
1bc3
19a4
1a85
1cc6
03a9
1aaa
1dab
046c
088d
0a2e
1b4f
1d50
0452
0533
0415
04f6
0437
0000
