02a2
0363
1d66
0329
1cca
1d0b
076d
050e
1c2f
1af4
1935
1956
1d21
1d42
1b23
1ae4
1da5
0366
1a68
046a
076b
1ced
042f
0270
1cb1
1cb6
0298
04a0
0421
0325
1c4b
1cac
1d4f
1c30
1b31
1d12
1c93
1d95
1c36
1af7
1938
1d81
1c42
1cc3
1a85
1946
1c07
1b2a
192b
188c
1b6d
1d0f
19f0
1a91
1bb2
1c73
0347
02a8
030c
1d30
1bb6
1d77
1b40
1965
026c
040d
026f
02d0
02b1
1d96
1bd7
1b98
1ba0
04e2
0ae3
0344
0b06
0b07
06c8
1ce9
1bed
158f
1710
1811
1a12
1d54
1856
1db7
0261
1d24
1c08
1889
026a
060b
03ac
02cd
1d0e
0650
1b53
02f7
0000
04e5
1c28
058a
0a2b
072c
1ccd
1d8e
1912
1953
1cf6
1b17
06c1
1b03
1c84
0326
1a28
1cea
1b0b
1cec
1a2d
19af
1c30
1d54
0356
0300
0501
0262
03e3
02e4
1d8f
1d70
1cf5
1d96
1c60
05aa
1d8d
056f
0830
0351
1d33
0434
0915
0776
0657
028e
0510
06b1
0295
0836
04f7
1d18
1d6f
1bd4
1c01
1be2
1966
1ac7
1d88
042a
1a4c
05ef
1c71
0294
1c40
1c01
1ca2
1bc3
19a4
1a85
1cc6
03a9
1aaa
1dab
046c
088d
0a2e
1b4f
1d50
0452
0533
0415
04f6
0437
0000
02e2
1d8c
1c6d
1cae
1cd0
1ad1
1a92
1c93
1c56
1cb7
04e2
1d63
07e6
0887
032a
07eb
038c
026f
1d11
1cf5
1c76
0385
038a
1c90
1ca6
1d48
1cad
1d95
1db6
1d57
0382
1c85
1c6a
1ca0
0401
04c2
0663
05a4
0526
0428
1d0b
1b0c
1dad
1d8e
1bef
1a30
1c31
1c32
03f5
0318
03c0
0342
1ca4
1ca8
1d0c
02f2
0477
0000
0329
1cea
1c4b
048d
044e
1b8f
1890
1a31
1c72
1bf3
0316
03b7
03f8
0340
0361
1ae3
1b84
0505
1cc7
1b08
1bcc
032e
1d30
03d2
04b3
0296
03d7
0558
02e0
0282
04a3
1d25
1da6
1d69
1daa
1d0b
1d0d
1d4e
1caf
1db0
1d31
1bb2
1bb3
1cb6
1bd7
1af8
1ae1
1b22
1be6
1c27
02ea
1c8c
19ad
1b0e
02cf
0310
02f1
0375
03b6
0337
0498
02a4
0388
1d10
1d91
1db4
1d76
1d51
1ca0
0666
02e7
1c08
1949
1c10
0414
1c40
1ca1
1cc2
1ca3
1ae4
0267
02ca
072b
09ec
088d
040e
0410
1db4
1c76
0000
1ce0
1a84
1bc9
02ea
058b
04ac
02ed
0350
0351
1d13
19d4
1855
1836
05a0
1da2
0465
0266
1d47
0328
1c0c
042d
02ae
1c50
1c31
04f3
0438
1ce1
02c3
0348
02a1
0267
0448
04e9
1d6a
02cd
05ae
03ef
1c11
1c92
06f4
0515
1d22
1ca7
1da8
1d8d
0350
1d32
1cd7
1bf8
02c0
03c1
1d63
1c67
1ce8
1ccc
1d51
1cb6
1d37
1d98
02e5
0406
02e7
1d6c
1d4d
1d8f
1c10
1c11
18f4
1d38
1cc2
1c65
1b86
18a7
19a8
1c4a
19ab
17ac
1bed
1d6e
1b90
1971
0434
1d16
0000
1d21
1ae2
1be3
1c65
1be6
1c49
04ea
026e
04cf
0ad0
0ff1
0e32
0333
1cb4
1b78
1c42
1ba3
1b84
1ca5
1d66
1aa7
1948
1a09
1c6a
1b2b
19ac
1bad
1ace
1c0f
1b10
1cd1
1d72
1d56
1d97
0282
0263
0465
0566
0727
0688
0409
1d8d
1cae
1bf1
1d97
1d18
1d23
1c04
1da7
040d
046e
1cf1
1d2a
1d0b
1d90
0272
0313
0395
0316
1d41
1d02
1ac5
1ac6
1b07
1ca8
1bca
1c8b
0312
0434
0455
0296
0540
1d82
1d24
1ca6
1d09
04ea
09cb
0a4c
050f
03b0
1d52
1c13
1bd4
19b5
1b16
1bb7
1cd8
1ac5
1b26
0488
0569
1baa
048c
070d
050e
1b2f
0572
0473
1d14
1d75
1c36
0000
