03a4
1c46
1ca7
04c8
0489
1cea
1b6b
1d52
0274
1cc0
1b46
1927
1b88
1beb
1bcc
194d
1b6e
1c92
0454
0635
18c1
0423
03e4
1985
1826
1a27
1ae8
1989
1c0a
1a8b
19ac
19cd
1bce
1cef
1db0
0332
0293
06d5
05b6
06b7
1d21
1ba6
05a8
1c6b
1d6c
1cae
1a10
1691
1792
1c75
1b96
03f8
0262
0286
03c7
1c6a
1bed
1c8f
1b71
1952
1c33
1d96
1a57
18d8
03c1
0382
0403
1d44
1d69
1c2a
1d2b
034e
0340
1d81
1a82
1b23
1b64
0346
17a8
18e9
054a
04cb
0511
0832
03b3
1d94
0335
04f6
03f7
1c61
1c82
1b65
1906
0308
192a
1a4b
08ac
0a6d
196f
0470
0951
1c13
1bd4
0475
07b6
0000
1c81
1d62
1b84
1ca6
1d0c
0420
1a81
1822
1a23
0525
0a06
0347
1b48
1c49
032a
0f4b
0eac
1cad
1d8e
1d2f
07b1
1d73
1b54
1d15
0289
056b
036c
034d
04f0
0451
0313
03d6
1c01
1d24
1ba6
03e9
03aa
1c8b
03cd
0311
0b72
04b3
0336
0b37
0758
0442
0528
0329
1d8a
02ae
1caf
0391
1d52
02b4
0395
0516
1c00
1b61
1922
1ba4
1cc6
1a07
1da9
082a
046b
06ef
0a30
0311
1d74
1cb5
1d76
1d37
1da0
0361
07c2
0c23
09c4
0447
09c8
0c69
1b4a
1a4b
030e
1a2f
1b50
1711
18b2
1cb4
1c35
1b96
1a60
1941
1ce5
1ce6
1ce7
1c2b
1b8c
1d91
17b4
0000
1d27
1d6d
1cee
1c92
1db7
1d01
1c42
1b83
1d45
03cb
050c
1c0e
04f0
0a31
0452
1d34
0436
0477
1b21
1ce5
1a66
1ba7
1be8
1b2a
1acb
1aec
1b6d
1bcf
0402
0583
0325
0768
072d
0272
1b95
1b76
1c77
1d78
1ac0
1c05
03ec
1dad
1d0e
0490
0391
1cb3
0274
0336
1d78
05e1
03e2
02a6
1b6a
1dac
1b8f
1b71
1b76
1da0
1cc1
1c02
1b63
1c44
1cc6
1ae7
1c48
1ccc
058e
02d2
1c74
19a1
0464
1ac6
0408
1d4b
056c
032d
1d6e
1d6f
0831
1db3
0675
0af6
0000
1d62
0484
1c46
03e9
02cf
02b0
02d1
0261
1cc3
1d64
0367
032c
02af
1c31
1c72
02d4
03f5
1c17
1ce0
1a41
1d42
1d86
1ba7
18c8
1689
03f1
0472
0473
02d4
0535
0576
02d7
0420
1c43
02e5
1d46
1d27
08a9
1d4b
1dad
1d6f
1d30
1cd1
1832
1c93
02b4
1b57
0340
0681
0322
0525
1ce7
1bab
18ec
19ad
1cce
1caf
1b30
16b1
19d2
1ad3
1cf4
1b75
1ab6
1d40
02e3
0265
02ce
0372
0273
1bb4
1cf5
1cb6
0343
0544
1d09
1b0c
1ccd
1a4e
1bef
1c50
02b2
0276
1d61
1d26
048d
03ae
0290
0491
0474
0455
1a57
19b8
0000
1c65
1d86
04a8
0289
1c4a
1c4b
1c90
1cf1
1d72
1980
1921
1be2
1d25
1ca6
1d47
04c9
06cb
034e
05d0
0491
0375
0316
1d60
04e2
0583
1be5
1ca6
0448
1caa
1bab
1cac
1b4d
1cce
1d50
1bf1
1bb2
1cb3
0281
0285
0326
0327
1c29
036a
048b
08ec
038d
0630
0af1
07b2
0596
03f7
1c61
1c82
0645
1bc7
06ca
052b
0a6f
0590
0b94
06f5
1d78
1d23
1d24
1d25
1d48
038b
1d54
1cd8
1b24
04e8
02a9
1d6f
19d0
1b31
1db5
1ce0
1ccd
1c71
02f3
0315
1db6
0338
0000
02e1
1d24
1d27
1d4b
084d
07ae
1daf
1cb0
0482
0343
1be5
1d46
02c7
02c8
1cab
1c8c
1c0d
1b8f
1a10
1891
1ad2
1b13
1c75
1a96
1b17
1bd8
1d82
04c7
0808
0609
032c
03cd
05cf
04b0
03b1
02b7
1ba1
18a2
1d23
1be6
16c7
1a48
1b6b
160c
158d
1c6e
026f
1db0
1771
1632
1c53
0578
1ae0
1981
1c62
1da3
0425
030a
1d8c
056d
066e
1cf0
1a11
0413
1c56
1c17
1c80
1d81
1da2
1ac5
1b06
1b27
1c68
1a6a
1bcb
04ef
04f0
04f1
0392
05f4
0d55
0ef6
05d7
0321
0344
0687
0848
03e9
026b
030c
1ace
1c91
1c33
1b95
1cd6
1c04
19eb
19ac
18d0
1991
1d14
1815
17f6
0000
