02a2
0363
1d66
0329
1cca
1d0b
076d
050e
1c2f
1af4
1935
1956
1d21
1d42
1b23
1ae4
1da5
0366
1a68
046a
076b
1ced
042f
0270
1cb1
1cb6
0298
04a0
0421
0325
1c4b
1cac
1d4f
1c30
1b31
1d12
1c93
1d95
1c36
1af7
1938
1d81
1c42
1cc3
1a85
1946
1c07
1b2a
192b
188c
1b6d
1d0f
19f0
1a91
1bb2
1c73
0347
02a8
030c
1d30
1bb6
1d77
1b40
1965
026c
040d
026f
02d0
02b1
1d96
1bd7
1b98
1ba0
04e2
0ae3
0344
0b06
0b07
06c8
1ce9
1bed
158f
1710
1811
1a12
1d54
1856
1db7
0261
1d24
1c08
1889
026a
060b
03ac
02cd
1d0e
0650
1b53
02f7
0000
