1d42
04a4
1d06
0409
02ef
02d0
0331
0273
1ca3
1d64
0347
036c
1bf1
1c92
0294
03b5
1bf7
1ca0
1a81
1d02
1d84
1da6
1b87
18a8
1689
03d1
0432
0473
02d4
04d5
0576
0297
03e0
1c63
02a5
1da6
1d07
0869
1ceb
1dac
1cef
1cf0
1d11
1852
1c53
02f4
1b37
0300
0621
02e2
0545
1d87
1bcb
190c
198d
1d8e
1ccf
1ad0
1691
19b2
1b33
1cd4
1b15
1a96
1d37
1d98
0343
02a5
1dab
02ae
0392
02d3
1bf4
1cd5
1cb6
0343
0504
1ca9
1b0c
1cad
1a0e
1caf
1cb0
02b2
0276
1d21
1d66
048d
03ce
02d0
04d1
04d4
0535
1ab7
1a58
0000
