02a2
0323
1d66
0309
1c2a
1d4b
076d
050e
1c0f
1b74
1955
18d6
1da1
1d82
1ac3
1ac4
0346
1988
048a
076b
1c2d
044f
0270
1c51
1d36
0278
0460
0401
02e5
1ccb
1cec
1dad
1d8f
1c10
1b11
1cb2
1c93
1d35
1c36
1a77
1998
1d01
1c42
1d83
1b05
1886
1c47
1a4a
190b
18cc
1b4d
1ccf
1a30
1af1
1c12
1c13
0387
02a8
02cc
1d50
1b36
1d57
1b60
19e5
02e9
02cc
042d
02d0
0271
1d16
1cf7
1b98
1b20
04e2
0a43
0304
0b06
0ae7
0668
1cc9
1b6d
15af
16f0
1811
1a32
1d54
18d6
1d64
1be8
18e9
026a
058b
038c
026d
1d2e
0630
1b33
0357
0000
04e5
1c48
05aa
0a0b
072c
1cad
1dae
18b2
1933
1d16
1b57
0601
1d22
1b03
1ca4
03c6
1d67
19a8
1daa
1bab
1d4c
19cd
1a0f
1c30
02d6
0260
0541
0262
0403
02e4
1cef
1d10
1d15
1d76
1ca0
05ea
1d0d
052f
0810
02f1
1db3
0434
08f5
0756
0617
028e
0570
0671
02b5
0836
04b7
1cb8
1c14
1db7
1be1
1c62
19e6
1b67
042a
1b4c
05cf
1cd1
02d4
1c20
1be1
1ca2
1be3
19e4
1aa5
1c66
03a9
1a6a
1dab
04ac
08ad
098e
1b6f
1d90
0291
04d2
0573
0415
0516
0437
0000
0302
1da8
1dac
1c0d
1cae
1cd0
1a31
1a52
1d13
1b96
1cd7
04c2
1d63
0806
0887
1d68
032a
080b
03cc
1d31
1d35
1d16
0365
036a
1c70
1be6
1d28
1c8d
026c
1d56
1d97
0302
1ce5
1c4a
1d80
0421
05c2
0683
05a4
0526
0428
1ceb
1b2c
1d8d
1dae
1c2f
19f0
1c31
1c92
03b5
02f8
03e0
02e2
1c64
1cc8
1d8b
1ccc
02f2
0497
0000
0329
1caa
1c4b
04cd
048e
1c2f
18d0
1a71
1cd2
1bd3
02d6
0377
03d8
0340
0381
1a43
1b44
0565
1ce7
1b28
1c6c
034e
1d50
03d2
04f3
0276
03b7
0518
02e0
0262
04a3
1da5
1cc9
1d0a
1d0b
1ced
1d0e
1cef
1d70
1c91
1b52
1b73
1c96
1bf7
1b18
1ae1
1b82
1ba6
1c47
02aa
1c8c
19ad
1aee
02cf
02f0
02f1
0375
0376
0317
04b8
02e4
0348
1d50
1d71
1d74
1db5
1d56
1d31
1db5
1d96
1d20
0666
02c7
1be8
19c9
1bf0
0414
1c80
1d21
1cc2
1ca3
1b24
032a
070b
09ac
086d
044e
026f
03f0
1d94
1c96
0000
1ce0
1a84
1ba9
02ca
056b
048c
030d
02f0
0351
1d53
1994
17b5
1876
0560
0465
0286
1d27
0368
1c2c
044d
02ae
1cd0
1c31
04d3
0438
1d81
02c3
02e8
0278
1d45
02c7
0468
04c9
1d2a
032d
056e
03cf
1c51
1d52
06b4
04f5
1d62
1d07
1dad
0310
1d52
1bf7
1c18
0260
03a1
1d63
1c67
1d08
1d4c
1d6d
1cb2
1d73
1d56
1b97
1cf8
0446
02a7
1d2c
1d2d
1d8f
1c10
1b71
18d4
1db5
1d98
1cc2
1cc5
1c06
18a7
19a8
1bea
19cb
17ac
1c6d
1d6e
1b90
1991
0394
1cf6
0000
1d81
1ac2
1ba3
1ba5
1ba6
1ca9
04ea
04af
0af0
0ff1
0e72
0333
1cf4
1bb8
1d42
1c63
1c04
1c45
1d46
1aa7
18c8
1969
1cea
1bcb
1a0c
1b2d
1a4e
1caf
1b90
1cd1
1c92
1d96
1d97
0302
02a3
03a5
0526
06e7
0688
0449
1d4d
1c6e
1c71
1d97
1cf8
1ca3
1b84
03cd
040e
1d71
1caa
1cab
1d30
02f3
0355
0296
1da1
1d02
1ac5
1b26
1b67
1ca8
1c4a
1d2b
0271
0312
0434
0435
0296
0440
1d62
1da4
1ca6
1ca9
050a
0a0b
0a6c
052f
03f0
1cf2
1bd3
1c14
1a55
1bd6
1c37
1d78
1d62
1bc5
1bc6
0508
0609
1bca
040c
066d
050e
1acf
0291
0592
04b3
1d34
1c56
0000
