01f
ee0
f31
ee3
01f
260
cb1
123
01f
1b1
f03
e20
0f1
ea3
01f
01f
250
123
01f
01f
01f
e40
ee1
140
201
e62
ca1
132
380
0d3
01f
ed0
000
01f
f00
371
182
f43
01f
f10
bc1
2e2
01f
0f1
140
241
0f3
01f
01f
ef0
f22
653
01f
01f
01f
f30
1c1
f12
eb0
112
db3
781
e32
0c3
e00
c61
242
e63
e00
0d1
112
193
01f
01f
000
01f
ea1
152
363
01f
e70
da3
01f
240
da1
df3
2a0
dc1
f23
01f
01f
1c1
eb2
01f
0e1
0f2
01f
190
1f3
220
e91
d93
260
161
b92
423
1b0
422
d83
df0
271
182
153
01f
120
0c1
000
01f
1e0
df1
f43
01f
d90
131
c23
01f
530
e61
313
5d0
1c3
01f
01f
140
f31
01f
f40
01f
f30
e61
ed3
260
420
d81
353
280
ec1
cb3
ef0
c31
01f
381
000
01f
4b2
d73
01f
df3
01f
121
ef2
403
181
3a3
01f
01f
f10
711
01f
102
ed3
01f
0d2
e81
e92
283
d81
f42
213
f00
e31
3b2
213
ea0
242
c93
01f
181
000
01f
d80
541
e73
01f
360
ec1
01f
dd0
d81
ec2
d00
f32
0f3
01f
01f
e20
0f3
01f
f30
01f
300
291
250
e71
381
f42
143
140
f42
f33
181
01f
e40
122
243
000
01f
e70
eb1
432
01f
460
641
ed2
01f
170
d92
0d3
ea1
01f
01f
370
ea2
01f
e81
01f
e50
df1
282
3b0
4e1
e72
ed0
e71
392
e13
f42
123
1b0
1d1
0d2
01f
01f
000
01f
dd0
e91
db2
01f
280
e01
01f
f00
451
f02
de3
ee0
391
ea2
ea3
01f
01f
391
f43
01f
01f
01f
1f0
2d2
0d0
1a1
e20
0d1
f40
151
e40
d31
d62
f43
01f
141
f12
143
000
01f
f21
122
01f
01f
01f
0d0
df1
152
e31
0d2
01f
01f
2a0
0e1
d72
e93
01f
01f
01f
f23
f02
e60
f23
ee0
f43
e73
01f
0d0
191
0d3
000
01f
f10
0e2
df3
01f
130
e03
01f
513
ef1
593
01f
01f
510
391
f12
01f
171
192
f33
01f
f10
e01
ec2
dd3
ef1
dd2
2c3
d70
ca1
cd2
0c3
f30
342
183
351
352
b53
01f
150
e12
413
000
01f
ea0
233
01f
121
0e3
01f
111
db3
ea0
df3
01f
01f
130
231
cd3
01f
f13
01f
f31
463
ef0
153
180
d81
383
01f
170
01f
f10
0f1
ec3
000
01f
180
102
473
01f
0d0
dc1
01f
f00
e62
f40
2a3
01f
01f
160
df1
e33
01f
141
01f
0f0
f01
0f2
0e0
df1
270
ef1
162
eb3
df1
2d3
1c0
181
01f
01f
000
01f
ec1
182
7f3
01f
2f0
341
01f
e42
e33
e90
f31
01f
01f
0c0
c92
e53
01f
f20
f41
103
01f
e90
262
2c3
1d0
2b1
db3
eb0
e51
212
1a3
0d0
161
2d3
140
f32
453
01f
eb0
0e1
eb3
000
01f
e00
f31
262
1e3
01f
ef0
ef2
01f
ee0
0f1
d22
f03
e40
131
dd2
01f
01f
230
c11
d12
ea3
01f
01f
01f
f31
4a2
213
e20
f41
270
f21
362
ec3
f40
2b3
300
d41
01f
e60
e42
f33
000
01f
e32
e73
01f
2e3
01f
2b2
593
322
483
01f
01f
102
693
01f
f23
01f
ef2
d43
ee2
573
d32
0c0
dc2
1b3
170
b82
01f
f10
162
153
000
01f
f41
d03
01f
111
01f
e90
c21
f33
e51
01f
01f
e61
d83
01f
01f
01f
f11
353
eb1
0e3
f40
ec1
1a3
e31
cd3
01f
100
301
000
01f
de0
283
01f
e60
0e1
e32
d53
01f
230
ef1
f42
ef3
1f0
f22
01f
01f
490
171
0f3
01f
0d3
01f
f00
173
f02
e03
2c0
4d3
e22
e83
0f0
0e1
2e3
01f
f33
000
01f
240
01f
e70
01f
c90
0c1
e42
153
e00
f12
173
01f
01f
f00
321
1b2
01f
142
01f
2e0
ee2
ed3
de0
ee1
e62
360
dc2
da0
ec1
1c2
173
190
292
f43
01f
f10
162
000
01f
ef1
153
01f
ec1
633
01f
ee1
ee3
ef1
d13
01f
01f
161
0e3
01f
0d1
f13
01f
01f
e61
353
111
f41
143
311
323
01f
ec1
ee3
000
01f
e50
421
e32
f33
01f
d50
231
de2
103
01f
3d0
e91
da2
db3
1d0
e41
dd2
e23
01f
01f
330
1a1
272
01f
0d2
01f
f00
0f1
ec2
e93
ce2
200
111
ef3
dc0
261
c52
ec0
5c1
112
ed3
01f
e71
1c3
000
01f
f40
341
102
01f
ee1
01f
e50
e61
142
01f
01f
1b0
cf1
f03
01f
01f
01f
1a1
e81
d90
2f1
ed0
f31
0d2
e93
e60
01f
250
000
01f
101
1a0
01f
eb0
b51
01f
f20
f11
102
01f
261
01f
ef0
162
01f
e21
01f
0e0
182
f23
131
193
151
351
d93
321
e82
d91
152
000
01f
1e1
f12
1e3
142
df3
f31
220
ba1
102
143
01f
e00
de1
e92
0d3
01f
f32
0e3
01f
e30
1d1
172
d93
01f
2b0
d71
142
1f3
01f
f10
e31
1b2
dc3
f30
eb0
0c1
133
1f0
221
ef3
0f0
531
dc0
ed1
1c2
000
01f
de1
e52
133
f40
eb1
01f
f30
dc1
db3
01f
2b0
f11
292
cb3
01f
ea0
ec1
01f
180
0d1
402
1d3
01f
e90
e61
01f
ed0
f31
562
f23
121
0e2
103
f00
c21
2a3
120
e21
d32
2a3
130
362
ea3
000
01f
120
101
183
ee0
0c1
d90
d20
211
b43
01f
e51
01f
c30
1e3
01f
0d1
f13
01f
eb0
431
e03
01f
d71
0e3
e50
1a1
dc0
da1
143
3e3
2e0
e71
3d3
210
f31
df3
000
01f
311
f02
e11
f22
100
111
01f
e70
131
f32
3b3
01f
141
e52
01f
da1
562
ee3
01f
321
f32
e63
01f
f30
d11
432
f43
0c0
ef0
141
01f
eb1
ec2
193
f30
3c2
0f3
000
01f
01f
0f0
e43
370
f01
300
f22
ca3
01f
570
d41
01f
2d0
db1
ef3
01f
351
01f
da1
ef3
01f
f40
ef1
dd3
f01
1a2
1a3
2a0
f01
eb3
ef0
ef2
ce3
1b1
f42
0d1
f03
000
01f
170
101
160
2a1
f42
131
f32
0e0
01f
110
d72
113
01f
da2
01f
e60
1f2
0e3
01f
2c0
2f1
e92
01f
f20
e42
123
ee2
ef3
ed2
ee0
1a2
ef3
103
000
01f
1e1
f33
e41
f42
250
f21
242
0e3
460
202
01f
320
201
4f2
01f
250
f31
262
01f
e70
e51
1e3
01f
2c0
01f
de0
e71
f02
e91
1d3
1b0
292
0f3
f23
131
f43
e60
191
000
01f
120
ee1
f00
ef1
f43
da1
0c2
1b3
01f
f01
c92
da3
01f
0f0
01f
ef0
101
f03
01f
100
153
01f
e20
ec1
272
f33
1b1
0c0
e13
d01
302
ec1
0d2
f41
ef3
000
01f
310
1f1
e72
0f3
0d0
1d1
ec3
e23
e51
c53
01f
e02
01f
0f0
281
102
d83
01f
ed0
141
262
01f
3a0
241
01f
e10
4a1
702
e13
0d0
0f3
1c1
0d2
db3
261
142
ea3
ef0
d72
113
232
143
000
01f
ed0
141
ed3
eb0
0c1
1d3
f30
293
01f
f40
373
01f
f20
01f
ef0
01f
eb0
241
ec3
01f
d73
01f
113
d60
f03
f31
1a3
f30
000
01f
0c1
ea3
01f
f33
eb1
363
01f
f30
e21
b33
01f
e60
3d1
f42
e43
01f
0c0
141
0d2
283
01f
ed2
1b3
01f
eb0
411
f32
363
ea3
1f1
de3
e60
541
223
120
1b1
0d2
ef3
0d0
ee1
2b3
000
01f
f22
f03
170
181
111
112
2a2
e53
01f
101
c83
01f
eb3
01f
793
01f
170
141
e93
01f
e72
4a3
0d1
01f
f40
f11
243
142
103
f32
343
000
01f
e60
e51
f32
f13
e90
1e2
123
ec0
2f1
152
2f3
01f
f00
c01
482
363
01f
f00
e91
112
01f
e20
e31
282
273
01f
de0
211
d42
01f
f21
e02
203
f11
ef3
d91
232
0f3
cf0
111
f32
132
f33
eb0
e91
223
000
01f
ec0
132
2d3
e22
ec3
6e2
01f
ef2
103
01f
f12
e33
01f
c32
dd3
01f
772
343
01f
130
d42
ef3
ea2
ee3
d92
ee3
f20
1a2
e93
193
de2
1b3
000
01f
01f
201
283
2b3
01f
d71
6b3
01f
0f1
273
01f
3e1
01f
1b1
e73
01f
f21
f33
1e0
2c1
293
01f
f21
0d2
000
01f
0c0
0f2
df0
f20
0e2
0d0
0c1
e33
01f
102
eb3
01f
f00
342
01f
d50
f41
1e3
01f
f22
d93
01f
0c2
01f
1a2
103
e80
eb1
1d2
100
f31
102
203
e92
000
01f
0e1
da2
e91
f22
0f0
01f
01f
01f
01f
200
f32
f23
01f
270
eb1
2d2
01f
d70
101
01f
e91
222
0e0
122
260
0e1
180
de2
1b0
cf2
f20
162
0e3
000
01f
ee1
123
f21
2a3
01f
f01
eb3
01f
ec1
ea3
01f
0d1
01f
f11
01f
e61
2d3
01f
131
01f
01f
f01
ef3
01f
ed1
143
000
01f
220
322
ee0
161
172
143
01f
ee0
ee1
d02
01f
0f0
e51
f12
01f
1a0
e91
412
01f
de0
2e1
1d3
01f
182
163
01f
231
0f2
ed3
212
1f3
150
222
270
ed1
3c2
f03
290
162
f23
f40
211
d82
000
01f
0c0
ed1
f00
103
01f
221
192
01f
bc1
db2
e63
01f
130
e31
f32
113
01f
0c0
ed3
01f
130
0f1
0e2
183
01f
e30
ec1
0f2
1b0
f21
f02
0c0
e61
ea2
111
162
173
ec0
141
f42
103
e63
000
dd0
d31
e63
d51
01f
01f
eb0
01f
0d0
e01
f12
193
1f0
501
01f
151
ea1
112
1a0
ed1
01f
371
ec3
e00
dc1
261
0f3
f12
01f
01f
ec0
f03
000
0d0
0c2
143
302
db3
01f
01f
db3
01f
143
ee0
4f1
f02
f43
01f
100
161
d90
db1
0c2
e90
0f1
0f2
de3
01f
4d0
221
1e3
2c0
d41
0f2
1a3
cd0
231
ea2
e23
340
f11
dc3
01f
01f
240
f01
db3
000
df1
0d3
de1
212
01f
01f
120
ef1
202
01f
361
e52
de3
2a3
01f
f31
1b3
100
131
312
eb3
f22
143
01f
e20
e11
e92
243
102
d83
4b0
1c1
0f2
100
01f
0c0
0c2
0f0
e31
102
000
121
d13
1d0
d33
01f
01f
0e0
01f
e73
130
d91
5a3
01f
163
eb0
131
dd3
f00
f01
ea3
01f
f00
1f1
3d3
2c1
e13
340
233
331
ef3
01f
01f
e80
1a1
000
131
182
eb3
0c0
dc1
352
f03
01f
01f
e51
182
01f
ee1
f32
0e3
ef0
d91
183
01f
0e0
262
f10
d41
f33
01f
2d1
e62
f43
0e0
321
f10
d51
f22
443
0f0
cc1
ef2
0c3
01f
01f
d21
e62
1b3
000
261
e92
261
e73
01f
01f
0d0
01f
f01
2a3
f20
123
01f
01f
160
f41
122
133
350
1c1
ed2
eb3
01f
e00
e41
f22
da3
130
e11
150
eb1
2f3
230
01f
01f
3f0
e61
ed3
000
e71
2c2
1c1
252
01f
01f
e70
ef1
01f
f32
ed3
01f
01f
ee0
0c3
210
3c1
1a2
ef3
01f
f00
d61
140
ea2
161
db2
0e1
0c2
01f
01f
0c1
000
150
f23
e91
ef2
f13
01f
01f
0d3
01f
01f
e00
01f
f21
102
1f3
160
df1
01f
160
ee3
370
221
0d2
ef0
171
192
240
e11
01f
01f
360
242
000
0d0
dd1
ea0
e91
192
01f
01f
e70
122
01f
ef0
1d1
f22
163
f30
112
e03
01f
1a2
151
f32
e80
f21
f42
f23
01f
0f0
e71
272
1b3
120
102
173
e80
171
d72
df3
eb0
232
223
01f
01f
ee0
f01
152
103
000
e41
eb3
f10
152
ef3
01f
01f
e00
01f
ea0
e41
391
282
133
01f
01f
182
0f3
f10
ed1
e72
d83
01f
160
291
1c2
e13
160
e81
193
ea1
e52
483
e30
e01
01f
01f
dc0
e71
f23
000
e50
121
273
e00
283
01f
01f
ec0
ef1
0d3
01f
220
f21
153
ea1
01f
01f
01f
423
01f
f30
0c1
dd3
141
103
eb1
153
3a3
01f
01f
dd0
383
000
0e0
e41
303
543
01f
0f1
171
0c3
01f
0f0
c81
ef2
401
cd3
01f
1a1
01f
210
ea1
102
01f
df0
581
243
f00
e21
343
e61
a63
303
01f
0c3
1c1
000
f11
1c2
2c3
110
111
172
513
01f
01f
eb0
0f2
0d3
01f
f21
142
d63
f32
103
01f
f11
0f2
0d3
161
f22
0f3
1a0
1d1
1c2
133
01f
d70
da1
f43
162
151
ef2
e53
352
e33
01f
01f
282
d53
000
e10
121
192
1a3
ce0
1c1
263
01f
01f
e60
173
01f
370
111
ec3
170
d81
0d2
eb3
01f
101
e41
1b3
2a2
01f
eb0
2b1
d22
ed0
241
f42
223
d21
1d2
4c1
143
01f
f30
d10
261
202
1d3
000
352
f43
1e2
01f
01f
e93
01f
110
0f3
a02
01f
e93
d12
e63
cb2
01f
782
7e2
1e3
af2
253
5f2
e43
01f
01f
ee0
3f2
f13
000
eb1
ec1
f43
01f
01f
151
0c3
01f
f01
1a1
01f
01f
2b1
0c2
103
01f
01f
f10
ef1
153
181
2b3
121
1e3
01f
0c0
0f1
403
000
ea2
da0
f41
de2
01f
01f
e30
01f
2a0
e62
140
1b2
353
01f
0e2
0c3
f30
ee0
123
01f
100
232
e62
da3
01f
ef0
f03
01f
01f
ec0
000
01f
ef0
e71
01f
01f
de1
01f
e10
0c1
242
330
01f
0c0
2f2
150
e51
eb2
01f
0e1
eb2
ce0
151
e91
0d3
e50
f01
01f
01f
ee1
e92
000
e71
e11
2f3
01f
01f
ec1
01f
1e1
f23
231
01f
01f
01f
473
01f
0f1
be3
ec1
e63
01f
01f
01f
01f
e11
f23
000
ee0
101
d62
ca0
301
c82
01f
01f
f00
f42
01f
0f1
de2
390
512
01f
192
e50
193
e30
201
01f
2f0
d51
422
e03
e61
d02
100
db0
ee1
ef2
01f
01f
ef0
d61
000
0c0
271
142
e80
2c1
212
01f
01f
01f
01f
01f
f30
f21
e62
01f
131
0c2
123
160
ea1
f22
ec3
df0
151
01f
141
122
223
120
0c1
132
c51
d52
e63
321
162
153
01f
01f
0f1
133
000
01f
132
151
f42
ed3
0d2
f33
0e0
401
103
1e1
0c2
ef3
df1
f22
1c3
da0
da1
102
f03
01f
450
0e3
01f
01f
e72
200
2f1
f22
113
01f
01f
e61
ed2
0f3
01f
ed0
123
000
01f
cf0
df1
230
311
cc3
0f0
281
1b2
c03
3b1
f32
e63
f10
0f2
281
f23
ec1
f22
213
170
be1
1b2
01f
192
f33
01f
01f
d70
441
dd3
431
e82
01f
01f
1a0
ec1
0d3
01f
ea1
e82
000
01f
140
4c2
dc1
203
ea1
122
283
170
1c3
160
161
e83
e70
e51
1a2
333
481
de2
110
e81
472
d33
01f
db0
f41
01f
01f
390
f11
e62
0c3
0e0
371
ce2
153
01f
01f
f40
211
e12
0c2
1a1
f02
000
01f
d30
eb3
170
1f3
f33
230
413
1e0
1d1
ee1
263
e90
2a1
d43
221
d03
01f
cf0
211
01f
01f
430
bf1
163
280
dd1
3d3
01f
01f
d50
281
e03
01f
dd0
3d1
e43
000
01f
0e1
1c2
0e3
c21
0c3
b41
2d2
f03
e01
183
0e2
103
ee1
292
dc3
ea3
0c0
0d1
232
143
01f
f02
d43
01f
01f
e40
c81
373
d51
ee2
1e3
01f
01f
0c0
0c1
ee2
df3
01f
0f0
0f1
e53
000
01f
4c0
161
ec2
ea3
311
e73
df0
ea0
132
2a3
eb0
171
e63
101
443
1c0
e31
ed3
01f
1a0
e01
f03
01f
01f
280
2c1
183
d60
f11
2f3
01f
01f
170
183
01f
192
283
000
01f
f22
1d3
0f1
162
332
0c1
210
1f1
f42
cf0
e31
182
142
f33
ec1
0f3
01f
390
621
e22
01f
01f
190
111
262
f43
ee1
f22
ed3
01f
01f
f13
01f
f13
000
01f
210
412
203
ee1
ef3
d71
f42
d20
e62
e70
131
e52
0f3
e80
e21
f02
01f
270
0f1
172
01f
100
d71
ec2
183
01f
01f
1f1
1f2
e83
d70
e12
01f
01f
1f0
f01
01f
193
000
01f
e72
e33
e40
e21
1f2
de0
f11
1d2
f00
0f2
1b1
e91
1f2
2f1
eb2
143
132
113
01f
01f
01f
01f
e40
d42
d43
e90
141
01f
01f
171
193
01f
0c0
261
133
000
01f
161
e63
df0
d00
1a2
dd3
ea0
0f1
f12
2f3
423
211
332
dc3
e61
e92
193
2b2
01f
450
561
d43
01f
01f
c70
d01
d42
1e3
db0
161
172
1f3
01f
01f
e91
ed2
01f
0f0
e51
dd2
203
000
01f
ee1
293
f10
253
f00
383
f21
ea3
e63
f00
1a0
0c3
e90
0f1
01f
f30
241
f33
01f
01f
e21
523
240
e31
db3
01f
01f
0d0
1d3
01f
0c1
000
01f
0d1
e33
120
1c1
103
180
283
2b1
eb3
e81
3c1
163
100
c81
f43
e20
f22
4a3
01f
130
161
ef3
01f
01f
240
ca1
122
cd3
0f0
d43
01f
01f
dc1
0d2
01f
f41
000
01f
0c1
212
133
2a2
523
ee2
ef3
160
191
e42
f00
e11
513
e13
e70
0f2
01f
300
2c1
e72
01f
01f
0e1
1d2
243
f30
f11
e92
db3
01f
01f
182
e73
01f
e93
000
01f
f30
ce1
442
3d3
ee0
2a1
102
e70
211
2a2
183
ec1
ee2
eb3
f01
dc2
f33
ef0
0f3
2f0
ec3
d90
211
3c3
01f
f30
ed1
e72
e63
01f
01f
c91
492
133
4a0
f01
e22
d13
01f
01f
160
181
122
01f
f03
000
01f
d02
df3
f20
262
102
dc3
ca2
123
e92
333
dc2
c03
0d2
4b2
01f
e42
263
01f
01f
c22
2d3
130
d32
163
01f
01f
3b2
e43
01f
f40
0e2
ed3
000
01f
2c1
483
ea0
e61
01f
241
f03
110
281
e63
df3
1f1
0e1
253
01f
381
e13
01f
01f
c01
2f3
ee1
e13
01f
01f
0d1
0d3
01f
160
3b1
000
01f
ec0
112
ea0
e81
1d3
d90
ec1
253
172
163
0c0
ed2
e50
f41
102
243
1e0
e92
0c3
ef2
d13
01f
ec0
101
01f
01f
170
1f3
370
3d3
01f
01f
01f
01f
f20
f41
000
01f
280
212
0e0
e41
d12
200
dc1
100
f11
113
e40
1f2
2b0
151
372
da0
1f2
01f
f13
01f
01f
1e0
e61
dc2
130
172
01f
01f
122
ee3
01f
1d2
000
01f
01f
01f
01f
01f
193
01f
151
e91
d53
01f
663
01f
01f
01f
371
e63
01f
01f
01f
01f
f11
000
01f
ed0
132
133
f23
da0
251
e32
280
f01
362
0c3
1b3
1d1
272
f43
f00
101
ef2
103
f10
eb1
d42
01f
2f1
5b2
2c3
01f
01f
161
c62
e43
230
191
1c2
01f
01f
f20
01f
f20
e81
112
243
000
01f
1a0
d51
e52
e13
de0
261
163
ec0
371
0c2
f42
143
f23
141
150
121
110
1d2
01f
e61
143
01f
01f
dd0
e32
e73
eb0
ec2
01f
01f
0e0
161
01f
2c0
000
01f
161
0f2
ec1
f22
143
01f
eb0
501
e61
0d3
0d1
411
ec3
f41
220
173
01f
e10
231
f30
e00
ee1
ed3
240
ef2
0f0
ef1
ee2
113
4e1
e33
f01
e90
000
01f
db0
2a1
120
01f
241
e82
ec3
200
e81
4f3
f41
e93
f00
f32
4b3
110
361
ec2
d53
0d3
df1
122
c23
01f
ef0
ca3
193
f20
e12
363
170
182
ee3
d81
f23
330
3c1
f22
451
0d2
f13
01f
000
01f
340
2c1
1c2
ef2
01f
2c0
1d1
243
d30
2a1
0f1
ea0
141
310
d91
0d3
100
0f1
eb3
261
0d2
01f
400
0c1
220
0f2
dc3
1c0
e91
1a2
160
e41
ed2
e73
0d0
d83
eb0
ce1
3c3
ea1
ef2
443
01f
000
01f
3a0
113
ef3
01f
521
313
d80
eb3
f30
161
ef3
db0
e21
3a0
ee1
4a3
160
c50
471
eb3
01f
1b0
531
4a0
dc1
103
f01
210
141
0c3
0d1
e73
f20
4b3
130
f30
241
f23
000
01f
d61
272
253
100
f13
01f
0f0
0e3
5c1
d53
e61
ec0
501
e73
d31
eb2
443
0e2
163
b21
e53
01f
1c0
e01
203
f30
121
3a3
f40
4d1
1b3
140
e51
d32
263
f31
e52
0c3
181
f13
342
d63
110
f33
000
01f
ea0
333
110
01f
d70
172
473
d80
f01
110
f31
123
e90
e11
f31
f00
0c3
280
d91
0e2
1a3
01f
f20
192
3f3
ec0
f01
133
2f0
161
e33
2b0
db1
1f0
f01
0f2
153
d30
d63
cb0
4c1
132
123
000
01f
f11
133
01f
01f
e00
e41
f22
d71
eb2
191
f42
cb1
de2
0c3
eb1
f32
e91
441
de2
01f
0d1
190
ec2
dd1
152
400
551
e32
f33
2f0
361
ec2
e80
db1
df0
dc1
482
f43
01f
000
01f
ca0
f32
1a0
f31
01f
de0
ed2
213
190
161
f13
e61
0d3
1e1
202
281
122
f40
151
0d0
c01
1d3
01f
ec0
0f1
1a3
411
f03
300
271
3f2
0d3
230
0f1
140
0c1
f03
db0
ec1
d42
103
000
01f
ef0
1c1
f42
f33
0c2
0c3
01f
281
0f3
1c0
111
ed0
0e1
270
e72
e83
e50
e41
01f
de0
211
01f
ed0
1f1
133
0e0
f33
1a0
ef1
d72
ea3
f11
122
0d3
121
ed2
e11
202
ee1
121
113
000
01f
cb0
f11
423
f11
ef2
f03
01f
df2
653
2f0
221
1a2
e43
01f
310
3d1
112
e13
db0
353
153
131
0c2
01f
d21
dc2
6a3
122
473
230
f31
d12
eb3
f41
e72
1f3
e81
e62
1a3
351
112
e73
f10
e73
f11
ef2
163
000
01f
0c0
e61
163
01f
ef0
da3
170
181
d33
01f
141
d03
e70
ee1
01f
113
01f
de0
e13
ec0
303
1d3
0d3
e10
cd3
1d3
ee0
0d1
000
01f
180
f11
113
01f
f20
201
e13
f41
f01
141
f02
df3
2d1
e93
ec1
0d3
101
f02
01f
ea0
e11
eb0
ea1
ed2
e81
1c2
d53
01f
0c0
d81
ee3
f00
661
113
210
f11
1a2
0f3
01f
000
01f
f30
f02
172
01f
ea0
e72
ef3
eb1
f32
f43
120
141
e10
e21
d72
e90
ee3
e80
f21
1b0
221
ed3
01f
181
e82
f23
eb0
0d2
0e3
200
291
122
c73
190
251
d43
e60
e01
223
f30
e61
232
693
0e1
f43
000
01f
180
d61
171
01f
e00
e81
ee2
ea3
280
ca2
01f
0e0
cd1
f22
e00
110
f21
0c1
01f
cb0
eb2
dd2
e30
cd1
432
323
f20
241
ef2
01f
d20
f02
f23
f00
222
eb0
000
01f
ab2
103
222
01f
f10
e52
f13
0f0
5a2
103
01f
0f3
0d2
223
183
ee2
df3
01f
e50
f42
0d3
1a0
132
563
f20
122
1b2
593
373
f30
272
eb3
d63
f00
112
000
01f
171
01f
01f
110
751
ed3
e21
e33
1d1
01f
ee1
2a3
01f
661
01f
160
561
cd1
ed1
4c3
01f
140
0e3
f20
0f1
ee3
f31
c53
0f0
1d1
000
01f
120
243
131
e82
01f
ed0
f11
2d0
01f
1e0
0e2
0c3
f41
1d2
0c3
170
f32
d90
01f
dc0
f11
e43
260
0c1
f22
f33
120
102
100
e53
ee2
de3
f00
292
1c3
f10
f21
ec2
353
f20
000
01f
2a2
123
f23
01f
140
252
0c3
eb0
281
2b2
ec1
0f2
120
2a1
1c2
ed3
e41
d42
f00
102
0f3
db1
242
01f
de0
d51
0f2
d00
131
0d3
290
1a1
e92
e80
dc2
df0
280
df2
2e0
f41
f03
000
01f
0f1
ec3
0d3
01f
e51
d83
1e1
da3
173
121
d13
d13
e43
363
01f
cd1
e23
e51
d73
3b3
213
d53
01f
eb1
000
01f
161
e92
ec0
e52
01f
1b0
db1
422
313
1e0
122
f33
ea0
143
320
312
250
de1
1a2
f23
e42
d10
171
332
333
01f
de1
283
1b0
ce2
e83
240
f01
f13
eb2
f10
d92
0e3
350
e01
552
e83
eb0
2d1
ed2
e81
183
000
01f
ed3
121
102
01f
320
f02
150
f01
01f
1c0
d31
eb2
f03
f10
f01
01f
0e3
01f
220
ea1
190
ea1
eb2
f03
152
153
110
ee1
0c0
0d1
1d3
f10
3a1
1b0
000
0f1
ef2
01f
c11
e01
300
151
0f3
2c1
01f
0c0
e01
163
d21
102
211
ee3
01f
01f
160
ec2
253
1a0
e71
0e2
01f
e51
ee2
133
01f
01f
271
ec3
01f
000
3d0
1e1
01f
0f0
c71
1b3
d11
132
0f0
113
d40
121
ee2
f23
01f
180
ec1
173
ef0
ac1
1a2
f03
3c0
191
01f
01f
ed0
f11
e92
123
e70
d21
0e2
233
01f
0c3
01f
353
250
191
01f
000
e30
d52
233
01f
de1
e03
df1
1c2
e53
d30
301
150
1f2
01f
f30
3f1
e42
251
462
ca3
e90
d61
dc2
2f3
01f
01f
0f0
5f1
c22
ec0
2d1
2f2
d33
01f
120
1f1
d92
01f
e91
eb3
cb1
ee2
243
01f
000
ef0
221
0f3
01f
d10
151
c53
d50
171
dc3
d40
df1
223
f00
e21
263
01f
db0
281
de3
d63
f40
311
203
01f
01f
f20
2c1
e83
f20
d01
f33
01f
0c0
281
d83
01f
220
0d3
141
2b3
01f
000
e82
e73
01f
221
ef2
111
f11
e63
e70
223
01f
e03
e71
352
100
f02
e63
01f
01f
0c0
e71
ea2
f03
f00
202
01f
f32
f11
e80
521
123
0c0
111
e72
01f
000
e80
01f
460
ea2
d33
3c0
e21
e03
bb1
2e0
f31
01f
2f3
e41
143
f00
f03
01f
01f
f20
ec1
593
d01
f12
0d3
01f
141
0c2
283
0d0
e50
f31
e33
01f
000
152
ef3
01f
250
201
250
301
e82
c02
e62
0d3
01f
01f
f20
e41
e12
0c3
142
f43
01f
01f
ee2
e53
ef1
cb2
0e3
01f
210
191
142
f33
01f
280
f42
01f
01f
000
140
ea2
ed3
01f
490
292
360
242
e91
0f0
0d1
332
01f
140
ec1
ea2
01f
0d0
eb1
ec2
01f
01f
ea0
ec1
db2
0f3
ef0
f43
01f
101
f41
3e1
ea3
120
01f
000
212
203
01f
de1
ef2
ee1
142
dd2
d63
01f
231
183
f30
101
e61
312
203
01f
01f
f00
3b1
e32
153
0d1
f43
01f
1f1
eb2
f20
220
ef1
e22
e33
0e0
e11
212
103
01f
000
ef3
01f
1a0
e42
c23
1d0
181
db3
541
502
c53
0f0
291
0e2
01f
01f
e40
241
5e2
101
eb3
01f
01f
ef1
263
471
562
de3
01f
0f0
ce1
cc2
2a3
f23
3d0
171
e22
2a3
100
151
f42
f23
01f
000
01f
01f
f40
0f1
313
e70
121
213
200
c83
f30
153
01f
1c0
0d0
e83
dc0
0f1
01f
01f
280
f43
1c0
c23
01f
0c1
123
01f
f40
231
de3
da0
01f
000
1f1
273
01f
e21
01f
331
e42
1d1
af3
01f
d61
0d3
db0
ea2
363
f20
3c1
373
01f
01f
0e0
c01
db3
e72
1c3
01f
180
bd1
01f
e91
e13
e60
391
f42
163
01f
000
f00
f11
192
01f
0c0
0f1
1e2
de3
130
181
102
f23
f21
e92
ef3
ef2
01f
122
e33
f20
1d3
1f2
0e3
01f
01f
f32
c43
f41
d62
01f
121
f13
01f
e42
122
01f
000
351
e52
ed3
01f
ee0
262
273
d90
182
1e3
440
cd2
ed0
b71
322
123
01f
340
161
ec2
f23
160
dd2
203
d90
361
e22
01f
01f
490
f41
e32
cd3
380
e71
d12
133
01f
ee3
01f
e80
cf1
dd2
f43
d30
161
ec2
01f
000
622
f43
01f
452
153
f40
242
143
1a0
f22
f03
b62
01f
0c0
312
f13
1a0
f33
f20
572
df3
01f
01f
0f0
e02
230
eb2
0f3
01f
192
253
01f
192
573
e60
332
01f
000
eb3
01f
ef0
353
283
e91
403
01f
111
eb3
0c3
161
e83
01f
01f
2a1
db3
f40
d91
01f
0e1
01f
f11
eb3
121
01f
000
0e3
01f
0f0
e53
f00
de3
230
142
1d3
ec0
1c2
0e3
01f
1a0
f12
f12
ee3
ea0
132
01f
01f
2f0
0e1
f02
1d3
2c0
01f
e52
0c1
220
f22
f23
f40
162
01f
000
f42
01f
0c1
ea2
f23
f12
f43
100
2d2
f33
250
01f
f20
0c1
2e2
d50
4c2
e62
01f
01f
3f2
e80
171
432
01f
f30
0f1
0d2
01f
e20
201
0e3
d62
01f
000
101
e13
01f
e51
153
e31
233
431
01f
01f
1d1
191
e43
01f
01f
01f
271
331
e73
01f
163
0c3
ef1
ef1
f33
01f
000
1a2
01f
f12
0f3
140
201
432
f43
170
322
01f
ec0
131
e40
1e1
d92
ee1
382
01f
01f
ed0
191
193
2a1
ec3
01f
f20
da2
0f3
0d1
320
1f0
da1
352
01f
000
291
142
1d3
01f
01f
f31
ee0
e71
123
0d0
c01
d82
ea3
01f
151
f31
122
f13
391
1d2
213
01f
01f
0e0
ef2
f30
d41
f13
01f
1b0
111
01f
120
d51
e22
171
112
1b3
01f
000
