eb0
2c1
e63
dc1
242
01f
01f
e90
e91
e90
e11
2e2
4d3
ea0
181
ec0
e61
180
372
260
e21
e22
e73
e21
ea2
3c3
de0
5b2
1d3
4b0
d52
e03
01f
e50
d71
312
01f
e41
ec2
e61
203
e21
492
e40
1f1
e52
dd3
000
1b2
de0
e61
e92
01f
e63
e31
e83
cb0
cf1
e83
1c1
490
242
e10
e22
1b3
4c2
db3
e40
551
ea2
203
e71
ec2
e63
e30
eb3
e71
db2
01f
e20
eb1
ea3
01f
6e0
e20
451
223
e62
563
000
01f
570
e81
01f
01f
130
411
3e0
e21
e80
db1
ea0
e71
e10
01f
370
ed0
ea1
eb0
351
01f
5c0
eb1
01f
da1
e70
eb1
01f
000
4d3
01f
410
3c1
dc3
5f1
d73
463
01f
d60
de2
e53
e70
e71
392
e90
ed1
e73
1a0
eb2
01f
270
eb2
ec0
01f
1f1
e82
df0
181
d92
c93
e90
e61
dc2
dd3
440
e21
5e2
ec3
01f
01f
000
eb3
01f
e21
252
d83
160
ec1
ec0
e32
01f
01f
220
e01
ea2
2e3
2b0
ea2
3f3
01f
240
1b2
e73
ec0
e92
e83
ec1
400
ed2
df3
140
2a1
132
dc3
e30
541
242
eb3
e22
d83
2a2
ca3
180
ec3
000
e40
01f
e10
e10
01f
e50
01f
1d1
e90
e81
01f
01f
01f
e70
170
2c1
271
ec1
340
ec1
130
df0
01f
01f
000
01f
e20
2d3
141
1c3
e50
de1
ea2
ec3
01f
ed0
da1
291
291
e33
ea0
1c3
e20
ed1
d62
5b3
ec1
e60
343
e50
01f
01f
cf0
d51
d92
eb3
e60
371
4d2
da3
01f
5c0
cc2
ec3
01f
000
01f
dd0
d71
cd2
473
01f
1e1
d42
01f
3a1
d62
d83
01f
ec2
e91
cb2
173
dd0
4a1
db2
e23
e61
562
c23
ed1
eb2
e80
e91
e12
483
291
da2
2c3
152
d53
01f
510
d91
ea2
290
e91
01f
dc0
e32
01f
000
01f
dd0
ed0
e81
610
131
01f
d40
481
01f
01f
ed0
271
01f
01f
571
e41
e00
01f
01f
e30
7f1
d10
e21
01f
01f
01f
000
e50
e91
e13
202
01f
ed1
e61
2f3
e41
e42
333
01f
260
e31
da2
e83
01f
01f
ed0
e33
01f
5f1
e22
e00
de1
282
e73
e70
221
df2
223
cd2
d73
290
e22
230
e22
303
01f
01f
000
cd2
5c3
180
ea1
342
ed3
01f
01f
e00
1d2
e43
133
260
241
382
01f
01f
3a2
d93
01f
ec0
e92
260
e20
1f1
222
e83
e61
e23
01f
1b0
ec0
e42
e03
ea3
01f
000
01f
ec1
01f
260
1f0
e11
2c0
e01
01f
e10
01f
01f
01f
01f
01f
2b0
e41
e41
690
01f
01f
3b1
ec0
1e1
130
191
000
