0281
1d84
1d26
1ce7
07ed
076e
1d2f
1c90
0442
0343
1ca5
03c7
0328
1c8b
1d8c
1d0d
1bcf
1a30
18f1
1b12
1ad3
1cb5
1b16
1b77
1c38
1d62
04c7
07c8
05a9
034c
042d
05cf
04b0
03f1
1b81
1862
1cc3
1c06
1747
1ae8
1b2b
15cc
152d
1c4e
1d50
1731
1632
1b73
0538
1ba0
1a61
1d02
1d83
0405
030a
1d8c
05cd
06ae
1d10
1a31
0433
1c76
1c57
1c60
1d21
1d42
1c25
1b66
1ae7
1c48
1b2a
1c2b
054f
0550
0551
0392
0574
0d35
0ef6
05d7
0341
02a4
0687
0848
03c9
026b
02ec
1aae
1cf1
1b93
1c35
1d16
1c24
1da8
19ab
196c
17f0
1911
1cf4
17d5
17b6
0000
