1d23
1c87
1d4b
1d4e
1cf2
1db3
1d97
1ce1
1be2
1b63
1ce5
1da8
1d29
03cb
050c
1b6e
0510
0a31
0392
1cf4
0476
03d7
1b41
1c25
1a66
1b27
1c68
1aca
1b0b
1acc
1c0d
1b8f
1d94
03e2
0523
0325
0788
078d
1d70
02b2
1b95
1b56
1cb7
1db8
1b00
1bc5
040c
1d2d
1cae
04d0
0391
1cd3
02d4
0336
1d98
05e1
0402
02c6
1b2a
1dac
1b8f
1ad1
1b36
1d41
1b42
1aa3
1c44
1d06
1ac7
1be8
1c4c
05ae
0272
1c74
19c1
0464
1ae6
0488
1c6b
05cc
034d
1dae
1c8f
0811
0635
0a96
0000
