1ce0
1a84
1ba9
02ca
056b
048c
030d
02f0
0351
1d53
1994
17b5
1876
0560
0465
0286
1d27
0368
1c2c
044d
02ae
1cd0
1c31
04d3
0438
1d81
02c3
02e8
0278
1d45
02c7
0468
04c9
1d2a
032d
056e
03cf
1c51
1d52
06b4
04f5
1d62
1d07
1dad
0310
1d52
1bf7
1c18
0260
03a1
1d63
1c67
1d08
1d4c
1d6d
1cb2
1d73
1d56
1b97
1cf8
0446
02a7
1d2c
1d2d
1d8f
1c10
1b71
18d4
1db5
1d98
1cc2
1cc5
1c06
18a7
19a8
1bea
19cb
17ac
1c6d
1d6e
1b90
1991
0394
1cf6
0000
