1760
603
744
1825
c67
b68
beb
bcc
188e
550
18f2
1593
1a76
1817
1ad8
1463
12e4
7a6
a87
1349
fec
eed
af2
1b15
502
526
6e7
1889
a0b
64c
1acd
16ae
9b0
1a52
19f3
555
1860
1561
1842
1725
64a
b4b
90c
98f
650
6e3
924
7e8
909
1a2a
60d
8ee
19af
1af0
793
19b4
19f5
1896
518
700
c81
d22
bc3
aa4
15ea
146b
13ac
15ad
1aae
1830
1671
1892
574
000
