0329
1caa
1c4b
04cd
048e
1c2f
18d0
1a71
1cd2
1bd3
02d6
0377
03d8
0340
0381
1a43
1b44
0565
1ce7
1b28
1c6c
034e
1d50
03d2
04f3
0276
03b7
0518
02e0
0262
04a3
1da5
1cc9
1d0a
1d0b
1ced
1d0e
1cef
1d70
1c91
1b52
1b73
1c96
1bf7
1b18
1ae1
1b82
1ba6
1c47
02aa
1c8c
19ad
1aee
02cf
02f0
02f1
0375
0376
0317
04b8
02e4
0348
1d50
1d71
1d74
1db5
1d56
1d31
1db5
1d96
1d20
0666
02c7
1be8
19c9
1bf0
0414
1c80
1d21
1cc2
1ca3
1b24
032a
070b
09ac
086d
044e
026f
03f0
1d94
1c96
0000
