1c41
1c82
1b84
1d86
1d2c
1db3
1db8
0420
1b01
18a2
1b03
0525
0a26
0307
1b68
1ca9
03aa
0f8b
0eac
1cad
1cef
07f1
1db3
1a94
1d15
0309
054b
040c
030d
04f0
0451
0313
03b6
1c81
1d24
1ba6
03a9
034a
1ccb
03ed
0351
0bb2
0533
0274
0356
0b57
0758
0442
0548
0329
1d8a
02ee
1caf
03b1
1cd2
02f4
03b5
04d6
1c00
1c41
1902
1d83
1bc4
1d06
19c7
086a
04ab
06cf
0a30
0331
1d14
1c35
1d36
1d37
0341
0782
0c43
0a24
03e7
0948
0d09
1aea
19eb
028e
1a6f
1b50
1771
1852
1cd4
1c95
1c36
19c0
1981
1d05
1ca6
1d67
1b8b
1b2c
1d51
1754
0000
