0302
1da8
1dac
1c0d
1cae
1cd0
1a31
1a52
1d13
1b96
1cd7
04c2
1d63
0806
0887
1d68
032a
080b
03cc
1d31
1d35
1d16
0365
036a
1c70
1be6
1d28
1c8d
026c
1d56
1d97
0302
1ce5
1c4a
1d80
0421
05c2
0683
05a4
0526
0428
1ceb
1b2c
1d8d
1dae
1c2f
19f0
1c31
1c92
03b5
02f8
03e0
02e2
1c64
1cc8
1d8b
1ccc
02f2
0497
0000
