04e5
1c48
05aa
0a0b
072c
1cad
1dae
18b2
1933
1d16
1b57
0601
1d22
1b03
1ca4
03c6
1d67
19a8
1daa
1bab
1d4c
19cd
1a0f
1c30
02d6
0260
0541
0262
0403
02e4
1cef
1d10
1d15
1d76
1ca0
05ea
1d0d
052f
0810
02f1
1db3
0434
08f5
0756
0617
028e
0570
0671
02b5
0836
04b7
1cb8
1c14
1db7
1be1
1c62
19e6
1b67
042a
1b4c
05cf
1cd1
02d4
1c20
1be1
1ca2
1be3
19e4
1aa5
1c66
03a9
1a6a
1dab
04ac
08ad
098e
1b6f
1d90
0291
04d2
0573
0415
0516
0437
0000
