03c4
1ca6
1c87
04a8
04c9
1bcb
1db2
0275
1ca0
1b06
18e7
1b48
1bcb
1bac
192d
1b2e
1bf2
0454
0615
1ce0
18a1
03e3
03c4
18e5
1826
1a27
1aa8
1929
1c6a
1a8b
19ec
198d
1c0e
1d2f
1d50
0312
0293
0675
05d6
06d7
1d21
1be6
05a8
1c4b
1d2c
1cee
1a10
16b1
1792
1cf5
1b56
03b8
02a6
0447
1cca
1b4d
1cef
1b51
18d2
1cb3
1db6
1a17
18b8
03e1
0302
0463
1d69
1c0a
1d2b
032e
0320
1a62
1b03
1b24
0326
1768
1869
05aa
050b
04d1
0852
0433
1db4
0335
04d6
0417
1cc1
1c62
1b05
18e6
0308
192a
198b
08cc
0a6d
184f
0490
0951
1c33
1bf4
04b5
0756
1d18
0000
1c41
1c82
1b84
1d86
1d2c
1db3
1db8
0420
1b01
18a2
1b03
0525
0a26
0307
1b68
1ca9
03aa
0f8b
0eac
1cad
1cef
07f1
1db3
1a94
1d15
0309
054b
040c
030d
04f0
0451
0313
03b6
1c81
1d24
1ba6
03a9
034a
1ccb
03ed
0351
0bb2
0533
0274
0356
0b57
0758
0442
0548
0329
1d8a
02ee
1caf
03b1
1cd2
02f4
03b5
04d6
1c00
1c41
1902
1d83
1bc4
1d06
19c7
086a
04ab
06cf
0a30
0331
1d14
1c35
1d36
1d37
0341
0782
0c43
0a24
03e7
0948
0d09
1aea
19eb
028e
1a6f
1b50
1771
1852
1cd4
1c95
1c36
19c0
1981
1d05
1ca6
1d67
1b8b
1b2c
1d51
1754
0000
1d23
1c87
1d4b
1d4e
1cf2
1db3
1d97
1ce1
1be2
1b63
1ce5
1da8
1d29
03cb
050c
1b6e
0510
0a31
0392
1cf4
0476
03d7
1b41
1c25
1a66
1b27
1c68
1aca
1b0b
1acc
1c0d
1b8f
1d94
03e2
0523
0325
0788
078d
1d70
02b2
1b95
1b56
1cb7
1db8
1b00
1bc5
040c
1d2d
1cae
04d0
0391
1cd3
02d4
0336
1d98
05e1
0402
02c6
1b2a
1dac
1b8f
1ad1
1b36
1d41
1b42
1aa3
1c44
1d06
1ac7
1be8
1c4c
05ae
0272
1c74
19c1
0464
1ae6
0488
1c6b
05cc
034d
1dae
1c8f
0811
0635
0a96
0000
1d42
04a4
1d06
0409
02ef
02d0
0331
0273
1ca3
1d64
0347
036c
1bf1
1c92
0294
03b5
1bf7
1ca0
1a81
1d02
1d84
1da6
1b87
18a8
1689
03d1
0432
0473
02d4
04d5
0576
0297
03e0
1c63
02a5
1da6
1d07
0869
1ceb
1dac
1cef
1cf0
1d11
1852
1c53
02f4
1b37
0300
0621
02e2
0545
1d87
1bcb
190c
198d
1d8e
1ccf
1ad0
1691
19b2
1b33
1cd4
1b15
1a96
1d37
1d98
0343
02a5
1dab
02ae
0392
02d3
1bf4
1cd5
1cb6
0343
0504
1ca9
1b0c
1cad
1a0e
1caf
1cb0
02b2
0276
1d21
1d66
048d
03ce
02d0
04d1
04d4
0535
1ab7
1a58
0000
1ca5
1d46
04a8
02a9
1c4a
1beb
1c10
1c91
1db2
1980
1941
1b42
1d45
1ca6
1ca7
0449
06cb
036e
0630
0531
0293
0395
02d6
0297
0298
1d60
0522
0583
1bc5
1ce6
0448
1c8a
1c0b
1c8c
1b4d
1d4e
1d70
1c51
1bb2
1cd3
02c1
1d83
0325
0366
0327
1c69
03ca
046b
08ec
03cd
05d0
0af1
07f2
0596
0437
1c01
1cc2
0645
1ba7
070a
052b
1d6c
0a4f
0590
0b74
06d5
1d63
1ca4
1d45
1d28
1d69
03eb
1cf4
1d18
1b04
04e8
0289
1d6f
1a10
1b51
1d00
0286
1ced
1bd1
0333
02d5
1d36
1d57
0398
0000
0281
1d84
1d26
1ce7
07ed
076e
1d2f
1c90
0442
0343
1ca5
03c7
0328
1c8b
1d8c
1d0d
1bcf
1a30
18f1
1b12
1ad3
1cb5
1b16
1b77
1c38
1d62
04c7
07c8
05a9
034c
042d
05cf
04b0
03f1
1b81
1862
1cc3
1c06
1747
1ae8
1b2b
15cc
152d
1c4e
1d50
1731
1632
1b73
0538
1ba0
1a61
1d02
1d83
0405
030a
1d8c
05cd
06ae
1d10
1a31
0433
1c76
1c57
1c60
1d21
1d42
1c25
1b66
1ae7
1c48
1b2a
1c2b
054f
0550
0551
0392
0574
0d35
0ef6
05d7
0341
02a4
0687
0848
03c9
026b
02ec
1aae
1cf1
1b93
1c35
1d16
1c24
1da8
19ab
196c
17f0
1911
1cf4
17d5
17b6
0000
