02a2
0323
1d66
0309
1c2a
1d4b
076d
050e
1c0f
1b74
1955
18d6
1da1
1d82
1ac3
1ac4
0346
1988
048a
076b
1c2d
044f
0270
1c51
1d36
0278
0460
0401
02e5
1ccb
1cec
1dad
1d8f
1c10
1b11
1cb2
1c93
1d35
1c36
1a77
1998
1d01
1c42
1d83
1b05
1886
1c47
1a4a
190b
18cc
1b4d
1ccf
1a30
1af1
1c12
1c13
0387
02a8
02cc
1d50
1b36
1d57
1b60
19e5
02e9
02cc
042d
02d0
0271
1d16
1cf7
1b98
1b20
04e2
0a43
0304
0b06
0ae7
0668
1cc9
1b6d
15af
16f0
1811
1a32
1d54
18d6
1d64
1be8
18e9
026a
058b
038c
026d
1d2e
0630
1b33
0357
0000
