1d81
1ac2
1ba3
1ba5
1ba6
1ca9
04ea
04af
0af0
0ff1
0e72
0333
1cf4
1bb8
1d42
1c63
1c04
1c45
1d46
1aa7
18c8
1969
1cea
1bcb
1a0c
1b2d
1a4e
1caf
1b90
1cd1
1c92
1d96
1d97
0302
02a3
03a5
0526
06e7
0688
0449
1d4d
1c6e
1c71
1d97
1cf8
1ca3
1b84
03cd
040e
1d71
1caa
1cab
1d30
02f3
0355
0296
1da1
1d02
1ac5
1b26
1b67
1ca8
1c4a
1d2b
0271
0312
0434
0435
0296
0440
1d62
1da4
1ca6
1ca9
050a
0a0b
0a6c
052f
03f0
1cf2
1bd3
1c14
1a55
1bd6
1c37
1d78
1d62
1bc5
1bc6
0508
0609
1bca
040c
066d
050e
1acf
0291
0592
04b3
1d34
1c56
0000
