03c4
1ca6
1c87
04a8
04c9
1bcb
1db2
0275
1ca0
1b06
18e7
1b48
1bcb
1bac
192d
1b2e
1bf2
0454
0615
1ce0
18a1
03e3
03c4
18e5
1826
1a27
1aa8
1929
1c6a
1a8b
19ec
198d
1c0e
1d2f
1d50
0312
0293
0675
05d6
06d7
1d21
1be6
05a8
1c4b
1d2c
1cee
1a10
16b1
1792
1cf5
1b56
03b8
02a6
0447
1cca
1b4d
1cef
1b51
18d2
1cb3
1db6
1a17
18b8
03e1
0302
0463
1d69
1c0a
1d2b
032e
0320
1a62
1b03
1b24
0326
1768
1869
05aa
050b
04d1
0852
0433
1db4
0335
04d6
0417
1cc1
1c62
1b05
18e6
0308
192a
198b
08cc
0a6d
184f
0490
0951
1c33
1bf4
04b5
0756
1d18
0000
