1ca5
1d46
04a8
02a9
1c4a
1beb
1c10
1c91
1db2
1980
1941
1b42
1d45
1ca6
1ca7
0449
06cb
036e
0630
0531
0293
0395
02d6
0297
0298
1d60
0522
0583
1bc5
1ce6
0448
1c8a
1c0b
1c8c
1b4d
1d4e
1d70
1c51
1bb2
1cd3
02c1
1d83
0325
0366
0327
1c69
03ca
046b
08ec
03cd
05d0
0af1
07f2
0596
0437
1c01
1cc2
0645
1ba7
070a
052b
1d6c
0a4f
0590
0b74
06d5
1d63
1ca4
1d45
1d28
1d69
03eb
1cf4
1d18
1b04
04e8
0289
1d6f
1a10
1b51
1d00
0286
1ced
1bd1
0333
02d5
1d36
1d57
0398
0000
