1fc7
00a9
00ac
006d
004f
0070
0051
1fd2
0041
1fa2
1fa6
1fa7
1fc8
1fc9
1fab
1fac
1fcd
1fae
0051
0056
003f
1fc5
1fc6
1fa7
1fc8
1fab
1fac
1fcd
1fd2
1fd3
00b4
0055
0056
0043
00c4
1fa6
0048
0089
1faa
1fcf
1f90
1f91
1fb2
1fd3
1fd7
1fd8
00a0
0041
1fc4
0085
1fc9
1fcb
1fcc
1fd1
0053
0058
1fc1
1fc5
1fc6
0087
00a8
008b
00cc
004d
1fae
0090
0051
1f92
1fd3
1f96
1fb7
1fd8
1fc3
0044
0046
1fc7
0069
004a
006b
1fcc
006e
00af
0050
0000
