1fc1
0063
0064
1f86
1fa7
1fc8
0049
1fca
1f6b
1f0c
1fad
004e
1f91
1f92
0053
0055
003f
1fc1
0043
0064
1fa5
0068
0049
1fca
006c
008d
004e
0050
00d1
00b2
1fd7
1fc0
1fc6
1f87
1fa8
004a
004b
006c
006d
0050
0071
0072
0073
0041
0045
0066
1fc8
006b
1fcc
1f6d
1fae
008f
0070
1fd1
1f92
1f93
0054
1fd5
1fd6
1fb7
1fb8
1fc2
1fc3
1fc6
1fa7
1fca
1fcb
0053
1fd8
1fc2
0046
00a7
00a8
0070
0091
0052
0056
1fc5
1fa6
1fc7
0048
0049
1faa
1f6b
004d
006e
1faf
1f50
0092
0073
1f94
1f95
1fd6
0000
