1fc0
006d
008e
0050
0052
00b3
003f
0047
004c
1fce
1fb2
1fb3
1fd7
1fd8
1fce
1fc7
0049
1fcb
1f8c
004e
1faf
1fb0
1f91
0053
1fb4
1fd5
1fd6
0078
0062
1fc4
0067
1fc9
006c
1fc3
004f
1fd1
1fc1
006c
0091
0052
1fd3
0096
0057
1fd8
0000
