1fc1
0063
0044
0045
0086
0087
004d
006e
1faf
0071
1fd3
0057
0058
1fa2
1f83
1f64
008a
00ab
006c
004d
004e
0051
0072
0053
003f
0040
0041
1fc3
1fc8
1fc9
1fab
1fac
1fce
1fd0
1f91
1fb2
1fd3
1fd5
1fb6
1fb7
1fd8
1fc0
0062
0043
0045
004b
006c
006f
0050
0054
1fa0
1fc2
1fc3
1fc4
1fc5
1fca
004d
0050
0071
0055
1fd7
1fa0
1fc3
1fa4
1fc7
1fa8
004a
0050
0071
1fd3
0055
0056
1fd8
1fc5
1fa6
1fc7
1fc8
1f89
1fad
1fd2
0074
0055
0000
