1fc1
0044
1fcb
1fac
006e
1fcf
0051
0053
1fd8
1fa0
1fc1
1fa2
1fc3
1fa4
1fc5
1fc9
006a
008b
006c
006d
0070
0071
0052
1fd5
003f
0040
1f81
1f62
1fa3
00e5
00e6
1f88
1fca
00cb
00ec
1f8e
1fcf
00d1
0092
1fd4
0056
0097
0058
1fc0
1fc3
0045
1fc9
004a
1fcc
1fad
1fce
00b0
0091
1fd3
0054
0055
0096
0057
0040
1fc3
1f84
1fc7
1fcf
0053
0058
1fa8
1fcb
1fcc
1fad
1fce
1fd1
1fb2
1fd3
1fa2
1f83
1fa7
1f88
1fc9
1fcc
1fcd
1fd1
1fd7
0000
