0040
1f82
1f83
0045
1fc7
1fa8
006b
006c
1fad
1fce
0050
00d1
0092
1fd5
00d7
0098
003f
1fc2
1f83
1fa4
0045
008a
00cb
00cc
008d
004e
0051
1fb3
1fb4
1f95
1fb6
1fc3
1fca
008c
00ad
006e
1fd0
1fd1
1fc1
1fa2
1fc3
00a6
0087
0048
006b
006c
1fb0
1fb1
1fd4
1fd5
0080
1f82
1fa3
1fc4
1fa7
1fa8
1fc9
1fcb
1f8c
1fcd
1f8f
1fd0
0056
0057
1fa0
1f61
1f82
1fa3
1fc4
1fc5
1fc6
1fa7
1fa8
1fc9
004a
008b
004c
004f
00b0
00f1
0092
1fd4
1fb5
1fd8
1fc0
1f61
1fc2
1fa6
1fc7
0049
1fcb
1fac
004e
004f
1fd1
0052
0053
1fd6
0000
