01f
fe0
fe1
fe2
01f
fd0
021
fd2
fd3
fe0
fe0
032
053
01f
060
fd2
fe1
01f
01f
01f
fe1
fe3
01f
041
052
fe3
fe0
fe3
fe0
fd2
fe3
032
fe0
fe2
073
031
fe3
fe1
000
021
fe3
073
022
fd3
01f
01f
01f
fd0
fd1
fd2
031
01f
01f
01f
061
fe2
032
fe2
fe1
fe2
063
050
033
01f
fe3
01f
01f
000
01f
040
031
fe0
fe1
060
070
fe0
fe1
01f
061
fe0
031
01f
01f
01f
fe0
031
01f
01f
01f
01f
01f
fe0
01f
01f
000
01f
01f
fe0
fe1
062
fe0
021
fd2
043
01f
041
fe3
fe0
fe1
01f
041
fe3
fe0
041
023
01f
01f
fe0
021
fe3
01f
022
fd3
022
060
fe1
052
fe3
fe0
041
022
fc3
fe0
fe2
023
000
032
01f
020
fe1
043
01f
01f
050
fe1
fe2
fd3
021
fe2
fe0
fe1
01f
01f
fe0
052
fe3
01f
032
01f
fe2
033
fd2
fe3
fe1
fe2
043
fe0
041
052
01f
000
01f
01f
fe0
fe1
fe0
01f
fe0
020
041
01f
01f
01f
01f
021
01f
01f
01f
01f
01f
fe0
fd0
01f
021
000
01f
01f
01f
fe0
fe1
fe2
042
fe3
fe1
033
fe3
fe2
043
020
050
fd2
fe3
fe2
031
fd2
043
022
fe1
022
fe1
023
050
fe2
01f
01f
030
fd1
022
043
fe0
041
fe2
fd3
000
042
01f
033
fe0
051
022
fe3
fe0
fe2
fe0
023
023
fe0
031
fe2
fe3
01f
01f
042
01f
020
01f
fd0
071
fe2
01f
01f
01f
01f
fd0
fe1
fe2
fc3
060
000
01f
01f
01f
040
fe1
040
fe1
030
fd1
031
fe0
021
01f
030
fd1
fe0
01f
fe1
021
fe0
fe1
fe0
01f
01f
01f
070
fe1
fd1
000
030
01f
fe2
023
032
022
023
fe0
fe1
fe0
fe1
fe2
fe3
030
fe1
042
fe2
fe0
031
fd2
fe0
fd1
01f
01f
031
fe3
020
022
fe0
fe1
040
fd2
fd0
fe2
020
051
fe2
fe3
fd0
fe1
062
043
022
000
fe1
042
fe3
01f
fe0
051
fe2
fe2
023
01f
01f
040
023
fe1
032
fd3
030
fe1
fe2
050
fe3
01f
050
fe2
01f
040
fe1
fd3
042
fd1
043
fe2
fe0
fe1
01f
000
fe0
01f
fe0
01f
fe1
060
fe1
fe0
031
041
01f
01f
fd1
020
01f
fe0
071
fe0
fe1
061
01f
020
fd1
01f
000
