0068
1fc9
004c
1fae
1fb0
1fd3
1fb5
1fb8
003f
1fc5
0047
1faa
1fcb
1f8d
1fae
1f8f
1f90
1fb1
1fd4
0057
1f80
0042
0043
0044
1f85
1fc6
1fab
1f8c
1f8d
1fce
004f
1fd2
0054
0040
0041
1fc4
1fc8
1fc9
1fca
1f8b
1fcf
0054
0056
0043
0044
00c5
1fc7
0048
00ca
1fcc
006f
0080
0041
0045
1fa6
1fa7
1f4b
1fac
1fcf
1f90
1fd3
0056
0057
0060
0042
1fc3
1fc4
0065
1f68
004a
004b
1f8c
1fad
1fae
008f
0050
1f91
1fb2
1fb3
0074
1f96
1fb7
1fd8
0000
