0043
0048
0049
1f8c
1fd0
1f91
1f92
0054
1f96
1f77
1fd8
003f
0064
1fc6
0068
00a9
1fca
1fcb
008d
004e
1f6f
1f90
1fb1
1fd2
1fb4
1fd5
1f66
1fa7
1faa
1f6b
1f8c
1fad
1fce
1fd0
1f71
1f92
1fd3
0058
1fa1
1fc2
1f83
1fc5
1fa6
1f67
1f88
1fab
1fac
004e
1fd0
00b2
0073
1fd4
0096
00d7
0078
1fc1
1f83
1fa5
1fa8
1fca
004b
1fad
0050
1fd1
0058
0042
0063
1fc5
1fa7
1fcb
1fac
004e
0044
1fa5
0087
0068
006c
1f4f
1f74
1fd5
0000
