1fc0
0063
0064
1fc6
1fab
006d
1fd1
00b2
00d3
0054
0055
1fd6
1fd7
003f
0046
0067
1f8d
1f6e
1fb1
1fb2
1fd3
1fd7
1fc0
1fc1
1fc6
1fc9
004b
1fcd
1fae
004f
0070
00b1
0092
0056
0077
0058
0082
0063
0064
0045
0066
0047
1fcb
1fcc
1fcf
1fb0
1fd1
1fd5
0061
1f83
1fc4
0066
1fa8
1fc9
1fca
004b
1fcd
1fcf
0051
1fd8
1fc1
1f82
1fc3
0085
00e6
0087
0048
006b
004c
1fcf
1fb0
1fb1
1fd2
1fd3
1fd5
1f96
1fb7
1fa0
1fc5
1f8a
006c
1faf
0091
0055
0096
1fb8
0000
