1fc1
0063
0044
0045
0086
0087
004d
006e
1faf
0071
1fd3
0057
0058
1fa2
1f83
1f64
008a
00ab
006c
004d
004e
0051
0072
0053
003f
0040
0041
1fc3
1fc8
1fc9
1fab
1fac
1fce
1fd0
1f91
1fb2
1fd3
1fd5
1fb6
1fb7
1fd8
1fc0
0062
0043
0045
004b
006c
006f
0050
0054
1fa0
1fc2
1fc3
1fc4
1fc5
1fca
004d
0050
0071
0055
1fd7
1fa0
1fc3
1fa4
1fc7
1fa8
004a
0050
0071
1fd3
0055
0056
1fd8
1fc5
1fa6
1fc7
1fc8
1f89
1fad
1fd2
0074
0055
0000
1fc0
1fa1
0044
1fc5
0047
1fa9
004a
004b
1fac
1f8d
1fce
1f91
1fd2
1fd3
1fd4
1fb5
1fd6
1fd7
1fc0
1fa5
1fc6
1fc7
1fc8
1fd8
003f
0043
0044
1fa5
1fc6
1fa7
0048
0089
004b
1fac
004e
004f
0070
1fd1
0054
1fc0
0042
0063
1fca
1f8b
1fac
1fad
1fce
1fb1
1fd3
1fd6
1fc3
0049
1fcb
004e
0051
0052
0054
00b5
0096
1fd8
1fa0
0062
0043
00a6
0067
006b
1fcf
1fd0
1fb4
0056
0083
0084
00a8
0069
004c
008d
0092
1fb8
0000
1fa3
1fa4
1fc6
1f87
1fa8
1faa
1fab
004d
1fcf
0052
1fc4
1fc5
1f8a
1fab
1fcc
1fcd
1fcf
0053
0054
0075
0056
0057
0098
003f
1fa6
004a
1fcc
004e
1faf
1fd0
1fb1
1fd2
1fd3
1fd4
1fb8
0047
0048
0069
008c
006d
1fd0
1fd1
1fd2
1fb3
1fd4
1fb6
1fd7
1fd8
1fc8
1fc9
1fcb
1fcc
1fad
1fae
1fb0
1fd1
1f92
1fb3
1fb4
1fd6
1fb7
1fd8
0048
004c
1fce
1fcf
1fd2
1fd3
1fb4
1fb5
1fb6
1fb7
1fd8
1fc4
1fc6
1fa7
1fc8
1fc9
1fcb
1fac
1fcd
1fae
1fd0
1fd4
1fd5
1fb6
0058
0000
1fc7
00a9
00ac
006d
004f
0070
0051
1fd2
0041
1fa2
1fa6
1fa7
1fc8
1fc9
1fab
1fac
1fcd
1fae
0051
0056
003f
1fc5
1fc6
1fa7
1fc8
1fab
1fac
1fcd
1fd2
1fd3
00b4
0055
0056
0043
00c4
1fa6
0048
0089
1faa
1fcf
1f90
1f91
1fb2
1fd3
1fd7
1fd8
00a0
0041
1fc4
0085
1fc9
1fcb
1fcc
1fd1
0053
0058
1fc1
1fc5
1fc6
0087
00a8
008b
00cc
004d
1fae
0090
0051
1f92
1fd3
1f96
1fb7
1fd8
1fc3
0044
0046
1fc7
0069
004a
006b
1fcc
006e
00af
0050
0000
1fc1
0044
1fcb
1fac
006e
1fcf
0051
0053
1fd8
1fa0
1fc1
1fa2
1fc3
1fa4
1fc5
1fc9
006a
008b
006c
006d
0070
0071
0052
1fd5
003f
0040
1f81
1f62
1fa3
00e5
00e6
1f88
1fca
00cb
00ec
1f8e
1fcf
00d1
0092
1fd4
0056
0097
0058
1fc0
1fc3
0045
1fc9
004a
1fcc
1fad
1fce
00b0
0091
1fd3
0054
0055
0096
0057
0040
1fc3
1f84
1fc7
1fcf
0053
0058
1fa8
1fcb
1fcc
1fad
1fce
1fd1
1fb2
1fd3
1fa2
1f83
1fa7
1f88
1fc9
1fcc
1fcd
1fd1
1fd7
0000
1fc3
1fc7
1fc8
1fcb
1fcc
0052
0054
1fc0
003f
1fc2
004c
004d
0051
0072
0053
0077
0058
1fd3
0057
0060
0041
0065
0046
1fd1
1fd6
0045
1fc6
004a
1fcb
1fd3
1fc3
0046
004b
0000
