061
0a2
0a3
1fa8
1fa9
1faa
1f8b
1f2c
1f2d
1f8e
1f91
074
095
0d6
0f7
098
1f82
1f86
1f87
0a9
1faa
1f8b
1fac
0ee
1f8f
092
0d3
1fb4
097
098
061
0c2
0a3
064
0a7
0c8
0a9
1faa
1fab
08e
1f8f
1f70
1f51
1f92
1f95
1f56
1f77
1fa0
082
063
0c6
0e7
1fa9
08a
0eb
06c
1fad
1f6e
08f
070
1f91
1f52
1f93
1f96
1f97
1fb8
1fa2
1f87
1f68
1f89
0cb
1f6d
1f6e
0d0
0f1
0d6
0f7
098
060
1fa2
065
1f87
08a
1f8c
06f
075
000
