1fc1
0063
0064
1f86
1fa7
1fc8
0049
1fca
1f6b
1f0c
1fad
004e
1f91
1f92
0053
0055
003f
1fc1
0043
0064
1fa5
0068
0049
1fca
006c
008d
004e
0050
00d1
00b2
1fd7
1fc0
1fc6
1f87
1fa8
004a
004b
006c
006d
0050
0071
0072
0073
0041
0045
0066
1fc8
006b
1fcc
1f6d
1fae
008f
0070
1fd1
1f92
1f93
0054
1fd5
1fd6
1fb7
1fb8
1fc2
1fc3
1fc6
1fa7
1fca
1fcb
0053
1fd8
1fc2
0046
00a7
00a8
0070
0091
0052
0056
1fc5
1fa6
1fc7
0048
0049
1faa
1f6b
004d
006e
1faf
1f50
0092
0073
1f94
1f95
1fd6
0000
0068
1fc9
004c
1fae
1fb0
1fd3
1fb5
1fb8
003f
1fc5
0047
1faa
1fcb
1f8d
1fae
1f8f
1f90
1fb1
1fd4
0057
1f80
0042
0043
0044
1f85
1fc6
1fab
1f8c
1f8d
1fce
004f
1fd2
0054
0040
0041
1fc4
1fc8
1fc9
1fca
1f8b
1fcf
0054
0056
0043
0044
00c5
1fc7
0048
00ca
1fcc
006f
0080
0041
0045
1fa6
1fa7
1f4b
1fac
1fcf
1f90
1fd3
0056
0057
0060
0042
1fc3
1fc4
0065
1f68
004a
004b
1f8c
1fad
1fae
008f
0050
1f91
1fb2
1fb3
0074
1f96
1fb7
1fd8
0000
0040
1f82
1f83
0045
1fc7
1fa8
006b
006c
1fad
1fce
0050
00d1
0092
1fd5
00d7
0098
003f
1fc2
1f83
1fa4
0045
008a
00cb
00cc
008d
004e
0051
1fb3
1fb4
1f95
1fb6
1fc3
1fca
008c
00ad
006e
1fd0
1fd1
1fc1
1fa2
1fc3
00a6
0087
0048
006b
006c
1fb0
1fb1
1fd4
1fd5
0080
1f82
1fa3
1fc4
1fa7
1fa8
1fc9
1fcb
1f8c
1fcd
1f8f
1fd0
0056
0057
1fa0
1f61
1f82
1fa3
1fc4
1fc5
1fc6
1fa7
1fa8
1fc9
004a
008b
004c
004f
00b0
00f1
0092
1fd4
1fb5
1fd8
1fc0
1f61
1fc2
1fa6
1fc7
0049
1fcb
1fac
004e
004f
1fd1
0052
0053
1fd6
0000
0043
0048
0049
1f8c
1fd0
1f91
1f92
0054
1f96
1f77
1fd8
003f
0064
1fc6
0068
00a9
1fca
1fcb
008d
004e
1f6f
1f90
1fb1
1fd2
1fb4
1fd5
1f66
1fa7
1faa
1f6b
1f8c
1fad
1fce
1fd0
1f71
1f92
1fd3
0058
1fa1
1fc2
1f83
1fc5
1fa6
1f67
1f88
1fab
1fac
004e
1fd0
00b2
0073
1fd4
0096
00d7
0078
1fc1
1f83
1fa5
1fa8
1fca
004b
1fad
0050
1fd1
0058
0042
0063
1fc5
1fa7
1fcb
1fac
004e
0044
1fa5
0087
0068
006c
1f4f
1f74
1fd5
0000
1fc0
0063
0064
1fc6
1fab
006d
1fd1
00b2
00d3
0054
0055
1fd6
1fd7
003f
0046
0067
1f8d
1f6e
1fb1
1fb2
1fd3
1fd7
1fc0
1fc1
1fc6
1fc9
004b
1fcd
1fae
004f
0070
00b1
0092
0056
0077
0058
0082
0063
0064
0045
0066
0047
1fcb
1fcc
1fcf
1fb0
1fd1
1fd5
0061
1f83
1fc4
0066
1fa8
1fc9
1fca
004b
1fcd
1fcf
0051
1fd8
1fc1
1f82
1fc3
0085
00e6
0087
0048
006b
004c
1fcf
1fb0
1fb1
1fd2
1fd3
1fd5
1f96
1fb7
1fa0
1fc5
1f8a
006c
1faf
0091
0055
0096
1fb8
0000
1fc0
006d
008e
0050
0052
00b3
003f
0047
004c
1fce
1fb2
1fb3
1fd7
1fd8
1fce
1fc7
0049
1fcb
1f8c
004e
1faf
1fb0
1f91
0053
1fb4
1fd5
1fd6
0078
0062
1fc4
0067
1fc9
006c
1fc3
004f
1fd1
1fc1
006c
0091
0052
1fd3
0096
0057
1fd8
0000
