1fc0
1fa1
0044
1fc5
0047
1fa9
004a
004b
1fac
1f8d
1fce
1f91
1fd2
1fd3
1fd4
1fb5
1fd6
1fd7
1fc0
1fa5
1fc6
1fc7
1fc8
1fd8
003f
0043
0044
1fa5
1fc6
1fa7
0048
0089
004b
1fac
004e
004f
0070
1fd1
0054
1fc0
0042
0063
1fca
1f8b
1fac
1fad
1fce
1fb1
1fd3
1fd6
1fc3
0049
1fcb
004e
0051
0052
0054
00b5
0096
1fd8
1fa0
0062
0043
00a6
0067
006b
1fcf
1fd0
1fb4
0056
0083
0084
00a8
0069
004c
008d
0092
1fb8
0000
