ff1
062
ff0
011
fe2
01f
fe1
ff2
fc3
010
021
ff2
ff3
010
ff1
fe1
012
fe3
020
ff1
042
ff1
012
013
020
fe1
012
013
011
032
023
010
ff1
012
ff3
021
ff3
ff0
ff2
ff3
ff0
011
023
032
fc3
011
ff2
ff1
fe2
ff3
022
033
ff0
011
032
033
000
ff0
ff1
fe3
ff1
013
01f
fd0
021
fe3
031
012
ff3
ff0
011
fe3
fe0
ff1
ff2
023
fd0
fd1
ff2
010
ff2
023
fe0
fd1
ff2
ff3
030
011
fc3
fe0
021
ff3
ff0
011
033
011
013
020
ff1
fe0
051
012
fd3
010
033
ff0
021
030
fd1
ff2
013
040
fd1
ff2
ff3
000
ff0
ff2
010
01f
ff0
ff2
010
010
012
01f
040
012
fe0
010
012
fe0
010
020
ff0
ff0
fe0
ff0
ff0
fe0
fe0
ff2
000
ff0
053
ff1
ff2
ff3
01f
ff0
042
020
fe1
fe2
fe3
020
fe3
013
060
fd2
013
fe0
022
013
020
032
013
fe0
011
023
020
ff1
022
ff3
020
ff1
023
ff0
ff3
ff0
ff2
013
fe0
011
ff2
023
ff0
ff1
fe2
fe3
ff0
021
042
fe3
ff0
011
ff2
fe0
ff1
fd2
023
000
030
ff2
023
020
ff1
ff2
ff3
01f
010
011
ff2
013
ff0
ff1
052
fe3
010
011
ff3
010
ff2
013
020
ff1
fe2
ff3
ff0
ff2
013
ff0
ff1
fd2
033
010
012
ff0
011
022
013
ff0
012
ff0
ff3
ff1
062
ff3
fe0
fe1
012
fe0
011
013
ff0
fe1
fe2
013
030
ff1
fe2
000
ff1
011
013
01f
043
010
ff1
ff3
ff0
011
033
01f
fe3
ff1
ff0
ff1
ff3
ff0
ff1
013
fe1
023
010
ff1
013
ff3
023
fd3
033
fc3
ff0
011
ff3
000
030
012
ff3
ff0
063
01f
ff0
022
013
030
fe2
fe0
013
ff2
ff3
fe0
ff2
fe3
ff0
012
fc3
010
042
fe3
020
fe3
fe3
020
ff2
013
ff0
ff2
01f
050
ff2
fd3
ff2
ff0
022
ff3
012
fc3
fe2
013
000
ff0
011
ff0
ff1
fe2
01f
ff0
011
022
ff1
012
010
ff1
ff2
011
ff2
030
ff1
fd2
ff0
021
012
031
022
ff0
012
010
011
022
ff1
ff1
ff2
ff2
ff1
022
01f
021
032
010
011
ff1
fe2
000
ff0
010
fe1
ff3
01f
011
ff2
013
fe1
ff3
ff0
ff2
ff2
011
ff2
fe0
011
ff0
021
ff2
ff3
ff0
012
ff0
ff1
012
ff3
010
ff1
ff3
ff0
01f
ff0
013
ff0
ff1
012
ff3
031
023
fe0
011
ff0
ff1
012
ff3
000
021
ff2
033
ff1
ff3
01f
011
042
043
ff1
ff2
fc3
ff0
012
ff0
011
022
013
fe0
ff3
010
011
032
013
010
ff2
043
011
ff2
013
011
022
013
fe2
ff0
022
ff3
ff0
ff3
ff0
021
fe1
022
fd3
042
023
010
ff1
ff0
011
ff2
000
ff0
ff1
ff2
ff0
011
ff2
01f
ff0
ff2
011
ff2
030
ff1
01f
060
ff1
ff0
fe1
ff1
ff2
ff0
ff1
ff2
010
fe2
ff0
011
ff2
01f
01f
ff0
011
01f
010
012
020
fe1
012
ff0
fe1
000
020
ff1
ff2
023
ff0
ff1
ff2
ff3
01f
fe1
022
ff3
021
ff2
013
fe0
021
ff2
fe3
010
ff1
ff2
051
fd2
fd3
032
023
ff1
ff2
fe3
010
021
012
043
011
ff1
013
ff0
011
013
020
ff1
ff2
043
ff0
ff2
013
ff0
022
ff3
031
023
010
021
012
033
000
010
ff1
ff2
ff3
01f
010
ff1
fe3
ff0
041
ff3
ff0
010
ff1
012
023
010
031
023
fe1
012
043
01f
ff0
fe2
013
021
ff3
020
021
ff2
ff3
010
012
013
013
031
ff3
010
011
022
043
ff1
fe1
012
053
fe1
023
000
ff0
ff3
ff0
ff1
012
013
01f
022
013
fe0
031
ff2
ff3
ff1
022
ff3
010
ff1
010
fd1
ff2
ff3
010
ff2
021
ff2
ff3
ff0
011
fe0
011
ff3
ff0
ff2
013
010
012
01f
031
012
ff3
010
011
fe2
ff3
010
011
012
013
020
011
fd2
fe3
fe1
ff3
000
ff0
ff1
ff0
ff1
01f
01f
040
fe1
012
030
012
010
031
070
021
021
011
ff2
fe1
040
ff1
012
fe1
010
021
011
030
ff1
022
020
041
021
012
010
031
ff2
fe0
011
ff2
000
fe1
ff3
ff0
032
ff3
01f
022
013
ff0
021
ff2
fe3
ff1
022
010
ff1
023
010
fb1
ff2
013
020
021
ff2
023
ff0
fc1
032
ff0
031
ff2
fe3
fd2
fe3
010
011
fe2
023
010
021
013
021
fe2
020
021
ff2
023
011
012
023
020
021
023
021
012
000
ff1
022
ff1
ff2
01f
012
013
041
fe2
013
021
023
ff3
051
ff2
fe3
fe1
012
021
ff2
fe3
022
013
031
012
023
011
012
013
ff1
013
ff1
031
012
033
fe2
012
013
ff1
ff2
fe3
fe1
012
fe3
000
ff0
021
ff2
ff3
021
ff2
043
01f
ff0
011
022
013
ff1
fe2
ff0
011
012
013
fe0
011
012
fd0
012
ff3
010
ff1
022
fd3
fd0
ff1
ff2
ff3
020
011
fe3
ff0
fe1
ff3
ff1
fe2
013
022
ff3
010
ff3
ff0
011
012
fd3
ff1
012
ff3
ff0
fe1
042
ff3
010
ff1
fd3
030
021
ff2
ff3
000
ff0
ff1
ff3
010
041
023
01f
011
013
020
fe0
021
023
ff0
ff0
ff3
ff0
fd1
fd3
030
ff1
ff3
ff0
fd1
fe3
fe1
ff3
020
fe3
ff0
ff0
ff1
fe1
ff3
ff1
ff1
ff3
ff0
fe1
fd3
fe0
023
000
010
ff1
fe2
ff3
010
062
ff3
01f
011
012
ff3
ff0
ff1
fe3
ff0
ff0
011
ff2
023
fe0
fe2
023
010
011
fb2
023
020
fe2
010
fc2
fe3
ff0
011
fe2
fe3
ff0
ff1
032
fe3
ff0
011
ff2
013
010
ff2
013
fe0
fc2
011
fe2
043
010
021
ff2
023
010
fb2
043
020
ff1
ff2
000
030
011
ff3
010
ff1
fe2
023
01f
ff0
fe1
022
023
ff0
ff1
022
fe0
ff1
013
ff0
021
ff2
ff0
ff1
fb2
ff3
ff0
031
012
ff3
031
fd2
010
011
042
ff3
fe0
022
040
012
ff0
ff1
012
010
ff3
010
ff1
062
ff3
fe0
011
ff2
fe3
fd0
011
022
013
ff0
031
ff2
fd3
010
ff1
012
fe3
000
010
021
020
ff1
022
011
012
ff3
010
022
010
011
ff2
fe3
031
ff2
043
ff0
ff1
ff3
010
013
ff0
fd1
fe2
fe3
01f
010
ff1
041
012
063
ff0
ff3
ff0
ff2
ff3
ff0
fd1
032
fe3
01f
020
011
012
013
011
022
ff3
012
013
010
022
ff3
000
021
012
ff0
fd1
fe2
ff3
ff0
011
012
ff0
fd1
ff2
043
fe0
021
012
040
ff1
ff2
013
021
fe2
ff3
ff3
fd0
043
01f
ff0
050
fe1
ff2
fe3
011
ff2
ff0
ff2
053
fe0
ff2
01f
ff0
fd1
ff2
023
ff0
011
012
020
fe1
fe3
fd0
013
000
010
01f
01f
010
020
01f
ff0
010
012
ff0
01f
010
012
010
ff2
010
fe0
ff2
01f
030
01f
ff0
030
000
020
ff1
fe2
013
010
ff1
022
013
ff2
010
ff1
fe2
013
020
fe1
ff2
fe3
022
ff3
ff0
011
042
013
020
ff3
fd0
021
fe2
ff3
01f
010
012
020
011
ff2
011
032
013
010
012
013
fe0
022
033
01f
040
fe1
013
ff1
fe2
023
ff0
fe1
fe2
013
040
ff1
012
013
000
ff1
032
010
ff1
fd2
033
022
010
fe1
ff2
023
ff1
042
ff3
ff0
011
fd2
013
ff0
031
fd2
ff3
ff0
010
ff1
ff3
01f
011
ff2
fe0
ff1
fe2
021
fe2
ff3
ff0
ff2
020
011
fe2
013
01f
020
fe1
fe2
013
ff1
022
030
ff1
fe2
ff0
013
000
ff1
ff3
ff3
01f
010
ff1
fd3
010
ff1
ff3
ff0
ff1
013
ff1
053
01f
021
ff3
01f
013
011
fe3
ff1
033
01f
ff1
033
01f
010
010
ff1
ff3
01f
010
ff1
000
030
013
020
032
010
ff2
020
ff3
020
ff2
fe0
012
033
fd0
ff2
ff3
012
013
01f
ff0
012
ff3
fe0
fe0
ff2
ff0
ff2
013
fe3
01f
012
033
030
fe2
ff3
ff2
023
ff2
ff3
000
ff1
012
ff0
031
022
ff1
012
010
011
ff2
ff1
012
ff0
011
012
ff2
010
012
ff1
fe2
01f
010
010
ff2
ff0
ff1
01f
ff0
011
01f
010
ff2
ff1
ff1
fe2
010
000
010
fe1
fe3
011
ff2
ff3
ff1
010
ff1
fe3
010
ff1
ff2
ff3
010
012
013
01f
021
ff2
013
01f
011
013
021
012
013
011
012
013
010
ff0
ff1
ff2
01f
010
ff1
fe3
010
fe1
ff3
ff0
fd1
012
fe3
010
000
fd2
ff3
010
ff2
043
ff0
ff2
ff3
010
ff1
fe1
ff2
fe3
010
012
023
ff0
031
042
023
01f
ff1
032
ff3
01f
ff0
012
ff1
fd2
ff3
ff0
021
032
023
032
031
042
043
01f
ff2
013
ff0
ff2
ff3
ff0
ff0
011
013
000
021
ff2
ff0
fe1
ff2
011
ff2
010
021
ff2
fe0
ff2
ff0
ff1
ff2
010
020
011
022
01f
020
ff1
050
ff1
012
ff0
ff2
ff0
011
fe0
fe1
ff2
01f
010
ff2
011
fe0
ff1
fe2
020
ff2
000
011
ff2
013
ff1
ff2
fe3
010
ff2
013
010
ff2
ff0
fe2
ff0
032
013
ff0
042
013
021
ff0
fe1
fd2
fe3
01f
011
ff3
ff0
071
012
023
011
022
013
ff0
fe1
ff3
010
fd1
022
023
01f
011
ff2
fe3
010
fe2
013
013
010
021
ff2
ff3
000
010
031
ff2
ff3
fe1
ff3
021
ff3
020
012
033
ff0
041
ff3
ff1
013
fd1
ff2
ff3
011
020
ff1
022
01f
01f
ff2
023
010
ff1
ff2
ff3
010
012
023
010
fe1
013
01f
010
021
013
020
021
ff0
012
023
010
031
ff2
000
fe0
011
ff2
ff0
011
ff3
011
010
fe2
ff0
021
ff2
fe0
012
013
ff0
fd1
022
033
ff0
ff3
050
01f
010
010
ff1
ff2
ff0
fe1
012
023
020
ff1
023
fe1
012
013
01f
ff0
ff1
013
011
ff2
ff0
ff1
012
ff3
ff0
ff1
ff2
013
000
020
fe1
012
ff0
ff1
ff2
010
ff1
012
010
021
ff2
030
ff1
012
fd0
ff1
ff2
ff1
ff2
020
012
051
012
01f
010
020
ff1
ff2
ff0
031
ff2
ff0
011
ff2
01f
030
ff1
ff2
010
ff2
040
000
ff0
021
fe2
fd3
ff0
fd1
042
ff3
ff0
ff2
ff3
020
fe1
ff2
013
ff0
fe3
ff0
021
012
fe3
021
fe2
013
ff3
020
fd1
012
063
01f
010
ff1
013
ff0
021
fe2
013
011
fe2
010
ff1
fe2
033
010
ff2
013
01f
fe1
022
fe3
fe2
ff3
022
ff3
fd1
fe2
ff3
000
021
ff2
023
011
fe3
011
013
ff2
fe3
041
ff2
013
fe1
ff3
fe1
032
023
021
fe1
fe2
01f
011
011
ff3
ff1
032
013
ff1
ff3
fd1
032
013
01f
021
ff2
ff3
011
ff3
041
012
013
000
fd2
013
ff0
fe2
ff2
ff0
fe2
ff0
ff1
fe2
013
030
ff2
013
020
ff1
032
ff3
ff1
ff3
fc0
021
042
023
01f
ff0
012
ff3
030
ff1
ff3
020
022
ff0
ff1
022
013
ff0
011
022
ff3
01f
ff0
fd2
023
ff1
ff2
ff3
010
021
fe2
013
fd0
fe1
000
020
ff3
030
013
010
ff3
010
ff1
fe3
010
020
013
fd0
fe1
ff3
ff1
ff3
010
031
013
01f
ff1
ff3
ff1
fe3
ff0
ff1
ff3
010
011
ff3
fd0
ff1
ff3
01f
020
011
010
ff1
ff3
fe0
021
023
010
ff1
fe3
000
fe1
022
fd3
030
ff1
ff3
ff0
ff1
010
ff1
023
fe0
ff1
022
ff3
030
022
fe3
ff0
021
ff2
ff3
ff2
fe0
011
032
053
01f
ff0
011
ff2
010
ff1
fe2
013
011
012
fe3
ff0
011
032
033
ff0
021
fd2
013
01f
010
ff1
032
ff3
ff0
ff1
ff2
020
ff1
012
ff3
fe0
ff3
000
030
012
010
011
fd2
010
012
020
021
fc2
ff3
01f
010
011
012
023
ff0
ff1
052
023
ff0
010
fd2
01f
011
010
ff1
012
ff3
010
ff1
042
013
020
011
ff2
013
010
011
022
013
01f
010
011
fd2
013
030
ff3
ff2
010
000
010
fe1
fe2
033
020
012
ff3
ff0
ff1
042
ff3
fe1
fd2
fe3
ff1
022
ff3
fd1
fd2
023
ff1
ff2
fe3
013
010
011
fe2
ff0
fe1
010
010
012
ff3
ff2
ff3
ff0
fe2
032
041
fd2
ff3
010
011
063
ff0
ff1
ff3
ff0
ff2
ff3
fe0
ff2
013
000
ff0
ff3
fe0
012
ff1
fe0
021
012
fe3
01f
ff0
021
012
fd3
fe0
021
ff3
ff1
ff2
013
ff0
011
012
013
010
031
fa3
ff0
013
fe0
ff1
ff2
033
ff0
fe1
ff2
043
010
ff1
ff2
fe3
ff0
021
012
063
030
fe1
ff2
fa3
ff1
ff2
033
010
021
012
023
ff1
ff2
033
000
01f
020
ff2
ff0
ff0
fe0
01f
01f
010
012
fd0
010
01f
020
01f
010
012
030
01f
fe0
ff2
ff0
ff2
ff0
ff2
000
ff0
fe1
032
fd3
010
fd1
ff3
fe1
ff2
043
ff0
022
fd3
012
023
fe0
022
fc3
022
ff3
013
010
012
ff3
fe0
022
fe3
020
fe1
012
fe3
010
fe1
013
030
022
ff3
ff0
011
fe2
010
022
033
020
fe1
ff2
ff3
010
021
ff2
fe3
fe0
ff1
ff2
fe0
fe0
011
012
013
000
ff1
ff2
023
010
fe1
022
013
040
ff2
013
020
021
ff3
010
011
ff2
030
011
012
ff2
ff0
011
ff3
030
021
ff3
ff1
012
013
010
ff0
011
fe2
ff1
ff2
020
021
fc2
fd0
ff1
032
ff3
010
ff1
fe2
010
ff2
011
012
ff3
fe0
fe2
013
000
ff0
010
ff1
fd3
013
fe0
043
ff1
023
ff0
021
033
023
01f
010
013
ff0
011
053
010
ff1
ff3
ff1
01f
010
011
fe3
ff1
033
010
ff1
fe3
031
ff3
ff1
013
011
ff3
000
042
013
040
022
020
023
fe0
012
023
ff2
ff3
fe0
042
033
012
013
ff0
013
ff0
023
010
022
ff2
013
fe0
012
023
ff0
013
fe0
020
ff2
023
fd0
022
013
ff2
012
013
000
ff0
031
032
011
022
ff0
ff2
01f
ff0
011
022
011
022
ff2
010
012
ff1
021
022
ff1
011
ff2
ff2
ff0
ff1
012
020
ff2
ff0
011
ff2
ff0
ff1
fe0
011
012
000
021
ff2
ff3
010
ff1
ff2
fe3
fe1
ff2
fe3
ff0
ff1
ff0
ff0
021
ff2
011
ff2
01f
010
ff2
fe0
ff1
ff3
fe1
012
fe3
010
011
ff2
010
ff2
013
012
013
020
ff1
fe3
ff0
051
023
ff0
fe1
ff3
ff1
010
011
013
000
020
fe1
ff2
033
fe1
fc2
013
011
fe2
033
011
052
013
011
012
023
010
ff1
012
023
011
022
023
012
012
ff3
ff0
021
032
023
010
ff1
ff2
013
ff0
013
010
022
013
fe1
022
ff3
031
022
043
010
fe1
fd3
ff1
fb2
ff3
042
011
032
010
013
000
fe0
ff1
ff2
011
fe2
fd0
fe2
ff1
ff2
ff0
ff1
ff2
ff0
ff1
ff0
011
ff2
01f
011
ff0
fe1
ff2
011
ff2
ff0
fe2
010
011
012
fe1
fe2
ff0
041
ff2
060
fe1
032
fd0
ff1
ff2
ff0
ff2
ff0
012
000
ff0
fe1
fe3
010
fd2
ff3
010
fe1
fe2
fe0
012
ff3
010
ff1
012
013
fe0
fe1
fe3
fe1
ff3
01f
ff0
ff3
022
013
ff2
ff3
013
ff0
ff1
fd3
ff0
ff1
ff2
ff3
010
021
032
013
ff0
ff1
ff3
ff0
061
ff2
fe1
012
012
023
ff0
fe1
000
ff0
ff1
012
ff0
031
ff3
020
ff1
ff2
ff3
ff0
ff1
012
010
ff1
fe0
fe1
022
ff3
ff1
011
ff2
ff3
fd0
fe1
ff0
021
ff3
010
011
ff2
011
020
ff1
022
023
010
fe1
fe2
ff3
010
051
fe0
ff1
fe2
010
fe1
022
043
012
013
010
ff1
000
ff0
031
ff3
fe0
031
ff2
fe3
fe0
ff1
012
ff0
ff1
032
ff3
ff1
012
010
011
032
fe3
011
012
013
010
ff1
013
fe0
ff1
032
ff3
ff0
021
ff2
fe0
ff1
010
ff1
023
030
ff1
fc0
fd1
022
013
ff0
021
fe2
023
030
ff1
ff3
010
ff1
012
012
013
020
011
ff2
013
000
ff2
020
ff1
012
fe0
fe1
020
012
ff0
ff0
011
012
ff1
012
ff2
010
020
ff1
012
020
ff1
010
ff1
012
011
041
ff2
fd1
fe2
010
012
01f
041
ff2
011
fc0
011
fe2
000
ff0
fe1
062
fe3
ff0
fe1
032
fd3
fd1
012
fd3
032
ff3
010
ff0
ff1
072
ff0
012
013
ff0
011
ff2
ff0
021
042
fe3
ff0
ff1
022
fe3
ff2
fe3
fd1
013
020
ff1
022
033
fe0
ff1
ff2
fe3
021
fc2
ff3
fe0
ff1
042
023
020
021
012
023
010
031
fe2
013
023
000
fe2
041
fe2
ff3
fe1
012
011
012
023
ff1
012
ff1
ff2
013
011
023
ff1
011
013
011
022
023
031
ff2
ff3
011
012
013
011
ff3
ff1
fe2
ff3
ff1
032
021
fe2
ff2
ff3
fe1
ff3
ff1
012
013
fd1
000
ff0
fe2
013
fe0
fc2
013
ff0
031
fd2
023
021
012
013
011
012
ff3
fe0
031
012
023
ff0
012
01f
ff1
012
010
031
012
ff0
ff1
fe2
fe2
ff0
ff1
022
013
ff0
011
022
013
020
011
012
fd1
ff2
023
010
021
012
011
012
010
012
ff1
012
013
000
030
011
023
040
013
011
013
fd0
031
033
ff0
ff1
041
053
01f
011
010
fc0
021
043
020
011
010
011
ff3
010
021
013
fe0
040
011
fd3
ff0
021
013
ff0
011
013
ff0
030
ff3
000
040
ff1
012
ff3
020
fe1
012
ff3
010
ff1
032
fd3
021
012
ff3
ff0
fe2
013
020
022
013
011
012
ff0
011
012
010
021
ff2
fe3
010
ff1
012
ff3
012
fe3
011
032
013
022
043
011
fc3
ff0
052
ff3
010
fe1
ff2
023
021
023
ff0
011
013
010
022
013
000
fd0
051
fe2
013
010
fd2
ff3
040
ff2
fd0
ff1
022
023
012
fb0
031
013
ff0
011
022
013
01f
ff1
012
013
fc0
ff1
042
013
011
fe2
010
020
011
fe2
023
010
011
fc2
020
032
013
030
011
013
fd0
ff1
ff2
ff3
ff0
011
ff2
022
013
020
011
000
ff2
013
011
ff2
fe3
031
033
fe0
031
fe2
023
011
ff2
013
010
ff2
ff3
01f
01f
ff0
ff2
013
01f
041
fe2
033
012
fe3
011
013
ff0
ff2
013
ff0
011
012
01f
020
fc1
042
fc3
ff1
012
013
000
011
01f
ff0
041
012
013
020
ff1
023
030
031
033
fe1
ff2
013
fe0
013
01f
01f
010
ff3
01f
030
ff1
ff2
033
fe0
ff2
073
010
010
011
ff2
ff3
010
ff3
01f
fc0
ff1
ff2
fe3
ff0
ff1
010
ff3
000
01f
01f
012
010
ff0
ff2
010
030
01f
01f
ff0
ff2
01f
020
ff2
010
010
ff0
01f
01f
01f
01f
01f
000
ff0
011
ff3
01f
ff0
ff1
fe3
010
ff1
fe2
fe0
011
022
010
011
fd2
ff3
030
fe1
012
ff3
01f
01f
ff0
ff3
01f
020
fe1
fe2
ff3
010
ff1
022
023
010
ff1
012
ff0
031
022
013
ff1
01f
052
033
012
013
ff1
000
ff0
ff3
01f
ff0
052
ff3
fe0
fe1
012
fd0
011
022
ff3
020
ff1
ff2
ff3
011
ff2
01f
01f
010
01f
ff1
ff2
fe3
fe0
fe2
023
01f
fe0
021
fd2
ff3
010
01f
030
011
fd2
033
010
ff2
013
020
ff3
000
011
01f
ff1
ff1
fd3
ff1
013
011
ff3
010
ff1
013
01f
01f
01f
01f
010
010
fe1
ff3
ff1
013
031
023
ff1
01f
ff0
ff1
023
010
ff0
013
000
01f
01f
020
ff2
ff3
020
023
010
033
fe0
033
ff0
012
023
01f
01f
ff0
013
01f
fd0
fe2
063
fe3
013
fe0
012
ff3
ff2
013
01f
020
032
012
ff3
ff0
023
000
01f
01f
ff1
012
01f
fe0
012
010
ff1
fe2
01f
01f
01f
ff0
01f
fe1
fe2
ff0
021
012
01f
ff1
ff1
01f
fe0
031
022
011
01f
000
011
013
01f
ff1
ff2
ff3
010
ff3
010
011
013
010
011
010
ff1
ff2
fe3
01f
01f
ff0
012
01f
020
fd1
ff3
010
fe1
ff3
ff1
ff3
051
033
ff1
ff3
01f
011
ff2
ff2
ff1
ff3
000
ff3
01f
ff0
022
fe3
010
ff1
fd2
ff3
011
012
fe1
ff2
fe3
ff1
01f
01f
ff1
012
01f
fe0
ff1
ff2
fe3
052
013
011
013
021
ff2
013
ff0
01f
021
022
073
011
012
013
010
ff2
013
000
010
012
01f
021
ff2
ff0
011
fd0
021
030
012
010
011
fe2
01f
01f
01f
01f
fe0
011
fe2
fe0
fe2
ff2
040
ff1
032
ff0
ff2
01f
fe0
ff1
ff2
ff1
ff2
000
01f
01f
ff0
023
011
ff0
032
023
fe0
021
fe2
fe3
ff0
fd3
01f
01f
ff0
012
01f
ff0
011
022
fe1
022
011
012
ff0
021
011
012
013
01f
010
fc1
fe3
010
01f
000
01f
01f
ff0
031
012
013
010
021
023
010
013
010
ff0
021
ff2
fe3
01f
01f
ff1
012
013
01f
010
011
013
030
022
033
011
fe1
fe2
fd3
01f
01f
fe1
ff2
fd3
010
ff1
ff2
000
010
01f
021
ff0
021
fe2
ff0
011
033
020
fe1
fe0
013
01f
01f
012
01f
fd0
fe1
023
fe2
013
fe0
013
030
fe1
023
ff0
01f
fe0
012
01f
ff0
012
000
ff2
01f
030
011
012
ff1
fd0
ff1
012
010
011
ff2
010
ff1
01f
01f
011
01f
ff0
fe1
030
031
ff2
ff1
fd0
ff2
ff1
01f
ff0
fe1
fe2
010
ff2
ff0
fe1
ff2
000
ff2
013
01f
010
031
fe2
013
021
ff2
fe3
061
fd2
ff1
022
023
ff0
fe1
012
ff3
01f
01f
011
012
01f
ff0
041
fd3
020
fd2
013
011
ff3
fe0
ff1
ff2
033
011
ff3
01f
ff0
fb1
032
010
ff0
012
ff3
000
013
01f
031
023
ff2
ff3
fe1
012
013
011
fe2
ff3
021
ff3
01f
01f
01f
01f
ff3
012
012
fe1
012
013
01f
01f
011
022
012
ff3
01f
000
012
01f
ff0
ff1
012
ff3
020
ff1
fd2
013
040
fd1
012
ff0
011
012
023
fe0
023
01f
01f
010
01f
040
fe2
033
ff0
fd1
012
ff3
010
042
010
ff2
01f
fe0
011
01f
011
ff2
013
000
ff0
01f
ff1
fe3
030
fe3
020
fe1
fe3
031
013
010
011
01f
01f
ff0
011
013
01f
010
031
013
010
fd1
fc3
01f
ff0
021
ff3
013
01f
010
ff0
ff1
011
023
000
ff0
ff2
013
01f
fe0
011
ff2
013
020
fe1
022
ff3
032
ff3
ff1
032
023
032
fe3
01f
01f
010
01f
010
ff1
062
fe3
021
ff2
023
012
fe3
ff0
012
023
012
ff3
01f
020
011
fd3
ff2
010
012
fe3
000
ff0
ff1
012
01f
fe0
032
020
021
ff2
ff3
030
052
013
010
ff1
fd2
010
fe2
023
01f
01f
ff0
01f
020
fd1
012
013
020
031
ff2
012
013
010
fe1
022
013
010
ff1
012
01f
020
023
01f
ff0
000
ff1
012
ff0
042
fe3
010
ff1
042
013
01f
010
ff1
fe3
fe0
fe3
010
023
021
013
ff0
fe1
022
013
041
ff2
023
01f
010
042
010
011
023
022
013
010
011
022
ff3
021
fe1
fe2
ff3
ff0
011
012
023
020
041
ff2
043
000
fe0
011
fd0
fd1
ff2
033
fe1
023
01f
fe0
011
ff2
ff3
ff0
ff1
043
ff1
fe2
013
020
ff1
013
ff0
011
fc3
040
041
012
fe3
01f
ff0
ff3
010
ff1
011
012
ff3
ff0
011
012
011
033
fe0
021
ff3
ff0
ff1
012
013
030
021
012
fd3
020
021
012
fe3
000
010
012
020
ff2
ff0
01f
01f
ff0
ff2
01f
01f
fd0
ff0
01f
010
012
01f
01f
012
010
ff0
01f
fd0
030
012
000
020
011
012
013
010
fe1
fd2
053
ff1
ff2
023
01f
022
fe0
fe2
013
fe1
022
ff0
ff1
ff2
013
fe0
021
fe2
013
fe0
fe2
fd3
01f
030
ff1
023
ff1
022
ff3
010
010
ff1
ff2
023
020
fe1
022
ff0
031
022
fe3
ff1
ff2
013
fd0
011
012
013
040
fe1
ff2
fc3
000
fe0
013
030
ff1
fe2
013
010
ff1
ff2
023
01f
011
ff1
fe0
ff1
fe2
023
01f
030
012
ff3
fd0
ff1
052
ff3
01f
020
011
fe0
ff1
023
022
ff3
010
ff1
022
fe0
011
fd0
021
020
010
011
012
fe0
032
ff3
000
010
013
010
011
ff1
fe3
01f
ff0
ff1
023
ff1
fe3
ff0
fe1
ff3
ff1
ff3
ff0
031
013
011
ff3
01f
010
ff1
013
ff0
ff1
fe3
010
ff1
ff3
010
fd1
013
ff0
021
013
01f
ff0
023
fe1
fe3
000
fd3
030
033
020
012
fd3
01f
012
010
ff2
010
022
ff3
ff2
013
012
ff3
040
ff2
ff3
01f
ff2
ff3
020
022
ff3
010
ff2
fe3
030
ff3
ff0
ff2
fe3
ff0
022
fe3
010
023
010
ff3
fe2
ff3
000
010
011
012
ff0
ff1
fe2
011
01f
012
ff0
011
ff2
021
022
ff0
ff1
ff2
010
fe1
ff2
ff1
022
01f
010
ff1
ff2
ff0
021
032
010
ff1
012
011
012
010
012
ff2
ff0
012
020
ff1
012
000
ff0
011
012
013
010
fe1
ff2
ff3
ff0
ff1
ff3
01f
ff2
010
ff1
ff3
ff2
ff3
ff1
012
ff3
fe0
021
023
ff0
011
012
013
01f
ff1
011
ff0
ff1
ff3
fe1
012
fe3
ff0
051
ff2
033
fe1
ff3
fe0
011
013
ff1
012
ff3
000
011
012
013
ff0
011
fd2
023
010
013
01f
011
012
023
ff0
ff1
022
ff3
010
ff1
ff2
023
ff2
ff3
ff0
011
fe2
ff1
fd2
fd3
01f
ff0
011
023
010
ff1
fe2
023
ff0
011
ff3
fe2
052
011
012
012
013
021
012
013
fe1
fe2
fd3
000
020
012
ff0
011
ff2
fe1
ff2
01f
ff2
ff0
ff0
fe2
ff0
ff2
040
ff1
022
010
011
01f
020
ff2
ff0
ff2
010
011
ff2
ff0
fd2
040
ff1
032
ff0
ff2
fe0
ff1
ff2
030
011
fe2
000
011
020
fd1
fb2
fe3
020
011
023
01f
ff1
012
ff1
ff1
012
011
013
010
021
fe2
023
031
043
01f
010
021
013
011
012
021
013
010
fe2
013
ff0
011
032
fe0
ff2
ff3
ff1
ff2
010
011
032
043
fe0
061
022
013
000
01f
040
ff2
fd3
010
fe1
012
053
01f
ff1
ff2
ff3
020
ff1
012
023
012
013
010
013
ff0
ff1
fd0
031
013
01f
010
011
ff2
013
023
011
013
011
ff2
ff3
010
021
022
043
ff0
ff1
ff2
fe3
010
011
012
ff0
ff1
ff2
013
fe0
051
ff2
023
000
010
ff2
ff3
ff0
ff1
012
013
011
fe2
ff3
01f
01f
020
ff1
ff2
ff0
021
ff2
ff3
fe0
ff2
030
012
fd3
ff0
031
ff2
ff3
01f
ff0
ff1
ff0
021
fe2
ff3
01f
ff0
011
ff2
ff3
fe0
ff2
013
040
012
ff0
012
fd0
011
fe2
000
020
011
012
fe0
ff1
ff2
010
021
ff2
01f
01f
031
010
ff2
ff0
fe1
ff2
010
011
012
010
fe1
012
01f
040
ff1
ff1
020
011
012
010
fe1
012
040
021
ff0
011
012
010
011
fe1
012
060
fd1
012
000
ff1
ff2
013
010
f91
fd3
020
ff1
01f
ff1
013
020
011
ff2
023
ff1
012
fe3
011
ff2
fe3
032
023
ff0
061
ff2
ff3
01f
010
ff1
ff2
ff3
ff0
012
fe3
011
ff2
ff0
ff2
ff3
020
031
fc2
ff3
ff0
fe1
012
043
012
ff3
041
ff2
ff0
041
fe2
fc3
000
021
012
013
ff1
ff3
ff3
01f
011
012
013
fe1
ff2
ff3
ff2
ff3
ff1
ff3
013
021
ff2
013
01f
031
012
011
ff2
ff3
011
012
013
011
013
021
012
ff1
012
023
01f
ff1
022
023
051
ff2
000
fe0
fe1
012
fe3
fe0
031
fc2
033
fe2
fe3
01f
ff0
012
ff3
ff0
012
013
ff0
fe1
fe2
ff3
020
ff1
ff2
ff0
041
022
ff3
030
fe1
ff2
fe3
01f
ff0
011
ff2
ff3
010
fd1
fe2
fe3
fe3
ff0
ff2
010
fc1
012
fe3
fe0
052
ff3
ff0
011
ff2
023
030
011
012
fe3
020
fd1
fd2
fe3
000
fe1
fe3
010
031
013
ff0
fd1
fe3
01f
ff0
ff1
ff3
ff3
020
fe1
ff3
ff1
ff3
fd0
021
023
010
01f
ff0
ff1
ff3
030
fd1
fe3
ff0
ff1
ff3
010
ff1
fe3
fb1
fd3
011
ff3
021
013
ff0
fe1
fe1
fe3
000
ff0
011
fe2
013
fe1
062
ff3
010
ff1
fc2
023
01f
011
ff0
011
023
020
ff1
ff2
ff3
010
ff1
fe3
ff0
ff1
fe2
033
010
ff1
fe2
ff3
01f
ff0
fe2
ff3
020
ff1
ff2
ff3
ff0
fd2
013
ff1
fe3
031
fe2
013
fe0
011
ff2
033
032
ff3
010
fd2
fe3
010
ff1
fe2
fd3
000
01f
060
ff1
fc2
013
031
fd2
fe3
01f
012
013
010
011
fe2
ff3
031
ff2
ff3
010
fd0
fd1
ff3
ff0
ff1
042
ff3
01f
010
ff1
ff2
021
ff2
ff3
ff0
ff1
012
020
ff3
ff0
011
012
fe0
022
013
010
ff2
013
062
fe0
fe1
022
ff3
000
ff0
ff2
fe3
020
ff1
022
ff3
020
ff1
ff2
033
010
fe1
032
fd3
011
fe2
013
010
012
010
011
ff3
042
ff3
011
012
023
011
022
013
ff1
022
fd3
01f
fe0
021
fe2
043
fe2
023
01f
01f
fe0
ff1
032
ff3
01f
ff0
011
053
ff0
ff1
fe2
ff3
000
fe0
023
fe0
fe3
ff0
ff1
ff2
023
fe0
021
012
fe3
fe1
023
ff1
021
012
ff3
fe0
fe1
ff2
013
010
ff1
ff3
010
ff1
ff3
ff0
021
fe3
01f
050
ff1
023
010
ff1
ff2
fe3
01f
01f
ff0
011
012
01f
040
fd1
ff2
013
ff0
031
012
ff3
000
010
ff2
030
012
010
ff0
01f
010
012
01f
010
ff2
01f
01f
fe0
ff2
01f
fe0
ff0
012
01f
01f
fe0
ff2
01f
ff0
ff2
fe0
ff2
000
ff1
040
012
ff3
010
fe1
032
ff3
fe0
023
ff1
ff2
ff3
010
011
ff1
ff2
ff3
ff2
073
ff1
013
ff2
023
fd0
011
012
023
01f
fd0
011
012
ff3
fe1
ff2
fe3
012
01f
fe0
ff1
ff2
023
01f
fe0
ff2
ff3
fd0
021
032
ff3
000
010
ff0
011
ff2
ff3
fe0
ff1
ff2
033
010
022
013
020
ff1
ff2
ff0
fe1
032
040
fd2
023
010
ff2
010
ff1
013
032
013
01f
fe0
011
fd2
ff3
030
ff1
fe2
ff3
01f
01f
020
ff1
022
013
01f
ff1
fd2
013
fe0
011
022
013
000
011
013
013
fe1
fe3
ff1
ff3
010
ff1
ff3
010
011
013
01f
ff3
013
01f
013
ff0
013
01f
01f
01f
01f
011
fe3
ff0
011
023
000
043
fe0
fd3
010
042
fe3
030
fe3
ff0
012
043
ff0
030
030
012
043
ff0
012
013
020
ff3
040
012
fe3
01f
fc0
ff2
023
fe0
053
01f
01f
030
01f
ff0
012
023
020
022
fe3
000
ff0
ff2
020
ff1
ff2
031
042
ff0
011
022
ff2
010
ff2
012
ff0
ff2
01f
01f
ff0
011
022
01f
ff1
fe2
ff1
ff2
01f
01f
fe0
012
01f
011
fe0
011
032
000
010
ff1
ff2
ff0
012
011
ff2
ff3
ff0
011
010
fe1
ff3
010
011
ff1
ff3
010
ff2
ff3
01f
ff0
ff0
021
013
01f
ff0
012
013
ff0
fd1
012
fe3
01f
01f
ff0
ff1
fe2
ff3
01f
012
031
023
000
013
011
020
fe1
ff2
033
011
023
010
fe1
012
ff3
ff2
ff3
ff1
fe2
ff3
021
fc2
043
ff2
013
ff2
013
011
023
01f
042
ff3
ff0
ff1
012
ff3
013
01f
011
013
01f
010
fe1
ff2
011
012
023
000
fe0
011
ff2
040
ff1
ff0
ff2
ff0
ff0
ff2
020
012
011
ff2
ff0
011
ff2
01f
fe0
011
012
01f
ff0
fe1
fe0
ff1
fe2
01f
01f
fe0
ff2
01f
ff1
011
012
000
ff0
fd1
fe2
fd3
ff0
031
fe3
ff0
fe1
012
fe3
010
ff1
ff2
013
ff0
ff3
011
ff2
ff3
011
ff2
013
020
fe1
fe2
013
011
012
013
010
011
ff2
013
010
fe1
ff2
023
01f
fe0
031
052
013
fe0
011
012
01f
01f
020
fe1
fe2
023
01f
ff0
021
022
013
fe1
012
013
000
011
012
fe3
ff0
021
ff2
012
013
ff2
fe3
010
011
012
013
011
ff2
ff3
fe0
021
ff3
030
ff1
fe2
fb3
013
013
fe3
01f
010
fd1
012
053
ff0
ff1
012
013
01f
01f
010
012
013
01f
fe1
012
043
ff0
fe3
000
ff0
012
013
ff1
012
ff3
ff0
031
ff2
ff3
011
ff3
01f
010
ff1
fe0
021
ff2
ff3
ff1
023
fe0
ff1
ff2
ff3
021
ff3
01f
010
fd1
012
013
fe0
ff1
022
01f
01f
021
ff3
01f
010
ff3
010
021
012
000
fe0
ff1
050
010
010
ff1
012
011
ff2
01f
020
fe1
012
fc0
fc1
ff2
ff1
010
ff0
ff1
012
01f
ff0
021
ff2
010
ff1
ff2
01f
01f
ff0
011
012
01f
ff0
011
fe2
fd0
ff1
012
000
ff0
fd1
022
ff0
fd1
fe2
ff0
fe1
032
ff3
ff0
ff1
010
032
ff1
ff2
013
ff0
011
012
ff3
fd0
fd1
022
fe3
011
012
fe3
01f
ff0
013
01f
010
061
fe2
023
011
042
fe3
01f
01f
010
012
01f
010
021
022
ff0
011
012
023
000
ff1
ff3
031
011
fe2
ff3
011
012
013
fe2
ff3
01f
031
ff2
013
fd1
022
ff3
012
ff3
011
011
012
013
01f
fd1
012
ff3
011
ff2
ff3
01f
01f
ff1
012
013
01f
fe1
ff2
fe3
ff1
012
023
000
ff0
011
033
fe0
fe1
fe3
ff0
fe1
fe2
ff3
fe0
011
ff3
011
ff2
033
ff0
012
ff1
fe2
ff3
ff0
031
fe2
033
010
ff2
ff2
ff3
012
fe3
01f
040
ff1
032
010
021
fe2
023
01f
01f
ff0
021
ff2
01f
020
ff2
013
ff1
032
ff3
000
010
031
013
ff0
ff1
fe3
040
fe1
ff3
ff1
ff3
010
031
023
ff3
020
ff1
020
031
013
01f
ff1
010
fe1
fe3
01f
fe0
ff0
031
033
01f
01f
013
01f
011
013
020
000
052
ff0
011
fe2
030
ff1
ff2
fe2
ff3
010
042
ff0
ff1
013
ff1
ff2
fe3
010
fd1
062
fd3
010
ff1
fe3
010
ff1
fe2
fe2
01f
010
021
fe2
023
020
022
fe3
01f
012
ff2
01f
030
ff1
013
ff2
000
010
ff2
023
fe0
ff1
fe2
ff0
051
fe2
ff3
010
ff1
022
ff3
010
011
fd2
ff1
ff2
ff3
070
ff1
ff2
013
010
010
ff1
ff3
010
ff1
032
01f
fe0
ff1
032
013
fe0
ff1
ff2
013
01f
01f
010
011
012
ff3
01f
ff0
021
ff2
ff3
ff0
042
013
000
