1fa3
1fa4
1fc6
1f87
1fa8
1faa
1fab
004d
1fcf
0052
1fc4
1fc5
1f8a
1fab
1fcc
1fcd
1fcf
0053
0054
0075
0056
0057
0098
003f
1fa6
004a
1fcc
004e
1faf
1fd0
1fb1
1fd2
1fd3
1fd4
1fb8
0047
0048
0069
008c
006d
1fd0
1fd1
1fd2
1fb3
1fd4
1fb6
1fd7
1fd8
1fc8
1fc9
1fcb
1fcc
1fad
1fae
1fb0
1fd1
1f92
1fb3
1fb4
1fd6
1fb7
1fd8
0048
004c
1fce
1fcf
1fd2
1fd3
1fb4
1fb5
1fb6
1fb7
1fd8
1fc4
1fc6
1fa7
1fc8
1fc9
1fcb
1fac
1fcd
1fae
1fd0
1fd4
1fd5
1fb6
0058
0000
